<unk>	0
<s>	0
</s>	0
<pad>	0
<mask>	0
rt	0
AT_USER	0
URL	0
$aapl	0
$abb	0
$abbv	0
$aep	0
$agfs	0
$amgn	0
$amzn	0
$ba	0
$baba	0
$bac	0
$bbl	0
$bch	0
$bhp	0
$bp	0
$brk-a	0
$bsac	0
$bud	0
$c	0
$cat	0
$celg	0
$chl	0
$chtr	0
$cmcsa	0
$codi	0
$csco	0
$cvx	0
$d	0
$dhr	0
$dis	0
$duk	0
$exc	0
$fb	0
$gd	0
$ge	0
$goog	0
$hd	0
$hon	0
$hrg	0
$hsbc	0
$iep	0
$intc	0
$jnj	0
$jpm	0
$ko	0
$lmt	0
$ma	0
$mcd	0
$mdt	0
$mmm	0
$mo	0
$mrk	0
$msft	0
$nee	0
$ngg	0
$nvs	0
$orcl	0
$pcg	0
$pcln	0
$pep	0
$pfe	0
$pg	0
$pico	0
$pm	0
$ppl	0
$ptr	0
$rds-b	0
$rex	0
$slb	0
$snp	0
$sny	0
$so	0
$splp	0
$sre	0
$t	0
$tm	0
$tot	0
$tsm	0
$ul	0
$un	0
$unh	0
$ups	0
$utx	0
$v	0
$vz	0
$wfc	0
$wmt	0
$xom	0
▁	-1.12402
▁$	-3.07176
▁#	-3.57863
.	-4.23076
s	-4.31925
:	-4.49476
,	-4.5271
▁to	-4.88568
▁in	-5.00026
▁the	-5.09088
...	-5.14964
▁on	-5.23344
▁for	-5.24102
'	-5.2863
-	-5.32398
▁of	-5.41125
▁a	-5.41685
stocks	-5.46678
?	-5.65464
▁and	-5.78084
b	-5.83119
stock	-5.85817
▁is	-5.86841
▁-	-5.91873
l	-5.94269
▁you	-5.94698
ing	-6.01709
!	-6.02969
▁buy	-6.11909
▁will	-6.15154
d	-6.15902
t	-6.19307
m	-6.19475
▁(	-6.19802
p	-6.23023
)	-6.24985
spy	-6.27615
▁inc	-6.28382
▁at	-6.30154
ed	-6.32898
a	-6.33552
▁apple	-6.3381
wtr	-6.36387
f	-6.41333
▁stock	-6.45317
▁it	-6.47281
▁are	-6.47663
▁this	-6.48385
h	-6.52738
▁up	-6.53098
▁with	-6.53923
▁have	-6.54223
sla	-6.54454
x	-6.54541
n	-6.54792
▁7	-6.57071
$	-6.58423
▁should	-6.58826
▁our	-6.61415
/	-6.61555
grpn	-6.6195
▁talks	-6.66562
_	-6.6679
▁from	-6.67104
▁i	-6.67641
nflx	-6.68101
▁step	-6.68709
▁news	-6.68917
▁market	-6.68951
"	-6.69444
e	-6.70547
▁new	-6.70664
▁be	-6.71398
▁here	-6.71581
▁facebook	-6.77615
y	-6.78295
▁&	-6.78777
▁now	-6.81786
▁out	-6.81992
i	-6.82821
▁google	-6.83817
▁->	-6.85927
▁today	-6.85998
nasdaq	-6.86294
▁or	-6.8751
&	-6.89065
▁by	-6.90034
▁over	-6.9168
c	-6.9561
▁earnings	-6.97186
k	-6.97719
▁more	-6.98299
▁bought	-6.98558
to	-6.99543
▁like	-7.03163
▁them	-7.03634
qqq	-7.04348
r	-7.04597
▁u	-7.0476
options	-7.05116
▁that	-7.06739
o	-7.06929
investing	-7.07245
▁--	-7.08174
▁instead	-7.10739
▁get	-7.10974
▁oculus	-7.11179
trading	-7.1118
3	-7.11905
1	-7.1405
▁my	-7.14313
▁see	-7.1462
▁"	-7.15111
▁watch	-7.17068
▁trade	-7.19286
▁2015	-7.19609
▁@	-7.2054
2	-7.20871
▁repo	-7.21583
▁amazon	-7.21815
4	-7.22561
▁cha	-7.23748
er	-7.26361
▁top	-7.26509
g	-7.26674
mu	-7.28424
▁next	-7.28511
▁your	-7.29834
▁as	-7.3114
▁why	-7.31651
▁via	-7.31947
▁ale	-7.33196
w	-7.33317
share	-7.34177
apple	-7.34666
stockaction	-7.34929
▁has	-7.35556
ebay	-7.36241
▁price	-7.36779
!!	-7.36848
finance	-7.38214
’	-7.40458
▁click	-7.40489
groupon	-7.41329
▁we	-7.42619
▁sell	-7.42955
yhoo	-7.43023
▁day	-7.43322
gpro	-7.43473
▁week	-7.45393
ibm	-7.46132
▁how	-7.46546
pennystocks	-7.46833
invest	-7.4778
re	-7.4784
▁de	-7.4807
stockmarket	-7.48543
▁all	-7.49825
▁can	-7.50097
▁what	-7.50595
▁last	-7.50987
▁great	-7.51548
▁analyst	-7.51615
▁corp	-7.52118
ma	-7.52464
▁just	-7.52884
lnkd	-7.53047
q	-7.53218
▁about	-7.54866
▁updated	-7.54899
▁5	-7.55862
▁its	-7.56172
▁after	-7.57208
▁high	-7.58139
es	-7.58788
▁2	-7.6009
research	-7.61417
gs	-7.61549
looking	-7.62619
▁company	-7.62684
▁1	-7.62887
▁but	-7.63287
▁not	-7.63363
▁big	-7.63853
▁free	-7.64441
money	-7.64484
v	-7.6482
▁3	-7.65233
tradeideas	-7.65487
▁check	-7.65704
▁sho	-7.66026
▁co	-7.66657
▁view	-7.66842
▁time	-7.68322
bidu	-7.68723
▁no	-7.69107
▁was	-7.69438
u	-7.69543
ia	-7.70058
▁down	-7.70826
;	-7.72022
▁$8	-7.72332
▁me	-7.72636
▁gain	-7.73942
▁research	-7.74424
▁pick	-7.74896
us	-7.7493
▁one	-7.75243
ال	-7.76284
▁options	-7.76762
▁want	-7.77611
▁trending	-7.78547
nyse	-7.78736
in	-7.78862
▁billion	-7.79079
al	-7.79897
▁shares	-7.80111
▁if	-7.80799
gild	-7.81441
▁en	-7.81533
▁share	-7.83034
▁trading	-7.83074
st	-7.83278
▁year	-7.83444
▁microsoft	-7.84167
ly	-7.84216
▁than	-7.843
▁could	-7.84655
nke	-7.85233
داو	-7.85931
▁latest	-7.86038
iwm	-7.86617
▁find	-7.8783
j	-7.88489
▁long	-7.88614
▁an	-7.89072
on	-7.89802
▁call	-7.89896
aapl	-7.91219
▁2014	-7.91403
▁sales	-7.91621
▁10	-7.92226
▁must	-7.93154
▁some	-7.93343
▁update	-7.93622
▁also	-7.93903
▁iphone	-7.94098
gld	-7.94604
▁bank	-7.94703
▁so	-7.94921
▁do	-7.95119
▁daily	-7.95404
▁make	-7.96121
]	-7.96616
▁us	-7.98394
spotthexph	-7.98464
gt	-7.98584
▁these	-7.99415
▁penny	-8.00394
▁going	-8.00414
▁look	-8.0043
▁says	-8.00644
5	-8.00772
spx	-8.01289
ll	-8.01346
▁[	-8.01728
up	-8.0181
▁hold	-8.02524
▁picks	-8.02581
▁trend	-8.02587
▁still	-8.02654
100	-8.02945
▁into	-8.03423
▁am	-8.0344
▁~	-8.04203
top	-8.05073
▁most	-8.05205
▁try	-8.05644
%	-8.06602
▁board	-8.06846
▁hei	-8.07063
ل	-8.07135
▁best	-8.07734
▁dividend	-8.08126
z	-8.08138
▁deal	-8.09539
+	-8.09763
pennystock	-8.10046
gm	-8.10517
▁open	-8.10527
▁dow	-8.1137
ا	-8.11515
video	-8.11739
▁may	-8.11764
management	-8.11771
▁video	-8.11808
▁option	-8.11894
▁good	-8.12053
▁target	-8.12331
sbux	-8.12965
6	-8.13101
sdrl	-8.13269
▁tech	-8.13363
..	-8.13393
▁pa	-8.13605
9	-8.14067
iaci	-8.14955
▁group	-8.15132
▁calls	-8.15329
xlf	-8.15965
op	-8.16319
ap	-8.16874
de	-8.17205
▁since	-8.17368
za	-8.17482
▁wo	-8.17522
▁bullish	-8.17858
▁6	-8.18005
15	-8.18414
▁ceo	-8.18932
▁back	-8.20001
▁“	-8.2027
0	-8.20366
ن	-8.20551
▁don	-8.20844
uso	-8.21101
▁buying	-8.21477
day	-8.22043
▁para	-8.22479
axp	-8.23263
ex	-8.24054
▁first	-8.24399
th	-8.24835
▁ideas	-8.24892
▁live	-8.25443
▁alibaba	-8.25573
xx	-8.25723
abx	-8.26344
▁go	-8.26453
tech	-8.26697
▁selling	-8.26829
▁vs	-8.26842
▁q	-8.26999
▁4	-8.27009
▁la	-8.27211
▁they	-8.27611
▁data	-8.27789
▁el	-8.28031
an	-8.28359
wk	-8.28461
▁their	-8.28677
▁join	-8.30073
▁growth	-8.30555
▁close	-8.30682
▁info	-8.31131
rig	-8.31757
▁very	-8.31807
ت	-8.32126
▁think	-8.32257
7	-8.33012
▁investors	-8.33548
▁sta	-8.33728
▁tweet	-8.35233
siri	-8.35603
▁winners	-8.36085
▁got	-8.36358
▁volume	-8.36428
ش	-8.36523
▁highway	-8.36553
▁low	-8.36637
▁morning	-8.37042
te	-8.37308
▁america	-8.37432
▁weekly	-8.37487
▁read	-8.37555
is	-8.37639
mg	-8.38967
▁analysis	-8.39244
▁coming	-8.39325
na	-8.39419
▁companies	-8.39629
▁million	-8.40058
▁did	-8.40239
▁give	-8.40273
وب	-8.40418
ه	-8.40501
▁groupon	-8.40624
▁revenue	-8.40672
financial	-8.40755
▁need	-8.40903
se	-8.41124
▁gains	-8.41248
▁pm	-8.41284
ea	-8.41628
▁technical	-8.42006
▁off	-8.42015
▁please	-8.42114
bbry	-8.4221
▁would	-8.42226
ms	-8.42253
▁weeks	-8.42779
▁monday	-8.43521
gain	-8.43854
8	-8.43869
▁might	-8.44273
the	-8.44286
fb	-8.44287
usd	-8.44784
feye	-8.45713
earnings	-8.45739
at	-8.45998
▁change	-8.46298
▁large	-8.46438
▁rate	-8.46479
▁se	-8.46923
qcom	-8.46948
▁ahead	-8.47407
▁qua	-8.47419
▁|	-8.47915
▁feature	-8.47938
▁been	-8.48101
news	-8.48407
▁huge	-8.48476
lo	-8.48555
▁strong	-8.48573
out	-8.48913
▁profit	-8.5
▁mobile	-8.50157
▁months	-8.50496
▁when	-8.50797
aa	-8.51196
ve	-8.51559
▁take	-8.5156
xle	-8.51872
▁rocky	-8.51923
500	-8.51962
▁higher	-8.52763
▁intel	-8.52927
▁subscribe	-8.53518
▁list	-8.53611
no	-8.53626
▁que	-8.53853
▁positions	-8.54433
▁corporation	-8.54737
equity	-8.55519
جو	-8.5598
markets	-8.55986
▁bid	-8.56422
economy	-8.56441
(	-8.56484
▁keep	-8.57333
▁details	-8.57458
▁friday	-8.57613
▁pay	-8.58048
facebook	-8.58185
▁del	-8.58492
”	-8.592
▁message	-8.59427
▁value	-8.59467
▁sma	-8.59489
term	-8.59571
▁early	-8.59598
ba	-8.59633
▁fund	-8.6006
▁china	-8.60089
google	-8.60326
▁cap	-8.60388
نز	-8.60463
▁who	-8.60607
#	-8.6064
da	-8.61012
▁consider	-8.61115
▁potential	-8.61168
it	-8.61576
▁money	-8.6162
▁rating	-8.6216
*	-8.6261
market	-8.62959
▁wal	-8.62999
▁movers	-8.63448
▁business	-8.6345
ng	-8.63614
bt	-8.63676
▁win	-8.63805
ca	-8.64215
▁right	-8.64603
▁cisco	-8.64854
▁cash	-8.64878
▁app	-8.64898
14	-8.65051
▁johnson	-8.65401
lt	-8.65426
rs	-8.66262
limit	-8.66365
▁52	-8.66379
▁yesterday	-8.66682
rx	-8.67438
▁ask	-8.68216
tek	-8.68392
▁investor	-8.68517
aig	-8.69866
exceed	-8.70077
▁active	-8.70277
▁todays	-8.70425
cap	-8.70429
▁twitter	-8.70583
▁holding	-8.70597
▁visit	-8.70609
oil	-8.70828
▁tomorrow	-8.70881
fcx	-8.71282
hc	-8.71404
weets	-8.71658
ibb	-8.71847
tv	-8.71853
ticke	-8.71957
act	-8.71994
po	-8.721
▁days	-8.72338
ar	-8.72404
ko	-8.72619
▁watching	-8.73143
▁full	-8.73155
hpq	-8.73329
▁too	-8.73705
▁put	-8.74401
▁another	-8.74422
▁insider	-8.74586
mkt	-8.74634
time	-8.74739
am	-8.74798
▁other	-8.74806
▁there	-8.74962
▁use	-8.75096
▁april	-8.75147
▁again	-8.75185
▁pro	-8.75205
▁much	-8.75209
personal	-8.75238
en	-8.75501
newsletter	-8.7573
▁small	-8.76109
▁pfizer	-8.76195
▁updates	-8.76351
biib	-8.7638
▁size	-8.76387
▁street	-8.76515
▁know	-8.76816
▁energy	-8.76906
▁service	-8.76951
dd	-8.77071
emc	-8.77132
▁wall	-8.77199
pm	-8.7727
▁–	-8.77429
▁only	-8.77491
▁world	-8.77532
>	-8.77857
shares	-8.78397
ale	-8.78457
rv	-8.78484
▁post	-8.787
hft	-8.79053
▁•	-8.79232
▁per	-8.79249
▁parse	-8.79253
▁sector	-8.79375
▁recent	-8.79581
amd	-8.79632
lf	-8.80002
2,	-8.80086
hal	-8.80097
▁los	-8.80234
▁trades	-8.80373
sentiquant	-8.80716
china	-8.80884
▁years	-8.80922
▁nice	-8.80983
▁results	-8.81066
▁way	-8.81104
twitter	-8.8134
mc	-8.81351
▁play	-8.81648
▁suppo	-8.8175
▁home	-8.81896
€	-8.8198
▁move	-8.82234
gmcr	-8.8251
▁march	-8.83155
▁bad	-8.83192
▁breaking	-8.83434
ط	-8.83713
or	-8.84151
▁general	-8.84319
..."	-8.8462
),	-8.85057
▁story	-8.85588
▁before	-8.86048
▁had	-8.8627
▁12	-8.86306
mine	-8.86327
▁making	-8.86474
wallstreet	-8.86806
fslr	-8.87143
!!!	-8.87191
nem	-8.87296
▁hot	-8.87343
el	-8.87541
▁ht	-8.87617
sh	-8.87747
▁في	-8.87752
▁millones	-8.87753
▁above	-8.8807
▁real	-8.88236
▁saw	-8.88292
▁9	-8.88631
▁+	-8.88696
vi	-8.88745
▁come	-8.88929
▁analyze	-8.89295
▁oil	-8.89339
wealth	-8.8935
▁looks	-8.89514
▁opinions	-8.89578
overvalued	-8.89672
▁highs	-8.8981
goto	-8.90051
cola	-8.90435
phone	-8.90652
نف	-8.90696
trade	-8.90713
▁thursday	-8.90719
ir	-8.91166
big	-8.9157
▁major	-8.91637
▁disney	-8.91745
ag	-8.91848
folio	-8.91897
buy	-8.91907
▁hit	-8.91968
do	-8.91976
▁mcdonald	-8.92138
▁8	-8.92323
mo	-8.92365
liquidity	-8.92623
▁jpmorgan	-8.92803
amazon	-8.92884
▁investment	-8.93005
▁tuesday	-8.9319
▁made	-8.93283
ri	-8.93497
ti	-8.93596
▁systems	-8.93729
▁watchlist	-8.93854
iphone	-8.94014
▁electric	-8.94194
▁citigroup	-8.94308
▁average	-8.94496
house	-8.9463
slw	-8.94674
all	-8.94691
▁review	-8.94894
▁puts	-8.95292
ant	-8.9564
▁eps	-8.95787
singe	-8.95847
▁show	-8.96207
▁su	-8.9623
▁htt	-8.96247
id	-8.96281
▁technology	-8.96552
▁ishares	-8.96558
▁people	-8.96592
▁financials	-8.96762
dinvestor	-8.96816
▁thinking	-8.97068
pa	-8.97325
financialnews	-8.97431
ua	-8.97589
▁current	-8.97607
▁breakout	-8.97637
▁suggest	-8.97666
▁algo	-8.97884
▁po	-8.98212
▁coca	-8.98331
▁better	-8.98495
▁june	-8.98653
▁beats	-8.98778
▁january	-8.99155
nse	-8.99233
▁past	-8.99307
▁ltd	-8.99825
live	-8.99911
▁getting	-8.99974
im	-9.00015
fc	-9.00195
▁answer	-9.00245
be	-9.00439
hi	-9.00534
▁markets	-9.00639
▁follow	-9.00667
▁un	-9.00882
brk	-9.00906
▁rise	-9.01308
daytrad	-9.01547
▁add	-9.0161
▁sold	-9.01659
azn	-9.01715
of	-9.01748
▁prices	-9.01847
futures	-9.02131
ust	-9.02145
ión	-9.02297
▁chat	-9.02321
low	-9.02575
dow	-9.02615
▁index	-9.02787
as	-9.02832
▁set	-9.03043
▁millardos	-9.03219
▁80	-9.03306
bmy	-9.03317
▁chase	-9.03369
wc	-9.03398
iwatch	-9.03402
الم	-9.03543
▁february	-9.0359
study	-9.03883
▁date	-9.04062
▁users	-9.04265
gtat	-9.04318
▁boeing	-9.04568
yelp	-9.04633
▁di	-9.0475
▁traders	-9.04879
ge	-9.04913
fnm	-9.04928
we	-9.05031
ngcg	-9.05384
▁bearish	-9.05475
myec	-9.0577
tix	-9.05772
▁things	-9.05925
sco	-9.05976
fxi	-9.06349
▁30	-9.06513
▁exxon	-9.06562
▁con	-9.06726
▁really	-9.07006
▁biggest	-9.0716
▁morgan	-9.0736
▁global	-9.07753
▁love	-9.07781
pharma	-9.07839
▁wow	-9.07892
▁banks	-9.07923
=	-9.0822
▁pre	-9.08525
sp	-9.08559
▁game	-9.08725
▁help	-9.08819
▁month	-9.09064
est	-9.09068
hk	-9.09286
co	-9.09315
▁subscribers	-9.09404
eem	-9.0958
▁said	-9.09898
slv	-9.09988
▁performance	-9.10025
▁=	-9.10083
$$	-9.10159
received	-9.10314
swks	-9.10562
▁webinar	-9.10669
▁sin	-9.10817
isrg	-9.10837
nt	-9.1088
▁awesome	-9.10907
mnkd	-9.11258
▁let	-9.11366
▁sign	-9.12222
@	-9.12456
xj	-9.12591
fv	-9.12608
▁maduro	-9.12839
▁ipo	-9.13061
▁ge	-9.13381
sft	-9.13489
▁social	-9.13513
▁record	-9.13579
▁launch	-9.13689
▁forum	-9.13934
▁does	-9.13962
ía	-9.13992
▁wednesday	-9.14068
▁spdr	-9.1407
xn	-9.14132
▁compra	-9.14416
▁two	-9.14501
▁20	-9.14521
ta	-9.14555
▁under	-9.14728
follow	-9.14812
▁announces	-9.14858
▁posts	-9.15168
▁tachyon	-9.15313
▁lower	-9.15656
▁bosocial	-9.15732
▁patent	-9.16066
aal	-9.16246
▁yield	-9.16251
▁jobs	-9.1631
nd	-9.16328
▁future	-9.1639
▁100%	-9.16566
▁samsung	-9.16626
microsoft	-9.16751
new	-9.16825
ne	-9.16868
▁expect	-9.17244
▁mo	-9.17246
▁his	-9.17311
mnst	-9.17429
nokiax	-9.17436
▁internet	-9.17569
ver	-9.17747
▁far	-9.17865
dont	-9.18323
▁mayor	-9.18371
▁soon	-9.18389
mi	-9.18439
▁profits	-9.18444
bk	-9.18538
▁descendi	-9.1871
ion	-9.18934
▁ready	-9.18973
ños	-9.19052
gold	-9.19142
ow	-9.19363
▁beat	-9.19447
▁seeking	-9.19498
52-	-9.19569
▁lose	-9.19628
▁venezuela	-9.19661
▁capital	-9.19676
ur	-9.19798
so	-9.1983
rad	-9.19975
▁nuevo	-9.20015
ok	-9.20066
▁which	-9.20252
me	-9.20567
next	-9.20602
ra	-9.20725
▁fargo	-9.20731
▁etf	-9.20788
amzn	-9.20903
▁well	-9.20945
regn	-9.21378
jpm	-9.21543
▁ago	-9.21641
▁releases	-9.21693
▁bull	-9.2171
▁medicamentos	-9.21781
▁he	-9.21855
▁verizon	-9.21871
nq	-9.22344
ers	-9.22402
▁own	-9.22476
ting	-9.22587
▁closed	-9.22765
rm	-9.22915
ce	-9.22968
room	-9.23036
▁same	-9.23246
▁190	-9.23909
abt	-9.23921
▁embraer	-9.24033
▁where	-9.24039
▁strategy	-9.24401
bn	-9.2446
▁av	-9.24538
▁cáncer	-9.24948
5%	-9.25199
▁outlook	-9.25286
▁ni	-9.25332
watch	-9.25448
▁visa	-9.2557
vix	-9.25632
ft	-9.25649
▁android	-9.26209
▁remember	-9.26338
▁changes	-9.26554
fn	-9.26719
un	-9.26728
▁credit	-9.26804
▁platinum	-9.26804
▁plc	-9.27237
▁eye	-9.27501
he	-9.27577
gg	-9.2769
vs	-9.2787
her	-9.28059
▁less	-9.2807
▁wells	-9.28133
▁wedge	-9.28226
▁mobil	-9.28248
▁tim	-9.28478
▁release	-9.28597
▁members	-9.28641
▁already	-9.28696
▁le	-9.28697
sso	-9.28913
▁trial	-9.29053
ewj	-9.29186
▁even	-9.29239
bac	-9.29265
▁few	-9.2962
▁analysts	-9.29871
et	-9.29873
▁whatsapp	-9.29991
ps	-9.29997
▁near	-9.30038
▁sigma	-9.30144
▁levels	-9.30437
znga	-9.31112
bethe	-9.31148
wx	-9.31393
▁crossfinder	-9.31602
mobile	-9.31766
eron	-9.31874
pg	-9.32286
▁interest	-9.32464
▁views	-9.32657
48	-9.32852
ost	-9.32906
▁level	-9.33078
▁behind	-9.33087
ibio	-9.33166
▁hope	-9.33226
▁bell	-9.33553
▁holdings	-9.33592
best	-9.33593
pbr	-9.33708
uup	-9.33847
▁$100	-9.33927
▁boost	-9.34094
lly	-9.3424
key	-9.34542
▁stores	-9.34851
baba	-9.352
xi	-9.35296
▁drop	-9.35311
ies	-9.35537
cl	-9.35606
bid	-9.35688
biotech	-9.36281
▁moving	-9.36289
▁offer	-9.36291
ح	-9.36304
fx	-9.36367
▁focus	-9.36385
and	-9.36671
▁break	-9.3681
fe	-9.36905
▁filings	-9.36908
intc	-9.36989
fed	-9.37003
▁united	-9.37056
▁risk	-9.37094
▁trigger	-9.37158
▁caterpillar	-9.37229
rn	-9.37519
japan	-9.37683
▁pt	-9.37793
hold	-9.37857
lr	-9.38189
▁انتحاري	-9.38203
scty	-9.38206
plug	-9.38221
nyx	-9.38378
ji	-9.38462
hd	-9.38672
▁others	-9.38679
▁summary	-9.38729
using	-9.38868
▁filing	-9.38999
▁chevron	-9.39014
▁say	-9.3917
hov	-9.39172
lulu	-9.3926
▁july	-9.39311
ups	-9.39455
ni	-9.39462
hanging	-9.3969
▁team	-9.39744
▁select	-9.39787
soundcloud	-9.3979
▁oracle	-9.39804
hemp	-9.39865
▁against	-9.39873
▁while	-9.39909
▁many	-9.39934
الي	-9.39939
▁statement	-9.40005
sho	-9.40219
▁plan	-9.40228
avgo	-9.40353
xlu	-9.40406
lvs	-9.4045
▁comcast	-9.40498
via	-9.40601
king	-9.40606
mt	-9.40718
▁end	-9.40789
▁run	-9.40793
▁impo	-9.40947
▁media	-9.40972
▁sentiment	-9.40973
lx	-9.41016
▁track	-9.41094
ho	-9.41095
مستشا	-9.41403
btu	-9.41551
▁50	-9.41585
▁any	-9.41638
▁plans	-9.41723
amba	-9.41727
▁both	-9.41821
ý	-9.41947
▁cloud	-9.41951
▁everyone	-9.41952
▁were	-9.42055
▁acquire	-9.42104
▁hedge	-9.42156
▁little	-9.42224
gi	-9.42237
ecig	-9.42529
▁perform	-9.4253
▁:)	-9.42882
aria	-9.42925
uwti	-9.43065
year	-9.43243
▁breakt	-9.43523
down	-9.43528
▁key	-9.43602
▁merck	-9.4361
▁sunday	-9.43717
adx	-9.43797
luv	-9.43902
0.01	-9.43975
0.02	-9.44009
▁music	-9.44092
رك	-9.44124
▁weekend	-9.4418
xiv	-9.4421
fdx	-9.44257
10	-9.44566
apc	-9.44618
energy	-9.44793
▁cook	-9.44817
wfm	-9.44861
▁interesting	-9.45003
llo	-9.45089
aol	-9.45093
▁depot	-9.453
▁eod	-9.45321
▁expected	-9.4543
▁added	-9.45565
ci	-9.45658
▁exchange	-9.45662
4%	-9.45713
jcp	-9.45865
nov	-9.45899
▁store	-9.45966
oh	-9.46268
▁foll	-9.46348
▁industry	-9.46404
▁names	-9.46458
▁rally	-9.46494
bi	-9.46566
met	-9.4657
rio	-9.46687
▁$1	-9.46693
▁11	-9.46698
▁‘	-9.46794
▁american	-9.46852
now	-9.46884
▁bp	-9.46889
▁power	-9.47131
sta	-9.47929
▁por	-9.4809
▁ratio	-9.4812
alibaba	-9.48148
ov	-9.48174
ol	-9.48186
▁$10	-9.48218
xlv	-9.48267
os	-9.48324
م	-9.4851
▁trust	-9.48513
free	-9.48579
▁whats	-9.48614
▁jan	-9.48733
glw	-9.48736
ix	-9.48766
▁phone	-9.48773
student	-9.48852
ip	-9.48897
mex	-9.49069
kr	-9.49099
▁2013	-9.49131
expe	-9.49332
brcm	-9.49352
csco	-9.49392
▁newsletter	-9.49479
wo	-9.49655
▁learn	-9.4972
tropa	-9.49883
▁14	-9.49921
▁*	-9.49937
▁every	-9.49968
wmt	-9.50053
▁head	-9.50058
▁action	-9.50356
if	-9.50484
unity	-9.50503
smh	-9.50528
premarket	-9.50586
▁newsxom	-9.50604
▁tick	-9.50659
▁retail	-9.50812
▁عملي	-9.5107
▁nearly	-9.51128
lin	-9.51185
man	-9.51322
▁comment	-9.51642
highway	-9.51651
▁millionaires	-9.51657
▁gold	-9.51716
."	-9.51768
goog	-9.51787
div	-9.52013
line	-9.52115
▁drug	-9.52168
vote	-9.52198
▁oppo	-9.52307
sne	-9.5249
▁makes	-9.52675
le	-9.52687
sentishift	-9.52877
▁percent	-9.52877
quant	-9.52962
▁fall	-9.52996
▁netflix	-9.5321
tw	-9.53262
xom	-9.53349
️	-9.53487
▁estimates	-9.53511
kmi	-9.53515
able	-9.53793
poil	-9.53961
fit	-9.54041
▁green	-9.54078
▁cheap	-9.54121
nolo	-9.54145
▁then	-9.54251
rax	-9.54437
▁position	-9.54576
vc	-9.54611
np	-9.54641
ation	-9.54675
▁0.10	-9.5472
▁resistance	-9.54826
ibd	-9.54831
▁cut	-9.54885
pt	-9.54924
▁undervalued	-9.55339
▁system	-9.55364
▁sec	-9.55742
onto	-9.55819
siq	-9.55831
▁gets	-9.55866
cecaf	-9.55964
▁quotes	-9.55968
▁500	-9.56075
▁stop	-9.56322
▁sure	-9.56368
usb	-9.56441
▁ipad	-9.56569
▁cost	-9.56573
▁taking	-9.5694
fl	-9.57003
▁avoid	-9.57008
ch	-9.57184
▁access	-9.57226
jnj	-9.57226
▁celgene	-9.57361
ha	-9.57458
pe	-9.5748
2015	-9.57523
▁account	-9.57539
▁europe	-9.57541
▁mark	-9.5765
ake	-9.57848
wu	-9.57986
|	-9.58123
▁finds	-9.58127
▁push	-9.58189
▁500%	-9.58474
▁closing	-9.58504
▁gas	-9.58913
ugaz	-9.59181
▁strategies	-9.59316
▁thanks	-9.59455
▁below	-9.59477
per	-9.59568
▁walt	-9.59616
▁est	-9.5966
▁doesn	-9.59701
▁return	-9.59769
nugt	-9.59819
ipad	-9.59822
▁ytd	-9.59843
▁yet	-9.59882
▁total	-9.59947
sqqq	-9.59972
▁turn	-9.60112
go	-9.60232
▁despi	-9.60528
▁gamble	-9.6058
blue	-9.60588
off	-9.60779
ah	-9.6084
▁sale	-9.60976
...:	-9.61047
xlk	-9.61197
▁work	-9.61199
love	-9.61648
vn	-9.61652
▁ever	-9.61764
cat	-9.6177
▁become	-9.6179
▁quote	-9.6184
▁ad	-9.62105
▁twice	-9.6244
▁abbvie	-9.62508
▁dollar	-9.62553
ro	-9.62635
▁ultra	-9.62904
joe	-9.62906
dis	-9.62957
▁such	-9.63196
rc	-9.6321
▁prev	-9.63215
▁services	-9.63216
▁iphones	-9.63239
▁hits	-9.63427
▁left	-9.63567
erly	-9.63658
30	-9.63659
▁true	-9.63682
▁couple	-9.63792
lgn	-9.63897
rox	-9.6391
▁won	-9.63993
▁talk	-9.64027
▁bear	-9.64226
ipo	-9.64268
▁idea	-9.64435
▁cent	-9.64453
corporate	-9.64464
almost	-9.64472
▁acquisition	-9.64521
▁raised	-9.64618
▁saturday	-9.64741
▁minutes	-9.6497
▁split	-9.65059
ray	-9.65067
mdlz	-9.65151
▁finally	-9.65172
▁yahoo	-9.65172
em	-9.65317
icn	-9.65428
▁bet	-9.65479
▁lost	-9.65808
hedging	-9.6584
▁dire	-9.65946
▁proct	-9.6597
bby	-9.66238
▁around	-9.6631
٤	-9.66535
▁returns	-9.66567
▁upside	-9.66636
tr	-9.66844
ty	-9.66979
ner	-9.67065
▁fire	-9.67098
▁shows	-9.67217
▁spotted	-9.67332
▁$20	-9.67376
xly	-9.67534
▁health	-9.67618
xlp	-9.67635
▁likely	-9.67797
ac	-9.67843
▁because	-9.67943
▁dennyt	-9.67945
▁search	-9.68096
▁office	-9.68134
xion	-9.68159
mw	-9.68521
▁tv	-9.68646
hyg	-9.68753
asr	-9.688
▁seen	-9.68985
xlb	-9.69013
▁red	-9.69018
▁needs	-9.6916
cvx	-9.69387
ة	-9.69574
▁assets	-9.69748
mbly	-9.70119
▁launches	-9.70174
▁event	-9.70234
▁cou	-9.70247
-1	-9.70252
one	-9.70269
▁sa	-9.70822
ltd	-9.70864
▁giants	-9.70897
▁range	-9.7101
▁car	-9.7107
▁med	-9.71301
▁case	-9.71406
net	-9.71453
ash	-9.71483
nxpi	-9.7154
ql	-9.71757
ry	-9.71928
nat	-9.71991
▁ios	-9.72129
▁guaire	-9.72271
▁ownership	-9.72273
ual	-9.72413
▁bigger	-9.72446
▁goldman	-9.72714
▁lead	-9.72862
ment	-9.72874
forex	-9.73212
▁positive	-9.7341
▁yes	-9.73414
▁those	-9.73565
▁wait	-9.7364
▁conference	-9.73758
▁second	-9.73781
wynn	-9.73793
gsk	-9.73807
od	-9.74049
pro	-9.74197
▁icahn	-9.74199
hum	-9.74483
▁special	-9.74512
rip	-9.74686
mm	-9.74767
jd	-9.74799
▁online	-9.74914
▁crazy	-9.75036
investor	-9.75192
water	-9.75307
bank	-9.75502
▁thing	-9.75835
20	-9.75968
estan	-9.75977
▁futures	-9.7599
▁relative	-9.76031
ic	-9.76044
▁recap	-9.76092
▁amgen	-9.76143
▁listen	-9.76143
▁mini	-9.76233
bio	-9.76377
£	-9.76615
▁limpi	-9.76625
3%	-9.76664
bc	-9.76705
pch	-9.76887
▁blog	-9.77142
4)	-9.77448
▁explica	-9.77576
▁lol	-9.77742
▁product	-9.77852
▁reasons	-9.7795
fast	-9.78053
12	-9.78141
eza	-9.78248
jia	-9.7835
▁ft	-9.78435
emr	-9.78652
arna	-9.78697
si	-9.78937
▁super	-9.79061
nuan	-9.79141
▁deberia	-9.79144
less	-9.79171
▁highest	-9.79249
▁trader	-9.79271
etting	-9.79337
md	-9.79425
star	-9.79684
yod	-9.79856
▁snapshot	-9.79937
▁technologies	-9.79937
amp	-9.80287
▁continues	-9.80379
▁through	-9.80436
13	-9.80511
um	-9.80522
arias	-9.8061
▁lot	-9.8062
nok	-9.80621
▁away	-9.80625
ω	-9.80737
▁information	-9.80738
▁organized	-9.80739
box	-9.80824
▁never	-9.80824
▁communications	-9.80906
rd	-9.81001
bhi	-9.81315
ybr	-9.81387
▁opinion	-9.81402
wa	-9.81539
▁beneficia	-9.81544
▁cable	-9.81611
▁half	-9.81634
▁chaos	-9.81663
va	-9.81678
01,	-9.81765
ree	-9.81812
19	-9.81813
lv	-9.81826
▁products	-9.81971
▁tax	-9.8206
agn	-9.82116
ph	-9.82199
bm	-9.82217
▁being	-9.82325
▁competition	-9.82357
▁numbers	-9.82363
panw	-9.82385
▁preview	-9.82398
wba	-9.82401
ful	-9.82485
▁cool	-9.82634
▁consumer	-9.82669
ny	-9.82765
▁<--	-9.82783
▁stake	-9.82833
gen	-9.83
▁chinese	-9.83265
▁note	-9.83441
xli	-9.83468
rl	-9.83506
yum	-9.83512
ات	-9.83606
▁apps	-9.8361
▁everything	-9.83864
و	-9.83909
▁international	-9.84003
☮	-9.84003
▁correction	-9.84005
ssys	-9.84094
▁double	-9.84127
abc	-9.84137
▁medical	-9.84195
▁adve	-9.84333
qu	-9.84547
▁cancer	-9.84799
ck	-9.8483
▁earlier	-9.84836
∞	-9.84837
ॐ	-9.84837
☪	-9.84837
pfe	-9.84864
▁reiterated	-9.84896
▁doing	-9.85009
▁25	-9.85025
bx	-9.85072
▁jacke	-9.85287
▁fast	-9.85302
▁security	-9.85303
▁entry	-9.85402
▁happy	-9.85655
▁annual	-9.8566
sndk	-9.8568
juno	-9.85722
▁micron	-9.85891
amat	-9.85935
25	-9.85937
▁bond	-9.86028
gas	-9.86042
▁valuation	-9.86148
xl	-9.86345
sentiment	-9.86351
▁danrocks	-9.86524
▁during	-9.86525
etn	-9.86764
celg	-9.86803
profits	-9.86872
▁working	-9.8688
stx	-9.86967
▁public	-9.86981
msft	-9.87016
fi	-9.87054
nc	-9.87216
▁increase	-9.87551
▁hard	-9.87621
ev	-9.87763
▁α	-9.87887
▁momentum	-9.8798
▁sent	-9.87996
24	-9.88006
▁buzz	-9.88011
▁continue	-9.88151
pay	-9.8818
▁plus	-9.88182
▁block	-9.88214
ewz	-9.88277
erbb	-9.88294
▁upgraded	-9.88378
▁shareholders	-9.8852
▁stay	-9.88587
▁air	-9.88752
mx	-9.88837
▁min	-9.89104
uvxy	-9.8911
▁sells	-9.89132
▁ju	-9.8935
li	-9.89446
▁class	-9.897
▁hours	-9.89768
▁losing	-9.89865
wag	-9.89982
▁jim	-9.90123
▁believe	-9.90146
dividend	-9.90154
lp	-9.90293
16	-9.90593
سج	-9.90635
▁mastercard	-9.90908
gx	-9.90955
bis	-9.91077
▁gap	-9.91102
ising	-9.91228
▁loss	-9.91427
▁bottom	-9.91495
▁given	-9.91524
▁playing	-9.91635
▁pull	-9.91775
▁ka	-9.91797
▁algorithms	-9.91826
▁analyz	-9.91919
cha	-9.92035
▁net	-9.92052
▁network	-9.92098
long	-9.92106
pts	-9.92165
▁reason	-9.92225
▁drops	-9.92321
2014	-9.92351
gage	-9.92352
▁buyback	-9.92408
▁feel	-9.92491
oxy	-9.92516
phones	-9.92591
hack	-9.92963
▁cramer	-9.93249
▁war	-9.93249
▁seems	-9.93267
89	-9.93267
▁customers	-9.93274
▁alpha	-9.93299
my	-9.93325
▁december	-9.93575
ffiv	-9.93578
bwp	-9.9366
▁beverage	-9.93671
▁fed	-9.9394
▁increases	-9.94081
▁16	-9.9411
▁point	-9.94162
▁channel	-9.9423
▁test	-9.94316
▁impact	-9.94495
▁dropped	-9.94495
kong	-9.94563
hong	-9.94566
▁nokia	-9.9467
fin	-9.94936
▁steve	-9.95104
ب	-9.95155
▁lx	-9.95156
▁10%	-9.95225
qua	-9.95349
▁drive	-9.95436
▁—	-9.95524
▁goes	-9.95729
▁compare	-9.95774
▁20%	-9.95848
mrk	-9.95853
opk	-9.95978
car	-9.95993
▁russia	-9.96118
▁line	-9.96129
not	-9.96214
▁massive	-9.96354
▁cboe	-9.96368
▁something	-9.96556
▁cuts	-9.96556
▁tell	-9.96693
▁receive	-9.96844
▁lockheed	-9.96847
▁signals	-9.96883
▁windows	-9.96912
▁hav	-9.97064
▁guru	-9.97433
▁zuckerberg	-9.97467
age	-9.97607
apa	-9.97803
▁astrazeneca	-9.97861
▁nova	-9.97882
▁rule	-9.97903
▁isn	-9.97952
0%	-9.97959
▁200	-9.98107
ub	-9.98152
ض	-9.98239
▁wireless	-9.98251
▁resources	-9.98322
💯	-9.98442
fxe	-9.98485
▁once	-9.98682
min	-9.98784
ish	-9.98825
▁jump	-9.98848
jblu	-9.99102
gogo	-9.99228
38	-9.99295
▁filed	-9.99296
any	-9.99412
nx	-9.99423
lox	-9.99566
iy	-9.99579
▁ads	-9.99613
▁income	-9.99633
wt	-9.99693
takes	-9.99899
مس	-10.0018
▁<3	-10.003
well	-10.0052
gr	-10.0058
▁esta	-10.0062
دي	-10.0065
ot	-10.0069
6%	-10.0069
▁five	-10.0073
▁funds	-10.0078
▁buffett	-10.008
sds	-10.0094
hot	-10.0103
▁300	-10.011
▁raises	-10.0113
bl	-10.0113
jnk	-10.0119
é	-10.0126
▁monthly	-10.0129
▁venture	-10.0131
▁zacks	-10.0137
by	-10.0155
▁member	-10.0174
▁send	-10.0179
▁revenues	-10.0195
▁الأ	-10.0209
▁stocktwits	-10.0215
nvda	-10.0216
ebola	-10.0217
bs	-10.0218
▁$$$	-10.0221
br	-10.0235
▁notes	-10.0239
cy	-10.0241
for	-10.0255
▁program	-10.0273
▁medtronic	-10.0275
▁man	-10.0279
▁forecast	-10.0281
▁bring	-10.0293
▁federal	-10.0295
otc	-10.0296
▁across	-10.0315
ie	-10.0318
8%	-10.0318
▁upcoming	-10.0318
liq	-10.0326
▁growing	-10.0339
drinks	-10.036
ftr	-10.036
▁late	-10.0367
▁thoughts	-10.0368
▁job	-10.0368
▁times	-10.0371
▁card	-10.038
▁biotech	-10.0389
▁until	-10.0416
adbe	-10.0417
▁rollout	-10.0417
prod	-10.0419
should	-10.042
▁globally	-10.0427
▁software	-10.0431
▁outperform	-10.0436
▁reviews	-10.0442
▁easy	-10.0459
▁23	-10.0462
trader	-10.047
▁50%	-10.0475
lys	-10.0486
▁simple	-10.0492
win	-10.0498
▁ticker	-10.0509
ndx	-10.0513
▁among	-10.0519
foxa	-10.0534
fm	-10.054
ig	-10.0546
▁offering	-10.0567
drug	-10.057
31	-10.0571
hlf	-10.0581
hy	-10.0592
▁possible	-10.0594
▁signal	-10.0596
▁demand	-10.0607
ab	-10.0611
nrg	-10.0614
pnc	-10.0614
yr	-10.062
ziop	-10.062
jnug	-10.0621
▁available	-10.0621
▁attend	-10.0621
abbv	-10.0623
alxn	-10.0632
fighting	-10.0636
▁extreme	-10.064
lb	-10.064
hit	-10.0641
▁deals	-10.0658
vz	-10.067
▁solar	-10.0681
vax	-10.0686
miners	-10.0686
fo	-10.0691
▁challenge	-10.0696
altr	-10.0702
▁project	-10.071
▁imagin	-10.0718
week	-10.0724
tic	-10.0725
ssnlf	-10.0726
▁based	-10.0727
1%	-10.0742
▁missed	-10.0744
▁three	-10.0744
▁food	-10.0744
▁night	-10.0747
ام	-10.0769
▁decline	-10.0778
▁2015040	-10.0781
▁due	-10.0807
▁payments	-10.0811
eu	-10.0822
▁strength	-10.0829
٢٠	-10.0831
▁philstockworld	-10.0831
▁wonder	-10.0831
▁mar	-10.0834
admd	-10.0847
cb	-10.0852
▁dip	-10.0869
▁ha	-10.0892
▁pattern	-10.0905
49	-10.0909
il	-10.0909
▁//	-10.0913
▁fu	-10.0927
▁weak	-10.0932
١	-10.0937
▁popular	-10.0937
hznp	-10.0937
23	-10.095
esrx	-10.0959
▁mistakes	-10.0963
this	-10.0986
uco	-10.0998
▁webcast	-10.1001
ign	-10.1006
eva	-10.1024
▁mas	-10.1044
▁wrong	-10.1045
ilmn	-10.1045
suti	-10.1046
ners	-10.1047
pl	-10.1056
▁pharmaceuticals	-10.1058
▁rio	-10.1059
dj	-10.1067
▁13	-10.1078
▁sees	-10.1082
dr	-10.1083
▁agree	-10.1106
px	-10.1119
▁gilead	-10.1125
▁purchase	-10.1127
gra	-10.1127
1:	-10.1131
▁black	-10.1133
ltc	-10.1135
11	-10.1152
حقق	-10.1154
▁4,000%	-10.1154
▁least	-10.1154
por	-10.1179
رب	-10.1181
▁tonight	-10.1185
jones	-10.1187
▁leaders	-10.1192
hes	-10.1197
intel	-10.1206
xrx	-10.1207
▁tweets	-10.1214
▁miss	-10.1215
▁lift	-10.1228
lg	-10.1231
▁amazing	-10.1232
▁dreams	-10.1251
45	-10.1257
▁buys	-10.126
bo	-10.1261
ى	-10.1263
▁consensus	-10.1263
▁executive	-10.1263
erx	-10.1271
▁بع	-10.1279
▁history	-10.1287
50	-10.1294
▁rev	-10.1294
22	-10.1295
▁life	-10.1298
▁highlights	-10.13
▁bill	-10.131
af	-10.1318
dy	-10.1335
rds	-10.1339
ون	-10.135
▁fight	-10.1351
▁citi	-10.1361
▁stanley	-10.1374
guy	-10.1378
▁tesla	-10.1382
les	-10.1389
agen	-10.1406
▁firm	-10.1418
app	-10.142
etf	-10.1431
eg	-10.1431
▁wsj	-10.1436
psx	-10.1437
end	-10.1468
oc	-10.147
▁wrap	-10.1478
▁lawsuit	-10.1483
ice	-10.1483
angel	-10.1487
▁الصفق	-10.1487
40	-10.1489
ad	-10.1492
▁congrats	-10.1492
emp	-10.1493
cml	-10.1499
▁pepsico	-10.1504
▁natural	-10.1507
▁nothing	-10.1508
▁lows	-10.151
▁aug	-10.1519
▁within	-10.1527
▁song	-10.1536
▁season	-10.1554
~	-10.1555
wal	-10.157
▁neutral	-10.1582
▁wins	-10.1583
▁build	-10.16
▁upgrades	-10.16
wmih	-10.1602
از	-10.1602
emini	-10.1604
hp	-10.1604
lh	-10.1605
pvs	-10.1606
▁من	-10.1611
ween	-10.1615
▁balls	-10.1616
su	-10.1625
spls	-10.1626
eog	-10.1627
fs	-10.1632
▁bounce	-10.1657
traders	-10.1672
▁expand	-10.1672
▁2000	-10.1682
▁opening	-10.1685
▁industrial	-10.1696
▁unit	-10.1698
sune	-10.1699
ec	-10.1706
spg	-10.1708
world	-10.1709
▁approval	-10.1715
▁paid	-10.1716
blt	-10.1719
htp	-10.1729
lng	-10.1735
▁cyber	-10.1736
▁increased	-10.1744
▁ya	-10.175
▁didn	-10.1751
yy	-10.1751
▁model	-10.1756
irb	-10.1803
▁employees	-10.1807
▁page	-10.1809
▁devices	-10.182
fda	-10.1823
grcu	-10.1832
▁form	-10.1852
▁pretty	-10.1853
bib	-10.1855
eyes	-10.1874
▁moves	-10.1889
pcln	-10.189
pain	-10.1892
▁instagram	-10.1902
▁intraday	-10.1906
alk	-10.1935
ance	-10.1936
▁tablet	-10.1949
promo	-10.196
▁schlumberger	-10.1967
80	-10.1974
▁costs	-10.1976
▁rumors	-10.1993
smn	-10.2006
fox	-10.2015
).	-10.2048
▁18	-10.2057
fr	-10.2066
▁merger	-10.2068
▁guidance	-10.2068
inspiratio	-10.2068
▁initial	-10.2068
▁remain	-10.2069
▁critical	-10.2069
▁1984	-10.2069
oi	-10.2074
gc	-10.2076
wins	-10.208
▁downgraded	-10.2082
▁chief	-10.2094
▁reach	-10.2099
▁settlement	-10.21
option	-10.2103
▁mean	-10.2108
mdc	-10.2116
▁enter	-10.2121
▁oct	-10.2124
nh	-10.2141
yt	-10.2143
aet	-10.2148
gis	-10.2149
trades	-10.2151
--	-10.2155
▁worst	-10.2157
▁triple	-10.216
▁lots	-10.2162
▁deuda	-10.217
mco	-10.2171
▁issues	-10.2176
ats	-10.2179
▁contract	-10.218
33	-10.2184
▁national	-10.2185
▁battle	-10.219
▁meeting	-10.2206
nk	-10.2207
ks	-10.2225
hu	-10.2226
rai	-10.2229
▁debt	-10.2232
▁dream	-10.2238
▁-->	-10.2245
▁$1,000	-10.2256
▁applications	-10.2257
17	-10.2268
▁order	-10.2276
▁september	-10.2278
gme	-10.2281
▁discuss	-10.2298
▁expectations	-10.2311
muzikkzone	-10.2311
▁tired	-10.2312
▁2012	-10.2313
▁fda	-10.232
qe	-10.2332
$$$	-10.2335
iyr	-10.2338
▁limited	-10.2339
sma	-10.2347
cc	-10.2369
▁saying	-10.237
▁ratings	-10.237
ght	-10.2372
bsx	-10.2374
▁apr	-10.2378
▁old	-10.238
▁jones	-10.2388
▁breaks	-10.2389
▁streaming	-10.2401
▁trying	-10.2405
▁activity	-10.2412
▁......	-10.2425
2)	-10.2427
à	-10.2434
akam	-10.2437
phm	-10.2437
▁healthcare	-10.244
▁misses	-10.2441
bms	-10.2443
55	-10.2447
▁orders	-10.2452
▁original	-10.2462
01	-10.247
2.50	-10.2472
▁dump	-10.2487
28%	-10.2488
▁brand	-10.2497
itb	-10.2519
nr	-10.2524
▁probably	-10.2526
ld	-10.2543
▁precio	-10.2562
sx	-10.257
▁feb	-10.2571
▁sachs	-10.2578
▁bofa	-10.2578
nsc	-10.2587
open	-10.2589
▁revs	-10.2591
ore	-10.2591
unh	-10.2596
▁youtube	-10.2612
back	-10.2636
▁adding	-10.2648
▁exclusive	-10.2648
▁warner	-10.2654
ive	-10.2656
cn	-10.267
▁solid	-10.2672
▁mid	-10.2673
▁weakness	-10.2676
▁1,	-10.2683
high	-10.2684
invesment	-10.2686
▁anyone	-10.2687
▁altria	-10.2688
▁regret	-10.2688
▁improve	-10.2688
infuse	-10.2694
jkt	-10.2697
▁ways	-10.2705
▁maybe	-10.2712
▁room	-10.2712
700%	-10.2714
▁rising	-10.2728
▁face	-10.2735
▁website	-10.2752
▁offers	-10.277
efa	-10.2775
▁traded	-10.2782
bp	-10.2784
dx	-10.28
nership	-10.2804
nwg	-10.2806
▁question	-10.2809
sl	-10.2814
eurusd	-10.2815
oo	-10.2818
jdst	-10.2821
▁dead	-10.2823
▁notable	-10.2825
▁pricing	-10.2839
▁brands	-10.284
▁building	-10.2843
son	-10.2846
rf	-10.2854
eye	-10.2857
ye	-10.286
▁states	-10.287
700	-10.2885
▁unitedhealth	-10.2893
▁estimate	-10.2906
aph	-10.2909
▁hop	-10.2915
vo	-10.2929
▁videos	-10.2934
giving	-10.2942
تعل	-10.2944
▁place	-10.2948
▁advanced	-10.2952
gnw	-10.2955
▁guide	-10.296
pot	-10.2964
review	-10.2966
▁baby	-10.2968
▁always	-10.2968
ke	-10.2974
retail	-10.298
breakout	-10.2989
▁kill	-10.3002
tx	-10.3003
ure	-10.3007
ax	-10.3011
:17	-10.3016
▁bi	-10.3019
▁19	-10.3034
ata	-10.3038
▁bulls	-10.3046
ewy	-10.3048
mma	-10.305
myl	-10.3054
▁sites	-10.3057
??	-10.3067
99	-10.3067
®	-10.3074
ood	-10.3075
5%,	-10.3075
chile	-10.3076
▁production	-10.3078
▁cfo	-10.3081
kmb	-10.3082
▁bhp	-10.3083
▁maturit	-10.3085
▁etc	-10.3086
ó	-10.309
ntap	-10.3091
▁young	-10.3092
▁she	-10.3095
▁care	-10.3113
▁$100,000	-10.3126
len	-10.3138
▁broke	-10.3139
▁carl	-10.3166
but	-10.317
▁winner	-10.3173
recent	-10.3174
▁pop	-10.3188
nw	-10.3191
▁agreement	-10.3206
▁prospect	-10.3207
pcyc	-10.3209
la	-10.3217
uri	-10.3227
▁electronic	-10.3244
!!!!	-10.3251
fis	-10.3256
▁hd	-10.3258
▁interested	-10.3261
gps	-10.3278
has	-10.3282
▁touch	-10.3283
▁digital	-10.3291
▁waiting	-10.3296
▁را	-10.3298
▁dis	-10.3298
▁enough	-10.3299
▁posted	-10.3309
edly	-10.3314
▁swing	-10.332
ي	-10.3323
▁link	-10.3329
hday	-10.333
lens	-10.334
$2	-10.3343
ę	-10.3344
▁third	-10.3344
ung	-10.3346
pnra	-10.3349
▁clear	-10.3349
▁40	-10.3349
io	-10.3353
▁upgrade	-10.3356
tl	-10.3357
▁bloomberg	-10.3374
upro	-10.3376
▁name	-10.3388
int	-10.339
▁du	-10.3391
look	-10.3392
▁secret	-10.3394
active	-10.3397
▁targets	-10.3404
▁goog	-10.3411
dg	-10.3412
▁hay	-10.3413
data	-10.3423
pwr	-10.3423
88	-10.3425
▁points	-10.3426
▁flow	-10.343
▁blackberry	-10.3431
spread	-10.3433
▁intl	-10.3434
pz	-10.3438
fg	-10.3441
lm	-10.3442
29	-10.3443
iv	-10.3444
▁shot	-10.3449
▁probe	-10.3452
▁ع	-10.3466
fire	-10.3473
▁former	-10.3479
jnpr	-10.3481
▁expiration	-10.3481
▁guess	-10.3481
▁hike	-10.3482
47	-10.3485
ii	-10.3488
▁sick	-10.3489
▁vía	-10.3489
18	-10.3494
blk	-10.35
rcl	-10.3505
land	-10.3509
00%	-10.352
row	-10.3522
iot	-10.354
▁released	-10.3548
▁changer	-10.3558
gaz	-10.356
▁barclays	-10.3565
life	-10.3575
shop	-10.3586
07	-10.3587
sc	-10.3593
90	-10.3594
▁aka	-10.3607
▁21,	-10.3612
▁trillion	-10.362
▁cantor	-10.362
▁each	-10.3623
▁350%	-10.3627
bg	-10.3629
cz	-10.3637
▁guys	-10.3639
icle	-10.3639
^	-10.364
▁york	-10.3652
▁60	-10.366
í	-10.3663
wr	-10.3677
▁catch	-10.3684
2.	-10.369
las	-10.3694
▁done	-10.372
▁👍	-10.3745
▁raise	-10.3745
ago	-10.3747
au	-10.3749
applewatch	-10.3752
▁bobirw	-10.3761
قد	-10.3761
▁commentary	-10.3761
realtime	-10.3762
▁single	-10.3765
gulf	-10.3766
▁whole	-10.377
نت	-10.3772
tracker	-10.3772
2.5	-10.3775
yellen	-10.3778
based	-10.3779
shak	-10.3779
bullish	-10.3785
cisco	-10.3792
▁final	-10.3799
▁spread	-10.3823
adm	-10.3834
▁number	-10.3842
hours	-10.3848
▁bubble	-10.3853
▁official	-10.3855
▁29	-10.3863
▁asia	-10.3879
gl	-10.39
▁initiate	-10.3903
▁course	-10.3904
▁leading	-10.3904
▁floor	-10.3904
▁pullback	-10.3904
zu	-10.3912
/2	-10.3914
37	-10.3916
bb	-10.3922
eck	-10.3931
fold	-10.3932
▁success	-10.3932
wm	-10.3934
▁talking	-10.3957
▁files	-10.3959
▁india	-10.3964
hog	-10.397
▁fa	-10.3974
fsl	-10.3985
windows	-10.3989
▁president	-10.4004
ga	-10.4021
▁migh	-10.4025
▁baba	-10.4032
▁hep	-10.4036
▁different	-10.4045
▁reaffirm	-10.4048
▁margin	-10.4053
ewg	-10.4056
▁forward	-10.4056
▁اسبوعي	-10.4058
▁giant	-10.4062
angi	-10.407
▁multiple	-10.4071
▁fuck	-10.4074
▁pain	-10.4078
▁$700	-10.4081
googl	-10.4083
▁fly	-10.4085
▁downgrades	-10.4102
tc	-10.4116
>>	-10.4117
▁auto	-10.412
ial	-10.412
rla	-10.4123
kg	-10.4127
ubs	-10.4137
rsp	-10.414
see	-10.4142
.000	-10.4143
lake	-10.4144
▁sub	-10.415
28	-10.4153
▁score	-10.4154
02	-10.4156
▁securities	-10.4157
▁killer	-10.4161
▁adds	-10.4168
ain	-10.4168
▁though	-10.4175
▁rules	-10.4177
pf	-10.4184
▁save	-10.4189
▁announce	-10.4193
operating	-10.4196
▁wanna	-10.4196
▁dynamics	-10.4203
▁losses	-10.4205
21	-10.4209
▁problem	-10.4209
what	-10.4215
fly	-10.4219
▁platform	-10.4227
sw	-10.4231
cash	-10.4235
ج	-10.4244
▁fri	-10.426
lu	-10.4261
▁prime	-10.4271
▁safe	-10.4282
▁rises	-10.4298
ef	-10.4307
▁used	-10.432
▁issue	-10.4323
▁$200	-10.4325
الأ	-10.4339
▁jeff	-10.4346
▁therapeutics	-10.4348
mjm	-10.4351
▁seek	-10.4351
▁sur	-10.4356
▁chance	-10.4358
▁shou	-10.436
nbg	-10.4367
adp	-10.4369
50%	-10.4369
ever	-10.4371
▁training	-10.4372
▁measures	-10.4374
▁emerging	-10.4378
▁warren	-10.4378
ox	-10.4381
rp	-10.4382
emn	-10.4383
▁device	-10.4393
▁mac	-10.4395
sap	-10.4401
bil	-10.4402
▁press	-10.4406
▁eu	-10.4409
▁max	-10.4415
▁millionaire	-10.4425
cnbc	-10.4427
exel	-10.4435
volume	-10.4437
▁17	-10.4447
70	-10.4447
amgn	-10.4451
har	-10.446
▁db	-10.4462
adt	-10.4463
00	-10.4475
mpc	-10.4475
¥	-10.4481
424	-10.4486
▁remind	-10.4487
hquake	-10.4496
▁chairman	-10.4496
▁bit	-10.4496
▁takeover	-10.4498
▁vale	-10.4502
▁contracts	-10.4512
▁blow	-10.4515
▁jack	-10.4523
▁pdvsa	-10.4525
▁went	-10.4529
nte	-10.453
adr	-10.4534
mcd	-10.4546
afl	-10.4552
leg	-10.4554
acc	-10.4563
fy	-10.4564
agio	-10.457
▁inter	-10.4584
1.00	-10.4604
▁interview	-10.4605
▁delivery	-10.4614
shr	-10.4625
▁flat	-10.4644
nv	-10.4647
shift	-10.4647
▁downside	-10.4654
▁profitable	-10.4655
bmrn	-10.4656
▁vectors	-10.4662
green	-10.4663
kite	-10.4675
jan	-10.4678
▁pls	-10.4679
▁+0.	-10.468
▁como	-10.4687
nu	-10.4693
▁falls	-10.4696
mac	-10.4709
ery	-10.4709
wfc	-10.4714
▁found	-10.4717
esv	-10.4731
wti	-10.4731
fdo	-10.4733
cx	-10.4745
▁web	-10.4749
▁john	-10.4753
▁crude	-10.4755
mmm	-10.4755
▁ban	-10.4758
▁including	-10.476
▁fou	-10.4763
mp	-10.4764
▁deutsche	-10.4765
▁mon	-10.4765
▁round	-10.4766
▁rest	-10.4769
og	-10.4779
را	-10.4792
binary	-10.4806
▁morris	-10.4806
بر	-10.4807
▁survey	-10.4807
▁august	-10.4808
achn	-10.4814
oih	-10.4828
▁content	-10.4832
▁chip	-10.4841
pac	-10.4841
▁airlines	-10.4844
ew	-10.4844
▁27	-10.4848
▁comes	-10.4854
▁site	-10.4854
▁without	-10.486
ell	-10.487
pc	-10.4875
▁unveils	-10.4876
book	-10.4876
▁opens	-10.4881
kss	-10.4883
europe	-10.4887
bra	-10.4887
business	-10.4896
came	-10.4896
:25	-10.4907
▁state	-10.4908
nkn	-10.4911
.....	-10.4919
85	-10.4922
sen	-10.4928
pr	-10.4929
▁user	-10.4932
▁surge	-10.4932
▁anti	-10.4943
▁hour	-10.4953
26	-10.4953
sn	-10.4959
corrupción	-10.4965
▁david	-10.4965
jdsu	-10.4966
▁actually	-10.4966
grek	-10.4966
▁mixed	-10.4969
▁mcdonalds	-10.498
ff	-10.4983
are	-10.4984
usa	-10.4992
▁solo	-10.4997
▁negative	-10.5
▁understand	-10.5001
noc	-10.5008
kbe	-10.5009
75	-10.501
pre	-10.5025
▁$50	-10.504
ization	-10.506
▁hea	-10.5061
▁include	-10.5062
▁310	-10.5067
▁thank	-10.5072
27	-10.5075
▁sciences	-10.5082
mcp	-10.5085
▁priceline	-10.509
aks	-10.5091
▁stream	-10.5093
▁terms	-10.5097
▁silver	-10.5106
▁spending	-10.5106
signal	-10.512
rg	-10.5122
royalty	-10.5126
▁coverage	-10.5127
▁calendar	-10.5127
ym	-10.5127
ltr	-10.5127
▁philip	-10.5127
▁$30	-10.5138
btc	-10.514
anf	-10.5149
▁21	-10.5153
▁$16	-10.5154
▁express	-10.5162
tells	-10.5167
▁complete	-10.5169
▁28	-10.517
lnx	-10.5171
air	-10.5182
shw	-10.5186
nna	-10.5193
,000	-10.5194
ten	-10.5205
▁buybacks	-10.5217
loco	-10.5221
▁moments	-10.5223
▁pass	-10.5237
▁nadella	-10.5242
54	-10.5242
▁2.	-10.5248
profit	-10.5251
pi	-10.5254
oke	-10.5275
▁trends	-10.5283
hs	-10.5283
▁approach	-10.529
▁pressure	-10.5291
▁dvd	-10.5292
▁planning	-10.5293
krft	-10.5293
▁questions	-10.5297
▁wed	-10.5298
▁surprise	-10.5298
▁space	-10.5305
den	-10.5313
▁matter	-10.5321
▁flash	-10.5323
tas	-10.5325
▁watched	-10.5334
▁$5	-10.5346
ben	-10.535
▁compete	-10.5352
ukraine	-10.5373
▁surface	-10.5383
amid	-10.5384
200	-10.5384
▁dogs	-10.5388
▁perfect	-10.5407
▁multi	-10.5408
▁dan	-10.5419
trategies	-10.5422
7%	-10.5425
▁development	-10.5426
▁glass	-10.5435
▁banking	-10.5438
peg	-10.5451
▁die	-10.5457
qihu	-10.5457
gwph	-10.5457
دن	-10.5462
wdc	-10.5463
▁<	-10.5466
you	-10.547
▁means	-10.5477
06	-10.5482
ceo	-10.5482
▁pe	-10.5485
▁mom	-10.5487
▁crisis	-10.5489
61	-10.5491
▁wild	-10.5492
▁folks	-10.5494
▁14,	-10.5496
▁fine	-10.5507
beat	-10.5514
ns	-10.5518
how	-10.5518
▁claims	-10.552
away	-10.5525
39	-10.5527
gu	-10.5535
▁book	-10.5536
▁control	-10.5544
24%	-10.5555
▁cc	-10.5573
▁semiconductor	-10.5576
con	-10.5583
▁exit	-10.5584
tbt	-10.5584
cloud	-10.5609
wwdc	-10.5616
▁crash	-10.5621
▁october	-10.5626
▁valuable	-10.5627
▁reversal	-10.5627
russell	-10.5628
لم	-10.5632
▁debut	-10.5635
▁provide	-10.5645
▁bears	-10.5647
▁four	-10.5648
▁🔥	-10.5655
schw	-10.5658
ips	-10.5663
▁28,	-10.5667
tion	-10.5668
▁taxes	-10.567
▁employee	-10.57
hol	-10.5701
▁maker	-10.571
sina	-10.5716
▁shit	-10.5717
34	-10.5725
á	-10.5726
ern	-10.5735
ang	-10.574
blog	-10.5741
tesla	-10.5746
▁fail	-10.5748
loaded	-10.5755
▁testing	-10.5758
ford	-10.5759
▁hu	-10.5773
▁hear	-10.5776
60	-10.5777
▁uk	-10.5777
over	-10.5781
▁margins	-10.5789
▁create	-10.579
قترب	-10.5799
سر	-10.5799
mrvl	-10.5799
picking	-10.5801
▁buyers	-10.5806
▁fell	-10.5808
music	-10.5816
shld	-10.5817
pped	-10.5818
▁heard	-10.5823
▁thestreet	-10.5824
5,	-10.5825
hh	-10.5835
▁payment	-10.5845
▁30%	-10.5848
▁turned	-10.5849
jp	-10.5851
▁overall	-10.5851
▁setup	-10.5855
▁dec	-10.5859
fmc	-10.5862
hrs	-10.5866
▁tre	-10.5872
group	-10.5878
chevron	-10.5879
bre	-10.588
xbi	-10.5888
work	-10.5903
nax	-10.591
▁balance	-10.5923
▁24	-10.5933
hl	-10.5934
reached	-10.5952
56	-10.5959
▁announced	-10.5959
}	-10.596
▁base	-10.5964
▁gran	-10.5966
com	-10.5968
[	-10.597
velocity	-10.5974
▁favorite	-10.5974
jazz	-10.5975
▁11,	-10.5976
▁combined	-10.5978
vets	-10.598
▁changed	-10.5981
▁2010	-10.5981
az	-10.5988
zion	-10.5991
cuba	-10.5991
▁iron	-10.5995
▁currently	-10.5995
▁ki	-10.5996
like	-10.6002
▁خ	-10.6003
▁13,	-10.6022
splk	-10.6024
halo	-10.6027
jx	-10.6039
▁predicts	-10.6047
ul	-10.6052
hard	-10.6057
▁commercial	-10.6058
bst	-10.6062
side	-10.6062
36	-10.607
▁driving	-10.6074
,600%	-10.6077
ios	-10.6079
xon	-10.6087
▁sense	-10.6092
rpt	-10.6093
04	-10.6101
non	-10.6105
▁intelligence	-10.6106
▁southern	-10.6106
▁ك	-10.611
▁8-	-10.6123
adi	-10.6135
▁present	-10.6137
▁guy	-10.6137
20%	-10.6147
analysis	-10.6148
bonus	-10.6152
٩	-10.6153
▁london	-10.6153
▁chunk	-10.6153
▁protection	-10.6154
▁comp	-10.6155
himx	-10.6157
▁mega	-10.6159
▁common	-10.6161
▁operations	-10.6164
whr	-10.6164
joy	-10.6169
▁workers	-10.6174
▁$500	-10.6174
real	-10.6175
▁وي	-10.6193
▁benefit	-10.6198
happy	-10.6199
mro	-10.621
phot	-10.6212
ace	-10.6219
inf	-10.6225
gpr	-10.6226
get	-10.6228
hr	-10.6228
heta	-10.6233
▁closes	-10.6242
6.00	-10.6242
era	-10.627
bd	-10.6274
▁bezos	-10.6276
-1,	-10.6285
prm	-10.6286
bet	-10.6301
▁city	-10.6302
▁7-2	-10.632
body	-10.6324
▁ph	-10.6329
epzm	-10.6335
▁attack	-10.6335
▁policy	-10.6336
▁duke	-10.6336
▁ppl	-10.634
▁tienen	-10.6341
nm	-10.6351
woo	-10.6352
ين	-10.6352
str	-10.636
▁issued	-10.6372
fxy	-10.6382
▁cu	-10.6393
▁fans	-10.6414
▁seeing	-10.6416
dividends	-10.6425
▁tests	-10.6428
why	-10.6436
hun	-10.6437
ei	-10.6449
wen	-10.6458
▁deliver	-10.6463
fitb	-10.6479
70%	-10.6486
▁ام	-10.6488
▁spreads	-10.6494
▁box	-10.6509
▁mil	-10.6509
▁quick	-10.6512
▁replace	-10.6514
▁billiton	-10.652
▁increasing	-10.652
teambillionaire	-10.652
▁daytrade	-10.6522
▁radar	-10.6523
htz	-10.6528
▁trap	-10.6534
rht	-10.6536
▁5,000	-10.6539
▁founded	-10.6543
▁wish	-10.6544
▁mtg	-10.6546
appl	-10.6546
▁$19	-10.6546
▁held	-10.6547
▁feed	-10.6549
ical	-10.6555
▁volatility	-10.6562
payx	-10.6564
han	-10.6565
▁losers	-10.6566
▁settle	-10.657
pxd	-10.6574
▁rose	-10.658
/$	-10.6583
mck	-10.6583
???	-10.6583
▁sever	-10.6588
▁headlines	-10.6595
▁cards	-10.6603
wy	-10.6607
sell	-10.662
▁fo	-10.6629
▁17,	-10.6631
53	-10.6634
▁messenger	-10.6637
▁cat	-10.6644
▁oi	-10.6645
400%	-10.6645
▁cup	-10.6667
res	-10.6675
dollar	-10.6679
logging	-10.6681
35%	-10.6683
cent	-10.6684
commerce	-10.6696
▁according	-10.6704
▁side	-10.6708
ificial	-10.6709
▁decrease	-10.6709
▁treasury	-10.6709
▁utilities	-10.6709
jrjc	-10.6709
▁previous	-10.6709
ijjp	-10.6709
▁series	-10.671
▁hello	-10.6718
fcel	-10.6724
syn	-10.6731
ide	-10.6734
▁slow	-10.6739
▁fibonacci	-10.674
▁tip	-10.6747
▁cents	-10.6748
▁businesses	-10.6751
apol	-10.6754
▁pros	-10.6758
▁threat	-10.6758
comp	-10.6758
▁1.	-10.6764
gnc	-10.6764
▁shareholder	-10.6768
▁award	-10.6774
▁forget	-10.6781
don	-10.6783
▁downgrade	-10.6789
566	-10.6796
94	-10.6798
▁+1.	-10.6798
▁99	-10.6799
ent	-10.6807
ak	-10.6811
mar	-10.6815
▁along	-10.6817
ability	-10.6818
▁main	-10.6819
▁changing	-10.6833
▁icymi	-10.6833
▁screen	-10.684
▁cover	-10.6846
two	-10.6859
▁pursu	-10.6859
une	-10.6861
▁leads	-10.6865
insy	-10.6869
▁legal	-10.6876
▁comparison	-10.6901
▁government	-10.6901
▁summer	-10.6901
▁winning	-10.6902
▁combo	-10.6903
▁noise	-10.6905
mhy	-10.6906
▁grow	-10.6908
▁90%	-10.6909
▁someone	-10.6911
core	-10.6912
▁earn	-10.6912
▁peeps	-10.6913
▁repeated	-10.6917
9%	-10.6917
ine	-10.6917
etfs	-10.6926
ze	-10.6927
▁1.42	-10.6938
csk	-10.695
▁stoppe	-10.6955
family	-10.6956
▁computer	-10.6958
▁dividends	-10.6971
broker	-10.6971
aci	-10.6979
breaking	-10.6979
▁4,	-10.698
slb	-10.6988
▁area	-10.6988
▁motors	-10.699
100%	-10.699
oppo	-10.6996
old	-10.7012
▁longer	-10.7024
ipg	-10.7033
▁extend	-10.7045
▁honeywell	-10.7046
▁told	-10.7056
cig	-10.708
form	-10.708
avg	-10.7082
kre	-10.7087
ø	-10.7093
▁process	-10.7095
▁contra	-10.7096
▁destroy	-10.7097
manipulation	-10.7097
eqix	-10.7097
nbix	-10.7098
▁euro	-10.71
▁($	-10.7103
nyc	-10.7104
shpg	-10.7104
▁1.18	-10.7106
ñ	-10.711
wat	-10.7112
▁15%	-10.7117
orly	-10.7122
▁19,	-10.7123
▁las	-10.7124
46	-10.7125
▁pc	-10.713
▁supply	-10.7136
▁carefully	-10.7137
▁private	-10.7141
▁rumor	-10.7144
▁22	-10.7154
▁inside	-10.7171
▁$40	-10.7176
wall	-10.7191
▁cnbc	-10.7192
hbi	-10.7198
bbby	-10.7202
mgm	-10.7218
▁generation	-10.7228
▁race	-10.7228
▁friends	-10.7232
▁antitrust	-10.7238
▁judge	-10.7244
▁»	-10.7245
prime	-10.7254
dsi	-10.7261
samsung	-10.7272
▁spend	-10.7273
▁mis	-10.7284
▁millions	-10.7289
̇	-10.7297
canadian	-10.7297
▁impressive	-10.7297
ati	-10.7297
ht	-10.7298
fisv	-10.7304
erjones	-10.731
lea	-10.7311
aeo	-10.7315
0,000	-10.7318
2%	-10.7319
▁later	-10.732
nb	-10.7323
▁faces	-10.7324
!!!!!	-10.7327
▁tough	-10.7335
▁galaxy	-10.7336
mic	-10.7338
ideas	-10.7342
▁movie	-10.7347
eat	-10.7351
▁host	-10.7353
amc	-10.7363
▁begin	-10.7366
cj	-10.7367
take	-10.7367
stj	-10.7368
wday	-10.7375
orcl	-10.7376
founder	-10.7376
eo	-10.7376
acm	-10.7381
▁plant	-10.7384
▁mad	-10.7393
▁announcement	-10.7405
35	-10.7413
kin	-10.7413
▁$400	-10.7417
▁sanofi	-10.7419
▁begins	-10.7431
azo	-10.7432
imo	-10.7434
▁gift	-10.7436
96	-10.7436
▁consumers	-10.7438
▁canada	-10.744
▁toyota	-10.7441
san	-10.7442
▁paypal	-10.7442
boe	-10.7442
lock	-10.7444
▁poised	-10.7448
▁trouble	-10.7448
omc	-10.7472
stream	-10.7484
▁luck	-10.7491
uc	-10.7491
amr	-10.7492
▁mind	-10.75
▁$14	-10.7501
grmn	-10.7501
itmn	-10.7501
▁interactive	-10.7501
▁0.06	-10.7502
▁linkedin	-10.7502
▁replay	-10.7502
▁shakers	-10.7503
▁non	-10.7516
vr	-10.7516
ads	-10.7517
▁invi	-10.7521
▁ftse	-10.7531
avp	-10.7532
fls	-10.7542
flt	-10.7547
minute	-10.7552
kar	-10.7561
iag	-10.7561
▁rebound	-10.7571
▁tickers	-10.7573
79	-10.7574
▁mr	-10.759
mos	-10.7598
▁40%	-10.7606
ame	-10.7607
▁networks	-10.7609
ana	-10.7609
iau	-10.7612
scan	-10.7613
bbd	-10.7613
▁drugs	-10.7621
09	-10.7622
right	-10.7624
▁except	-10.7643
hip	-10.7647
rys	-10.7648
▁sykes	-10.7648
game	-10.7657
elli	-10.7664
▁forbes	-10.7664
▁produce	-10.7666
51	-10.7669
ibo	-10.7672
path	-10.7674
ary	-10.7683
▁direct	-10.7684
—	-10.7686
▁crush	-10.7687
▁compar	-10.7695
▁boom	-10.7699
▁weigh	-10.7704
incy	-10.7708
roja	-10.7709
nikkei	-10.7709
▁weather	-10.7709
\	-10.7709
▁attractive	-10.7709
▁entire	-10.771
▁vence	-10.771
hban	-10.771
unities	-10.771
▁itself	-10.7714
penn	-10.7715
onnn	-10.7722
repo	-10.7724
▁sources	-10.7726
▁directv	-10.7726
▁hoy	-10.7729
tfb	-10.7729
▁innovation	-10.7737
▁macbook	-10.774
▁coke	-10.7744
▁else	-10.7746
ue	-10.7747
▁links	-10.7748
more	-10.7751
▁27%	-10.7754
▁starbucks	-10.7757
stz	-10.776
investment	-10.7761
agnc	-10.7764
rwc	-10.7768
▁nigga	-10.7785
banking	-10.7791
▁jumps	-10.7793
tza	-10.7793
▁introduce	-10.7798
ay	-10.7804
▁yo	-10.7812
atm	-10.7824
▁wars	-10.7833
there	-10.7835
mix	-10.7843
▁unusual	-10.7843
mbi	-10.7846
▁ente	-10.7848
▁baidu	-10.7854
▁qualcomm	-10.786
▁crudo	-10.7866
nta	-10.7868
mgo	-10.7869
🏆	-10.7878
▁$80	-10.7883
▁thinks	-10.7885
brc	-10.7901
▁approve	-10.7901
▁3.	-10.7916
way	-10.7918
▁customer	-10.7918
▁horizon	-10.7922
▁shipping	-10.7922
qrvo	-10.7922
▁stories	-10.7922
our	-10.7924
▁markman	-10.7925
▁breakfast	-10.7925
mchp	-10.7925
kndi	-10.7926
▁enjoy	-10.7928
▁roll	-10.7931
trx	-10.7933
dco	-10.7938
▁gone	-10.7943
hsy	-10.7948
swi	-10.7951
58	-10.7953
biz	-10.7956
▁significant	-10.7966
▁heavy	-10.7972
▁safety	-10.7972
▁quit	-10.7972
▁median	-10.7983
ity	-10.7984
elt	-10.7984
nfx	-10.7991
▁2%	-10.7991
▁.02	-10.7992
▁newest	-10.7992
ton	-10.7993
▁brings	-10.7999
xt	-10.8002
?"	-10.8004
fa	-10.8006
▁fake	-10.8007
cop	-10.8014
25%	-10.8026
rock	-10.8028
alu	-10.8038
82	-10.8043
44	-10.8043
32	-10.8047
▁des	-10.8054
pn	-10.8062
▁analytics	-10.8066
▁suisse	-10.8076
can	-10.8079
▁expansion	-10.8083
♥	-10.8092
.20.	-10.8101
▁marketing	-10.8111
▁ends	-10.8123
27,	-10.8132
red	-10.8134
budeboy	-10.8139
▁leahanne	-10.8139
▁reserve	-10.8139
▁attention	-10.814
▁treatment	-10.814
kmr	-10.814
xhb	-10.8143
urbn	-10.8145
▁hitting	-10.8147
▁paper	-10.8152
▁notice	-10.8152
▁events	-10.8154
▁الل	-10.8154
gpc	-10.8155
xlnx	-10.816
auy	-10.8161
bcr	-10.8163
▁holiday	-10.8165
ncr	-10.8174
▁throw	-10.8178
syy	-10.8179
iff	-10.8183
▁south	-10.8184
▁biz	-10.8186
mont	-10.8188
▁color	-10.819
▁movement	-10.8194
▁15,	-10.8196
▁photos	-10.8196
▁com	-10.8198
russia	-10.8204
sky	-10.8207
whatsapp	-10.8208
80%	-10.821
▁friend	-10.8215
led	-10.8216
🔥	-10.8225
wd	-10.8229
▁nyc	-10.8239
just	-10.824
itw	-10.824
▁$12	-10.8262
▁ga	-10.8266
▁pump	-10.8269
▁fcc	-10.8273
▁meet	-10.8274
▁marc	-10.8276
▁games	-10.8279
lyb	-10.8283
95	-10.8286
▁rbc	-10.8299
tsla	-10.8301
▁straight	-10.8304
ist	-10.8307
▁tips	-10.8307
event	-10.8309
▁longs	-10.8334
▁120	-10.8334
▁beta	-10.8334
nue	-10.8339
ira	-10.8341
52	-10.8344
ncia	-10.8353
nws	-10.8354
tsh	-10.836
▁venezolano	-10.8362
▁anything	-10.8362
▁phase	-10.8362
▁school	-10.8362
▁implie	-10.8362
icpt	-10.8364
▁acquisitions	-10.8366
ou	-10.8368
▁effo	-10.837
0.	-10.8375
▁cal	-10.8384
▁faster	-10.8388
▁<-	-10.8389
aro	-10.8389
▁barron	-10.839
bkw	-10.8396
bbl	-10.8397
▁xbox	-10.84
▁sept	-10.84
jo	-10.84
▁firms	-10.8407
ka	-10.8414
(2)	-10.8424
▁moment	-10.8424
▁exxonmobil	-10.8433
home	-10.8436
▁cars	-10.844
nus	-10.8453
▁10-	-10.847
▁center	-10.8478
dc	-10.8481
▁una	-10.8481
pru	-10.849
dw	-10.8503
tutorial	-10.8505
bitcoin	-10.8505
exxonmobil	-10.8517
meet	-10.8521
headlines	-10.8521
oas	-10.853
verizon	-10.8542
av	-10.8544
68	-10.8545
board	-10.8546
68%	-10.8552
▁26	-10.8555
txs	-10.8559
gdx	-10.8559
wbc	-10.8561
signs	-10.8565
▁hat	-10.8567
▁self	-10.8568
▁$150	-10.8574
ham	-10.8582
good	-10.8584
▁45	-10.8586
♥♥	-10.8589
propaganda	-10.8589
▁staples	-10.8589
equities	-10.8589
▁construction	-10.8589
▁album	-10.8589
▁hiring	-10.859
▁dimon	-10.859
audio	-10.8593
fhn	-10.8601
stt	-10.8601
nos	-10.861
▁greece	-10.8611
nbl	-10.8619
dia	-10.8621
holy	-10.8622
▁hearing	-10.8624
▁spin	-10.8624
▁either	-10.8628
▁midday	-10.8646
pb	-10.865
gtl	-10.8651
▁momo	-10.8654
▁fix	-10.8655
▁features	-10.8659
$44	-10.8659
hrl	-10.8672
▁display	-10.8685
▁happen	-10.8685
ría	-10.8694
twtr	-10.8697
▁exec	-10.8703
itt	-10.8705
tra	-10.8713
▁3-	-10.8716
▁cell	-10.8721
ez	-10.8722
hsp	-10.8726
stem	-10.8727
▁remix	-10.874
▁currency	-10.8742
▁dolar	-10.8746
jk	-10.875
▁wave	-10.875
▁celg	-10.8753
rest	-10.876
hour	-10.8762
▁presents	-10.8768
pra	-10.877
dos	-10.8775
▁cross	-10.8779
▁hey	-10.8783
08	-10.88
13:	-10.881
fizz	-10.8811
ya	-10.8812
rost	-10.8812
▁mode	-10.8813
▁teach	-10.8816
rus	-10.8822
pacific	-10.8822
😎	-10.8822
▁declare	-10.8822
▁satya	-10.8822
▁living	-10.8822
svxy	-10.8822
▁telecom	-10.8822
socialmedia	-10.8822
`	-10.8822
▁contest	-10.8822
gn	-10.8823
▁discussion	-10.8827
▁roundup	-10.8827
▁jake	-10.8827
fintech	-10.8828
sec	-10.8828
▁light	-10.8831
mon	-10.8832
fosl	-10.8832
xo	-10.8833
81	-10.8834
intu	-10.8839
6,	-10.8843
mountain	-10.8846
▁sprint	-10.8847
▁recently	-10.8856
▁deep	-10.8864
▁engine	-10.8867
amt	-10.8871
93	-10.8875
▁solutions	-10.8878
▁dre	-10.8883
android	-10.8887
2:	-10.8895
▁foods	-10.8906
▁asap	-10.8906
corp	-10.8911
xd	-10.8913
▁broad	-10.8917
▁application	-10.8925
know	-10.8926
newl	-10.8926
<	-10.8926
62	-10.8929
hon	-10.8938
▁che	-10.8938
fw	-10.8943
endp	-10.8957
wll	-10.8959
▁privacy	-10.896
▁$25	-10.8965
ter	-10.8966
▁pero	-10.8967
▁covered	-10.8969
73	-10.8969
▁decision	-10.8991
▁immigrants	-10.8991
▁sorry	-10.8991
▁running	-10.8994
▁hand	-10.8994
▁photo	-10.9
▁$600	-10.9003
mark	-10.9008
rq	-10.9009
▁pue	-10.9011
bh	-10.9018
iic	-10.902
gy	-10.9028
▁recommend	-10.904
ã	-10.905
▁tape	-10.9051
ada	-10.9054
stone	-10.9057
غب	-10.906
▁beyond	-10.906
▁satellite	-10.906
★	-10.906
▁disclosure	-10.906
bwld	-10.906
frozen	-10.906
bldp	-10.906
▁:"(	-10.906
▁metro	-10.9061
prgo	-10.9061
▁women	-10.9063
▁piper	-10.9064
▁shift	-10.9065
ino	-10.9069
▁law	-10.9073
▁ten	-10.9074
pki	-10.9078
exas	-10.9079
41	-10.9079
asna	-10.9086
pace	-10.9087
▁drones	-10.9097
xim	-10.9105
▁alstom	-10.9108
▁advantage	-10.9108
wbo	-10.9112
ate	-10.9112
▁manufacturing	-10.9115
▁300%	-10.9117
urs	-10.912
zt	-10.9127
▁him	-10.9129
▁units	-10.9135
78	-10.914
▁forecasts	-10.9142
link	-10.9143
▁fun	-10.9154
hrb	-10.9157
cmp	-10.9166
ois	-10.9189
▁gov	-10.919
▁death	-10.9212
ori	-10.9213
▁reality	-10.9216
hca	-10.9223
▁plays	-10.9226
▁silicon	-10.9233
▁family	-10.9234
income	-10.9237
▁6,	-10.9242
▁rais	-10.9242
▁cause	-10.9245
bearish	-10.9245
bf	-10.9258
▁lets	-10.9259
month	-10.9264
head	-10.9268
ted	-10.9272
▁drone	-10.9285
▁dollars	-10.9299
fas	-10.9303
mission	-10.9303
δ	-10.9303
▁accelerate	-10.9304
▁profile	-10.9304
condor	-10.9304
の	-10.9304
▁worldwide	-10.9305
slxp	-10.9305
▁equal	-10.9305
▁battery	-10.9306
yoku	-10.9307
▁shell	-10.9311
▁powershares	-10.9311
jwn	-10.9312
▁buyout	-10.9314
adsk	-10.9315
▁activit	-10.9323
fxcm	-10.9324
expd	-10.9326
billion	-10.9328
▁accounts	-10.9331
neck	-10.9332
▁industrials	-10.9344
▁mexico	-10.9348
2,100	-10.9348
67	-10.9349
▁defense	-10.9354
▁pill	-10.9354
▁año	-10.9357
▁berkshire	-10.936
▁jefferies	-10.936
0331	-10.9362
aud	-10.9366
ppc	-10.9367
ecl	-10.9369
▁stops	-10.9369
current	-10.9371
63	-10.9375
76	-10.9379
▁bets	-10.9383
▁headed	-10.9386
▁75%	-10.9386
97	-10.9391
yax	-10.9405
▁tue	-10.9417
▁discount	-10.9418
▁rival	-10.9419
▁email	-10.9421
▁highly	-10.9421
arry	-10.9421
▁opp	-10.9424
▁1/2	-10.9427
,000,000	-10.9428
▁setups	-10.943
healthcare	-10.9431
dma	-10.9437
aon	-10.9445
▁falling	-10.9455
▁valuations	-10.9457
▁400%	-10.9457
▁learning	-10.9458
▁10,	-10.9474
▁priced	-10.9476
▁bot	-10.9483
pop	-10.9502
nbr	-10.9504
▁heat	-10.9509
-2014	-10.9511
mb	-10.9517
ق	-10.9522
plc	-10.9528
neu	-10.9528
▁800%	-10.953
▁edge	-10.9531
▁billionaire	-10.9535
advisor	-10.955
▁industries	-10.9554
▁welcome	-10.9554
algorithmic	-10.9554
▁excellent	-10.9555
▁honest	-10.9555
syk	-10.9556
▁minute	-10.9558
▁copy	-10.9562
▁rich	-10.9563
▁gopro	-10.9563
aem	-10.9564
retweet	-10.9567
▁arm	-10.9568
mdr	-10.9579
▁shake	-10.9579
write	-10.9582
igt	-10.9588
▁letter	-10.9591
rap	-10.9592
▁publishe	-10.9593
official	-10.9597
▁tablets	-10.9599
▁materials	-10.9604
▁rojo	-10.9604
▁$90	-10.961
▁sapphire	-10.9612
▁retailers	-10.9612
▁$120	-10.9615
▁weight	-10.9617
▁bar	-10.9619
.”	-10.9619
▁patents	-10.962
▁california	-10.9621
11%	-10.9628
ewa	-10.963
▁imo	-10.9631
apd	-10.9633
rrd	-10.9637
aims	-10.964
▁tha	-10.9641
hg	-10.9642
▁tops	-10.9643
▁haven	-10.9648
ief	-10.9659
▁larger	-10.9662
▁patients	-10.9663
lph	-10.9667
!"	-10.9675
▁rank	-10.9676
employment	-10.9676
ble	-10.9691
▁pcln	-10.9693
▁pcs	-10.9702
▁hands	-10.9708
▁pushing	-10.971
▁7-	-10.9711
▁thought	-10.9712
▁pd	-10.9713
hop	-10.9715
than	-10.9719
alb	-10.9722
▁wit	-10.9722
fil	-10.9723
▁stress	-10.9724
rna	-10.9726
▁monster	-10.973
▁va	-10.9732
▁piece	-10.9737
▁premium	-10.9743
▁lack	-10.9746
▁closer	-10.975
7.50	-10.9754
▁yellen	-10.9779
epi	-10.9788
ally	-10.9804
▁avg	-10.9809
¡	-10.981
ß	-10.981
ѻ	-10.981
▁suffer	-10.981
▁expensive	-10.981
▁enhance	-10.981
▁fresh	-10.981
▁honor	-10.9811
▁barril	-10.9814
symc	-10.9815
84	-10.9817
mjna	-10.9821
▁$67	-10.9823
uthr	-10.9824
▁yoy	-10.9824
play	-10.9825
▁$7	-10.9829
nwsa	-10.9831
▁fair	-10.9831
7.00	-10.9833
acad	-10.9837
▁finding	-10.9841
▁8,	-10.9841
jci	-10.9844
sets	-10.9845
wri	-10.9845
▁$13	-10.9846
ching	-10.9848
jah	-10.9855
▁3,	-10.9857
▁document	-10.9861
arg	-10.9861
lung	-10.9865
gci	-10.9866
snap	-10.9872
bones	-10.9887
media	-10.9892
sig	-10.9893
watches	-10.9894
mdy	-10.9899
▁liked	-10.9899
▁spo	-10.9906
▁hire	-10.9911
▁faa	-10.9913
ill	-10.9914
▁thurs	-10.9922
rw	-10.9924
▁compares	-10.9932
ando	-10.994
exp	-10.9942
▁hai	-10.9946
▁charge	-10.9946
nn	-10.9951
internet	-10.9954
▁soar	-10.9954
sti	-10.9956
own	-10.9958
▁girl	-10.9961
cr	-10.9971
rsh	-10.9977
venezuela	-10.9979
▁pagar	-10.9982
▁pr	-10.9987
▁motorola	-10.9992
▁1000	-10.9996
.1	-10.9997
▁delivers	-11
تمي	-11.0007
dat	-11.0021
bro	-11.0042
ndo	-11.0051
rhi	-11.0052
▁road	-11.0052
▁economic	-11.0068
▁leader	-11.0069
â	-11.0073
▁pipeline	-11.0073
▁quadruple	-11.0073
▁fiscal	-11.0073
▁spotlight	-11.0073
▁voice	-11.0073
▁largo	-11.0073
▁ja	-11.0073
▁fearful	-11.0074
merrill	-11.0074
▁failure	-11.0074
▁spent	-11.0074
▁glad	-11.0074
▁james	-11.0074
▁retirement	-11.008
▁followers	-11.0083
▁هذ	-11.0084
▁idop	-11.0084
espr	-11.0084
▁poor	-11.0089
fnfg	-11.009
▁+1	-11.0091
ema	-11.0094
make	-11.0094
▁wear	-11.0096
ron	-11.0097
nas	-11.0099
▁reuters	-11.0102
▁lotto	-11.0106
.3%	-11.0108
▁gaming	-11.0109
arw	-11.011
scco	-11.011
read	-11.011
""	-11.0112
▁role	-11.0123
anat	-11.0124
orders	-11.0125
cfd	-11.0127
alr	-11.0129
▁community	-11.0135
▁flying	-11.0135
wmb	-11.0138
nav	-11.0141
▁comments	-11.0142
alle	-11.0163
exam	-11.0164
hpt	-11.0165
▁confirms	-11.0168
▁par	-11.0173
fro	-11.018
ru	-11.0182
▁gre	-11.0188
nsrg	-11.0196
▁maps	-11.0202
lit	-11.0202
sent	-11.0204
▁djia	-11.0205
▁asset	-11.0209
▁soars	-11.0211
101	-11.0216
iii	-11.0216
aan	-11.0218
▁allow	-11.0234
▁jet	-11.0251
▁kick	-11.0257
▁ceos	-11.0262
▁shopping	-11.0262
8.00	-11.0269
wage	-11.0272
lab	-11.0274
▁sony	-11.0278
▁cure	-11.0279
▁hate	-11.0281
aos	-11.029
▁breach	-11.0292
tum	-11.0294
pld	-11.0297
hq	-11.0298
▁hint	-11.0308
,400	-11.0315
ja	-11.0325
▁valued	-11.0326
▁drag	-11.0335
▁20150	-11.0339
ð	-11.0343
▁aerospace	-11.0343
▁wisdom	-11.0343
▁afford	-11.0344
▁faber	-11.0345
▁banco	-11.0345
rfmd	-11.0349
farm	-11.0349
▁worse	-11.035
agco	-11.0353
▁experience	-11.0353
▁reduce	-11.0355
▁bln	-11.0356
▁jo	-11.0358
▁goal	-11.0359
▁buyer	-11.036
pic	-11.0361
▁speak	-11.0361
▁reache	-11.0363
▁powerful	-11.0371
silver	-11.0379
eix	-11.0381
▁tri	-11.0381
▁800	-11.0383
neutral	-11.0386
amtd	-11.039
▁australia	-11.0391
products	-11.0393
42%	-11.0395
▁investments	-11.0395
nve	-11.0395
▁fucking	-11.0399
hedge	-11.0403
beam	-11.0409
▁fool	-11.041
fd	-11.0412
aes	-11.0417
agg	-11.0417
health	-11.0417
with	-11.0431
▁240	-11.0432
▁fac	-11.0441
eric	-11.0445
store	-11.0449
▁spot	-11.0456
yc	-11.046
▁enterprises	-11.0462
▁lowered	-11.0465
hst	-11.0467
▁1,200	-11.048
▁rates	-11.0482
▁18,	-11.0483
que	-11.0486
▁director	-11.0487
omp	-11.0492
{	-11.0495
▁16,	-11.0499
▁happens	-11.0508
tru	-11.0516
22%	-11.0525
exr	-11.0533
▁stuff	-11.0533
▁pivot	-11.0537
▁02	-11.0543
mv	-11.056
rbc	-11.0563
verse	-11.0564
▁coo	-11.0579
let	-11.0581
technology	-11.0583
🎶	-11.0619
∆	-11.0621
▁brazil	-11.0621
▁featuring	-11.0621
▁taiwan	-11.0621
▁valley	-11.0621
▁18:00:05:	-11.0621
▁alcoa	-11.0621
▁vanguard	-11.0621
▁parcel	-11.0621
▁hardware	-11.0621
zmh	-11.0622
▁sitting	-11.0622
▁loving	-11.0623
▁exelon	-11.0624
▁están	-11.0627
20,000	-11.0627
▁cowen	-11.0629
avy	-11.0629
versu	-11.0655
▁failed	-11.0655
crew	-11.0656
▁gainers	-11.0656
▁asian	-11.0659
indu	-11.0663
seas	-11.0663
covered	-11.0664
hig	-11.0666
▁mike	-11.0668
▁design	-11.067
hfi	-11.0673
▁propose	-11.0674
pcp	-11.0676
ian	-11.0676
lick	-11.0683
▁más	-11.0686
ling	-11.069
▁session	-11.0692
▁12,	-11.0695
▁concerns	-11.0696
▁fixed	-11.0698
▁digit	-11.0704
▁pure	-11.0711
▁count	-11.072
pep	-11.0722
ara	-11.0723
▁gar	-11.0724
.9%	-11.0727
ask	-11.0728
▁stand	-11.0729
▁slide	-11.0733
▁soft	-11.0742
wells	-11.0752
1999	-11.0753
iendo	-11.0758
▁308	-11.0763
ey	-11.0766
related	-11.0768
▁boy	-11.0769
▁transaction	-11.077
awk	-11.0772
▁مع	-11.0773
glass	-11.078
300%	-11.0783
▁mixtape	-11.08
и	-11.0801
lnc	-11.0806
comcast	-11.0814
bita	-11.0816
global	-11.0821
will	-11.0824
▁local	-11.0825
▁thru	-11.0829
▁ballmer	-11.0833
▁dropping	-11.0834
reg	-11.0835
ud	-11.0839
43	-11.0844
meli	-11.0846
▁$6	-11.085
▁selloff	-11.0852
▁ipads	-11.0852
ley	-11.0854
ala	-11.0862
ese	-11.0863
▁2016	-11.0867
▁warning	-11.0885
▁reject	-11.0887
rak	-11.0891
where	-11.0899
64	-11.0903
nly	-11.0905
education	-11.0906
followtrick	-11.0907
línea	-11.0907
▁declining	-11.0907
▁similar	-11.0907
▁identify	-11.0907
▁palbo	-11.0907
lqmt	-11.0907
▁junior	-11.0907
▁countries	-11.0907
▁contact	-11.0907
logi	-11.0914
once	-11.0916
skx	-11.0919
▁invite	-11.0919
ard	-11.0924
tap	-11.0926
writing	-11.0928
glng	-11.0928
▁happened	-11.093
▁rock	-11.0937
▁nicely	-11.0947
els	-11.0954
rrc	-11.0955
utx	-11.096
▁korea	-11.0963
▁tobacco	-11.0968
ari	-11.0978
uhs	-11.0979
▁incredible	-11.098
▁load	-11.0985
%!	-11.0988
▁works	-11.0992
vxx	-11.0994
pii	-11.0998
msi	-11.1001
bxp	-11.1002
interest	-11.1003
▁download	-11.1007
05	-11.1014
▁officer	-11.1035
▁fish	-11.1057
▁scenario	-11.1061
▁rivals	-11.1065
▁$70	-11.1065
▁motor	-11.1066
▁decade	-11.1067
▁ignore	-11.1068
▁kind	-11.107
osk	-11.1075
ship	-11.1076
▁-0.	-11.1079
20+	-11.1086
flo	-11.1086
rr	-11.109
price	-11.1095
rop	-11.11
▁coal	-11.1102
▁fuel	-11.1107
▁24,	-11.1123
tax	-11.1128
ets	-11.1133
lc	-11.1134
▁sanctions	-11.1135
▁dil	-11.1141
iab	-11.1142
▁9,	-11.1151
▁supe	-11.1156
▁dm	-11.1159
tm	-11.1163
▁reiterate	-11.118
▁accept	-11.1181
blo	-11.1192
om	-11.1193
ize	-11.1198
▁difference	-11.1201
▁subscription	-11.1201
▁worry	-11.1201
▁shire	-11.1201
clinical	-11.1202
klac	-11.1202
pennies	-11.1202
▁excited	-11.1203
▁4:00	-11.1205
▁sar	-11.1208
pvh	-11.1209
py	-11.1216
▁react	-11.1217
likeit	-11.1218
▁phil	-11.1218
alsn	-11.1221
▁1-	-11.1223
pin	-11.1223
▁discusse	-11.1226
tree	-11.1228
mkc	-11.1228
▁wwdc	-11.1231
👍	-11.1233
anss	-11.1236
▁hod	-11.1252
▁debate	-11.1256
trill	-11.1256
ovas	-11.1261
▁white	-11.1262
armh	-11.1264
▁tho	-11.1264
▁period	-11.1264
fxc	-11.1265
▁leave	-11.1266
▁favor	-11.127
▁chemical	-11.1271
▁oversold	-11.1274
run	-11.1277
▁son	-11.1282
boeing	-11.1287
rut	-11.1293
vav	-11.1296
power	-11.1297
▁90	-11.1305
ger	-11.1309
▁soda	-11.131
ien	-11.1315
▁sounds	-11.1315
its	-11.1316
▁loans	-11.1322
udr	-11.1323
▁unveil	-11.1325
▁drink	-11.1325
▁sun	-11.1328
banks	-11.1332
▁23,	-11.1333
mond	-11.1339
104	-11.1344
▁;)	-11.1347
.10	-11.1351
light	-11.1357
▁beverages	-11.1358
swn	-11.1361
▁six	-11.1362
hod	-11.1363
▁explain	-11.1367
▁itunes	-11.1368
▁appear	-11.1369
frc	-11.137
ek	-11.1375
lar	-11.1381
▁obama	-11.1384
▁switch	-11.1387
msg	-11.1389
▁adj	-11.1413
▁asked	-11.1418
▁middle	-11.1419
ü	-11.1424
rsn	-11.1427
pps	-11.1429
wl	-11.1441
▁💯	-11.1442
▁nears	-11.1445
▁matters	-11.1447
mas	-11.1449
▁hasn	-11.1455
▁vol	-11.1456
gb	-11.1457
ura	-11.1468
▁problems	-11.1475
▁aren	-11.1476
gool	-11.1477
bcs	-11.1481
wec	-11.1491
▁emylers	-11.1504
▁jaffray	-11.1504
▁unilever	-11.1504
ー	-11.1504
▁version	-11.1504
▁indicator	-11.1505
▁exactly	-11.1505
▁sotp	-11.1505
psychology	-11.1506
▁zuck	-11.1507
▁profitability	-11.1508
▁draw	-11.1509
lmca	-11.1509
▁gho	-11.151
▁samples	-11.151
avx	-11.1513
▁accuse	-11.1516
▁tru	-11.1516
lpla	-11.152
spreads	-11.1523
drone	-11.1533
▁shoot	-11.1536
66	-11.1536
ewh	-11.1538
oww	-11.1542
onvo	-11.1544
59	-11.1544
men	-11.1544
.7%	-11.155
ech	-11.155
.6%	-11.1555
▁dj	-11.1557
beats	-11.1558
▁tracking	-11.1559
dns	-11.156
▁reveals	-11.1561
▁reads	-11.1564
▁agreed	-11.1565
ekn	-11.1565
sjm	-11.1574
ep	-11.1575
▁agrees	-11.1578
amg	-11.1586
jet	-11.1592
ach	-11.1593
pago	-11.1597
oge	-11.1601
inch	-11.1605
5.00	-11.1607
egr	-11.1608
▁ride	-11.1617
wyn	-11.1623
▁dr	-11.1627
central	-11.1629
cont	-11.1633
▁250	-11.1636
early	-11.1638
▁launched	-11.1643
cs	-11.1649
america	-11.1651
▁suit	-11.1661
▁license	-11.1678
▁develop	-11.1678
unit	-11.168
sector	-11.1681
jack	-11.1682
▁union	-11.1687
▁charges	-11.1689
update	-11.1689
youtube	-11.1689
▁file	-11.1693
▁thur	-11.1695
ocr	-11.1695
asty	-11.17
sgen	-11.1704
▁flag	-11.1706
disney	-11.1708
pfizer	-11.1708
▁print	-11.1723
xec	-11.1729
▁billions	-11.1732
▁shut	-11.1742
▁books	-11.1745
▁map	-11.1751
rank	-11.1761
photo	-11.1766
djia	-11.177
idg	-11.1775
scr	-11.1777
dec	-11.1782
'(	-11.1787
atk	-11.1796
***	-11.18
▁pepsi	-11.1816
อ	-11.1816
▁strategic	-11.1817
▁rallies	-11.1817
▁stifel	-11.1817
▁subject	-11.1817
▁basically	-11.1817
gntx	-11.1817
▁caught	-11.1817
▁rosner	-11.1818
▁threaten	-11.1819
mwip	-11.182
rcpt	-11.182
gww	-11.1821
▁mln	-11.1822
isis	-11.1826
▁decent	-11.1827
▁manufacturers	-11.1827
▁spring	-11.1828
rades	-11.1831
▁came	-11.1832
nsm	-11.1836
ball	-11.1837
becoming	-11.1839
ku	-11.184
▁radio	-11.1841
ee	-11.1842
invn	-11.1842
kup	-11.185
▁perdi	-11.185
▁source	-11.1851
hrw	-11.1852
ube	-11.1854
▁snapchat	-11.1857
▁covering	-11.1859
applepay	-11.1872
▁(+	-11.1875
▁56	-11.1879
enz	-11.1883
▁+$	-11.1886
bsh	-11.1887
▁airbus	-11.1891
▁goods	-11.1893
▁missing	-11.1894
inve	-11.1899
▁+2	-11.1899
▁akin	-11.1899
ksu	-11.1903
▁match	-11.1909
qas	-11.1913
slm	-11.1918
03	-11.1919
▁promise	-11.1922
gov	-11.193
ula	-11.1934
log	-11.194
spw	-11.1942
▁ended	-11.1943
ntrs	-11.1947
▁hype	-11.1956
▁lies	-11.1969
▁renew	-11.1973
▁trans	-11.1974
point	-11.1977
ado	-11.1978
3)	-11.198
▁san	-11.1982
▁fraud	-11.1987
▁ending	-11.1989
▁slip	-11.1998
lll	-11.1999
jg	-11.2
pcl	-11.2001
▁type	-11.2007
mrc	-11.2009
cf	-11.2017
ntes	-11.2021
wei	-11.2023
▁ubs	-11.2044
mlm	-11.2047
▁club	-11.2051
▁clean	-11.2055
▁yields	-11.207
ney	-11.207
?..	-11.2071
hua	-11.2074
▁enterprise	-11.2075
▁patient	-11.2075
pll	-11.2082
alo	-11.2085
swy	-11.2087
ut	-11.2093
▁predict	-11.21
о	-11.2102
5.	-11.2119
hone	-11.2123
.85	-11.2124
▁19%	-11.2127
cp	-11.2128
▁usa	-11.2132
icles	-11.2132
cro	-11.2132
sbac	-11.2133
rent	-11.2136
▁liquid	-11.2139
▁bernstein	-11.2139
▁response	-11.2139
▁shipments	-11.2139
▁square	-11.2139
nlnk	-11.2139
▁father	-11.214
▁popping	-11.214
sivb	-11.2141
▁1980	-11.2141
fuel	-11.2141
rpai	-11.2142
▁reaction	-11.2143
▁lts	-11.2146
ous	-11.2146
▁shale	-11.2146
lvlt	-11.2147
▁prepare	-11.2148
carol	-11.2154
ring	-11.216
▁eating	-11.216
eca	-11.216
acg	-11.2162
▁hacerl	-11.2175
▁broken	-11.2176
▁125	-11.2177
rusl	-11.2178
▁thi	-11.2179
enta	-11.2179
gang	-11.2179
expected	-11.2183
paid	-11.2184
fwp	-11.2184
▁bonds	-11.2186
▁reverse	-11.2191
▁tap	-11.2193
▁tag	-11.2204
▁strike	-11.2205
▁developers	-11.2206
keep	-11.2213
▁dias	-11.2215
▁progress	-11.2216
▁pays	-11.2222
gate	-11.2224
nwl	-11.2225
▁kids	-11.2225
ions	-11.2225
▁bus	-11.2225
▁oppenheimer	-11.2228
▁$60	-11.2228
odp	-11.223
hx	-11.2243
▁kicks	-11.2245
▁advances	-11.2246
▁6%	-11.2248
dog	-11.2264
33%	-11.2264
value	-11.2273
▁$18	-11.2275
▁americans	-11.2281
rk	-11.2281
▁appears	-11.2286
▁shown	-11.2287
bmd	-11.2302
▁60%	-11.2307
uta	-11.2309
chat	-11.2315
tu	-11.2323
▁biotechnolog	-11.2324
gd	-11.2327
je	-11.233
▁ipod	-11.2356
lmt	-11.2357
sic	-11.236
▁overweight	-11.236
▁ahora	-11.2365
pom	-11.2366
▁parabolic	-11.2367
kh	-11.2372
▁hsbc	-11.2373
▁gross	-11.2379
ر	-11.2385
merger	-11.2387
▁gear	-11.2388
▁prior	-11.2389
lio	-11.2392
robar	-11.241
ato	-11.2411
▁champ	-11.2418
itc	-11.2426
▁prope	-11.2428
bnd	-11.2429
ytr	-11.2438
asco	-11.2441
▁monitor	-11.2447
▁recover	-11.2461
▁serve	-11.2466
▁walk	-11.2469
سبوع	-11.2469
▁($115)	-11.2472
▁diversity	-11.2472
▁estimize	-11.2472
▁malaysia	-11.2472
🅾	-11.2472
̸	-11.2472
▁auction	-11.2472
🙌👏	-11.2472
gluu	-11.2473
▁1,20	-11.2473
▁recommendation	-11.2473
▁;-)	-11.2473
tna	-11.2474
wwav	-11.2475
▁candle	-11.2475
▁vetr	-11.2477
▁overview	-11.2478
▁breakdown	-11.2478
▁hook	-11.2478
cmcsa	-11.2479
▁somehow	-11.248
▁bright	-11.248
petm	-11.2483
wright	-11.2483
marketing	-11.2484
▁title	-11.2485
▁bcv	-11.2485
source	-11.2491
▁tuned	-11.2493
▁stalk	-11.2496
▁outside	-11.2499
bias	-11.2505
deal	-11.2505
▁trav	-11.2506
golden	-11.2507
▁hotel	-11.2513
avb	-11.2521
vlo	-11.2523
▁topping	-11.2523
cm	-11.2524
.77%	-11.2524
▁vaccine	-11.2525
▁87	-11.2528
maawa	-11.2533
1.8%	-11.2536
▁sharing	-11.2538
lwr	-11.2539
fnf	-11.2546
▁owners	-11.2549
▁yeah	-11.2553
▁hell	-11.2554
74	-11.256
5000	-11.2561
▁petróleo	-11.2564
▁holders	-11.2567
▁suppliers	-11.2568
▁loses	-11.2569
▁fees	-11.2571
**	-11.2572
irm	-11.2574
▁163	-11.2585
▁lowers	-11.2586
xme	-11.2586
1000	-11.2591
list	-11.2592
▁pri	-11.2597
å	-11.2599
pp	-11.26
▁managers	-11.2602
urated	-11.2615
isr	-11.262
ggp	-11.2624
▁helps	-11.2626
tae	-11.263
fraud	-11.2632
10%	-11.2634
▁leaves	-11.2639
russ	-11.2646
▁spike	-11.2646
epa	-11.2647
▁eyes	-11.2649
xpo	-11.265
▁msci	-11.2658
!#	-11.2659
į	-11.2661
msci	-11.2663
▁14%	-11.2667
nda	-11.267
fuck	-11.2672
▁master	-11.2673
▁segment	-11.2674
easy	-11.2676
sale	-11.2679
▁gates	-11.2682
crc	-11.2683
wel	-11.2684
saturday	-11.2684
▁fear	-11.2687
▁weighs	-11.2692
trending	-11.2699
▁bae	-11.27
▁taken	-11.2707
▁gdp	-11.2709
▁cycle	-11.2715
may	-11.272
▁wanted	-11.2723
▁22,	-11.2725
▁jimmy	-11.2731
who	-11.2732
▁earning	-11.2735
▁recovery	-11.2741
msm	-11.2749
xls	-11.2749
1.5	-11.2752
moving	-11.2752
▁screens	-11.2755
kbh	-11.2761
apt	-11.2762
▁+$1	-11.2763
fill	-11.2766
rmb	-11.2771
rok	-11.2784
wet	-11.2785
▁serious	-11.2807
▁squeeze	-11.2809
xg	-11.2812
grub	-11.2816
tlt	-11.2817
▁beautiful	-11.2817
▁senior	-11.2817
▁together	-11.2817
▁nlightn	-11.2817
pension	-11.2817
▁nomura	-11.2817
▁timothy	-11.2817
▁frente	-11.2817
▁ridiculous	-11.2817
▁foreign	-11.2818
pbct	-11.2818
shoutout	-11.2818
▁steal	-11.2818
▁fade	-11.2818
sales	-11.2819
▁50,600%	-11.2819
▁tank	-11.282
▁sigue	-11.2824
▁gave	-11.2824
▁maxim	-11.2824
eqr	-11.2825
▁carrier	-11.2825
▁sheet	-11.2825
blogs	-11.2826
▁dorse	-11.2828
▁450%	-11.2831
▁nextera	-11.2832
stld	-11.2832
ugi	-11.2834
beav	-11.2836
boss	-11.2837
fig	-11.2839
mtd	-11.2841
mdrx	-11.2846
gly	-11.2847
demos	-11.2849
▁2,000	-11.2855
▁happening	-11.2856
▁❤	-11.2866
▁424	-11.2867
adep	-11.2871
born	-11.2871
appf	-11.2877
▁warns	-11.2882
▁named	-11.2882
vu	-11.2883
aint	-11.2886
▁core	-11.2889
▁checkout	-11.2895
▁minimum	-11.2901
▁perspective	-11.2902
50:	-11.2906
▁fact	-11.291
▁absolutely	-11.2913
dal	-11.2914
eur	-11.2914
oz	-11.2916
mdt	-11.2917
fav	-11.2918
ego	-11.2918
▁pact	-11.2921
▁zone	-11.2922
word	-11.2928
doe	-11.2929
brand	-11.293
▁rumored	-11.2933
▁assign	-11.2935
roc	-11.2939
▁represent	-11.294
▁jp	-11.2942
▁leg	-11.295
▁nest	-11.2956
▁sit	-11.296
▁slips	-11.2966
▁hedged	-11.2966
hnt	-11.2972
egi	-11.2976
unce	-11.2977
tac	-11.2983
elh	-11.2987
gyp	-11.2994
dope	-11.2995
rex	-11.3003
▁write	-11.3004
xel	-11.3013
sil	-11.3016
nvr	-11.3026
nsr	-11.3027
▁$3.2	-11.3033
▁mcd	-11.3033
//	-11.3033
robo	-11.3036
▁tues	-11.3041
fund	-11.3041
▁manager	-11.3044
.04	-11.3046
▁wallet	-11.3048
fti	-11.3053
htc	-11.3057
wave	-11.3063
bond	-11.3067
6.50	-11.3068
▁kindle	-11.3072
▁lista	-11.3073
▁pandora	-11.3076
▁accurate	-11.3079
▁jun	-11.3082
ists	-11.3083
▁ecosystem	-11.3083
▁experiment	-11.3083
▁storage	-11.3083
1)	-11.3085
oya	-11.3089
▁effect	-11.3093
atch	-11.3094
▁sam	-11.3097
▁$130	-11.3116
▁trip	-11.3118
▁replac	-11.3122
ness	-11.3123
1,000	-11.3129
pharmaceutical	-11.3131
3:	-11.3132
▁greater	-11.3132
▁fails	-11.3135
late	-11.3138
gan	-11.3152
pbi	-11.3157
retirement	-11.3166
▁tune	-11.3167
download	-11.3168
ción	-11.3168
▁require	-11.3174
ล	-11.3174
😊	-11.3174
٠	-11.3174
&#39;	-11.3174
lithium	-11.3174
▁claytrader	-11.3174
▁french	-11.3174
▁variation	-11.3174
▁worried	-11.3174
▁فرص	-11.3174
▁exposure	-11.3174
▁lynch	-11.3174
▁nakaka	-11.3174
▁sandberg	-11.3174
▁beginning	-11.3174
▁laptop	-11.3175
budget	-11.3175
▁workforce	-11.3175
picks	-11.3175
▁rather	-11.3175
rhhby	-11.3175
▁spill	-11.3175
fitness	-11.3175
▁10:30	-11.3175
mygn	-11.3175
wearabletech	-11.3175
▁slightly	-11.3175
ainment	-11.3176
▁activist	-11.3176
save	-11.3176
porque	-11.3177
▁fiber	-11.318
cancer	-11.3181
▁costco	-11.3181
moran	-11.3182
flir	-11.3183
▁completely	-11.3183
▁navy	-11.3186
wsm	-11.3189
bgm	-11.3194
ç	-11.3195
▁amount	-11.3196
▁knew	-11.3201
scg	-11.3201
60%	-11.3202
trailing	-11.3206
▁alone	-11.3206
▁expo	-11.3209
▁drinking	-11.321
▁comm	-11.3211
▁beef	-11.3211
bot	-11.3213
bull	-11.3215
▁ebook	-11.3215
plus	-11.3217
▁cheaper	-11.3218
pla	-11.3222
yrs	-11.3223
iz	-11.3228
▁fewer	-11.3229
exit	-11.3229
▁inbev	-11.3234
sha	-11.3234
:45	-11.3235
▁lil	-11.3238
قا	-11.3238
▁quality	-11.324
ك	-11.3242
pd	-11.3242
amb	-11.3243
wh	-11.3245
▁zero	-11.3248
printing	-11.3251
▁reso	-11.3253
▁aim	-11.3257
aav	-11.3259
▁$17	-11.326
rkt	-11.3261
▁xiaomi	-11.3261
▁janet	-11.3261
يه	-11.3266
▁يس	-11.3269
▁caps	-11.3272
gale	-11.3273
luk	-11.3274
robe	-11.3276
xone	-11.3286
▁loan	-11.3287
▁35	-11.3291
▁sky	-11.3291
kim	-11.3294
▁stronger	-11.3298
efx	-11.3301
rga	-11.3309
▁vision	-11.3313
▁stat	-11.3313
433	-11.3313
chk	-11.3314
ihs	-11.3317
▁sellers	-11.3323
trust	-11.3329
elle	-11.3336
ju	-11.3343
anv	-11.3345
psa	-11.335
made	-11.3354
tvix	-11.3357
apam	-11.336
shit	-11.336
hkp	-11.3364
▁banne	-11.3368
►	-11.3377
telling	-11.3381
▁5-	-11.3388
ise	-11.3394
▁110	-11.3396
books	-11.3401
▁regulator	-11.3408
▁recall	-11.3409
▁detail	-11.3411
archa	-11.3419
ddd	-11.3419
▁neutrality	-11.3424
ptc	-11.3433
▁hbo	-11.3437
▁peter	-11.345
▁chipotle	-11.3451
▁november	-11.3451
▁hopes	-11.3454
oster	-11.3456
▁14-	-11.3457
bce	-11.3459
fine	-11.3469
▁earns	-11.3472
uk	-11.3473
▁400	-11.3475
wind	-11.3496
▁trials	-11.3496
000	-11.3502
stant	-11.3503
▁damn	-11.3504
▁thu	-11.3504
▁$6.2	-11.3522
ë	-11.3523
▁ugly	-11.3529
▁mention	-11.353
▁decide	-11.3533
▁prepar	-11.3536
bit	-11.3542
ł	-11.3545
น	-11.3545
ħ	-11.3545
▁clayton	-11.3545
🆒	-11.3545
worldcup	-11.3545
▁patria	-11.3545
▁military	-11.3545
▁institutional	-11.3545
▁unexpected	-11.3547
▁(8-	-11.3547
other	-11.3547
mur	-11.3548
▁trick	-11.355
six	-11.3553
▁revealed	-11.3554
▁vice	-11.3557
skt	-11.3558
▁sound	-11.356
▁anticipati	-11.3566
▁machine	-11.3568
▁promote	-11.3569
fdn	-11.3569
hilo	-11.357
し	-11.3571
▁cree	-11.3572
▁biosimilar	-11.3575
pdm	-11.3575
▁tool	-11.358
fcs	-11.3582
ster	-11.3585
▁created	-11.3595
▁stage	-11.3597
epo	-11.36
▁confirm	-11.3606
1500	-11.3608
dust	-11.361
gotta	-11.3612
▁healthy	-11.3612
los	-11.3622
name	-11.3623
yield	-11.3624
▁34	-11.3629
▁funny	-11.363
▁je	-11.3632
▁atlanta	-11.3635
▁hathaway	-11.3635
▁pilot	-11.3636
idos	-11.3636
▁france	-11.3638
▁128	-11.3641
▁2017	-11.3642
280	-11.3644
:00	-11.3644
▁8.3	-11.3646
lltc	-11.3648
☺	-11.3658
▁feeling	-11.366
▁fill	-11.3662
▁claim	-11.3663
boh	-11.3663
▁picture	-11.3665
▁reading	-11.3669
utc	-11.3687
▁televis	-11.3689
▁leak	-11.3697
ahl	-11.3699
wide	-11.3705
kl	-11.3707
ina	-11.3709
itunes	-11.3714
77	-11.3716
hn	-11.3724
▁:(	-11.3731
screen	-11.3733
▁related	-11.3734
nike	-11.3735
hcv	-11.3745
fare	-11.3746
rules	-11.3747
lago	-11.375
14:	-11.3751
very	-11.3759
59%	-11.3761
team	-11.3763
▁listo	-11.3764
ggg	-11.3767
fan	-11.3767
▁hain	-11.3777
enh	-11.3779
▁lawyer	-11.3785
▁catalyst	-11.3791
▁protect	-11.3792
▁straddle	-11.3793
aee	-11.3795
▁¿	-11.3803
▁aircraft	-11.3807
wp	-11.3809
▁invers	-11.3816
amda	-11.3819
ely	-11.3819
▁570	-11.382
53%	-11.382
▁moved	-11.3822
▁discr	-11.3822
wab	-11.3822
ز	-11.3824
sgm	-11.3829
▁transcript	-11.383
ري	-11.3832
▁person	-11.3842
▁lines	-11.3847
calls	-11.3849
bonds	-11.3862
alks	-11.3874
▁weds	-11.3881
investors	-11.3881
▁surges	-11.3891
pack	-11.3893
15.	-11.3897
▁bro	-11.3902
nor	-11.3903
105	-11.3904
.18	-11.3904
اسبوع	-11.3907
▁affect	-11.3911
▁grand	-11.3923
oducto	-11.3924
▁dish	-11.3925
hcc	-11.3925
.055	-11.3927
า	-11.3929
😍	-11.3929
ร	-11.3929
▁campaign	-11.3929
▁candidate	-11.3929
▁confidence	-11.3929
▁explanation	-11.3929
▁traffic	-11.3929
tinder	-11.3929
▁choice	-11.3929
▁<<--	-11.393
▁respect	-11.393
▁turnaround	-11.393
、	-11.393
briankrzanich	-11.393
climate	-11.393
▁petroleum	-11.393
▁commission	-11.393
compton	-11.393
دم	-11.3931
▁metric	-11.3931
▁caution	-11.3932
warrenbuffett	-11.3932
lkq	-11.3934
rmd	-11.3935
▁jul	-11.3936
jbl	-11.3936
wlst	-11.3936
▁generated	-11.3941
ohi	-11.3941
وص	-11.3943
▁membership	-11.3944
▁busy	-11.3944
ainty	-11.3944
▁code	-11.3945
wb	-11.3945
▁blame	-11.3946
я	-11.3947
hou	-11.3949
▁3:	-11.395
▁subscriber	-11.395
▁29,	-11.3951
▁funding	-11.3952
:-0.	-11.3956
▁deben	-11.3958
▁dominate	-11.3961
aho	-11.3961
▁approved	-11.3969
▁advice	-11.3971
yndx	-11.3974
mad	-11.3977
▁surprised	-11.3981
tal	-11.3984
▁nail	-11.3986
mei	-11.3998
sugar	-11.3999
▁rsi	-11.4003
ite	-11.4011
rsg	-11.4012
"!	-11.4017
▁park	-11.4018
▁targeted	-11.4019
▁computing	-11.4022
▁christmas	-11.4024
▁(1	-11.4027
▁speed	-11.4029
ذ	-11.4031
▁west	-11.4034
▁flop	-11.4037
▁acquir	-11.4039
bv	-11.4042
▁discover	-11.4049
▁4-	-11.4053
▁panic	-11.4056
▁listening	-11.406
كو	-11.4063
ann	-11.4065
▁forever	-11.4069
▁doubt	-11.408
▁towards	-11.4081
bwa	-11.4081
▁loo	-11.4085
▁odd	-11.4101
įt	-11.4107
rbs	-11.4107
▁sex	-11.4107
ع	-11.4115
hsh	-11.4118
ber	-11.4122
▁wages	-11.4123
town	-11.4125
pk	-11.4126
▁bout	-11.4126
fds	-11.4129
ct	-11.4131
ought	-11.414
und	-11.4149
sci	-11.4154
eps	-11.4159
-14	-11.4159
▁rights	-11.4165
hires	-11.4167
tar	-11.4168
▁wi	-11.4169
jun	-11.4171
hill	-11.4171
▁twtr	-11.4188
▁jay	-11.4189
science	-11.419
▁risks	-11.4195
fundamentals	-11.4199
mf	-11.4201
laz	-11.4201
▁highlight	-11.4202
ier	-11.4202
▁dominan	-11.4204
▁12%	-11.4206
▁$800	-11.4208
hlt	-11.4215
arc	-11.422
▁sweeten	-11.4221
▁ground	-11.4222
▁country	-11.4222
▁messaging	-11.4228
▁wage	-11.4228
oncology	-11.4236
▁insight	-11.4244
.00	-11.4245
cell	-11.4248
▁25,	-11.4252
commodities	-11.4253
▁kay	-11.4259
prediction	-11.4265
▁130	-11.4271
▁600	-11.4272
inside	-11.4281
▁wearable	-11.4282
advice	-11.4287
▁needed	-11.4297
▁2008	-11.4297
radio	-11.4308
bill	-11.4311
mjn	-11.4313
▁upsides	-11.4314
brief	-11.4319
print	-11.4325
change	-11.4327
☆	-11.4327
💜	-11.4329
▁bonanza	-11.4329
▁chambers	-11.4329
▁fitzgerald	-11.4329
▁historia	-11.4329
▁jimmybob	-11.4329
▁mentiras	-11.4329
▁structure	-11.4329
💟	-11.4329
▁leaving	-11.4329
jbht	-11.4329
▁financier	-11.4329
▁maraca	-11.433
productivity	-11.433
▁spark	-11.433
nlsn	-11.433
▁rabbi	-11.433
graham	-11.433
♥♥♥	-11.433
craft	-11.4331
ú	-11.4332
lqd	-11.4332
proxy	-11.4334
1.8	-11.4335
▁formula	-11.4335
▁quickly	-11.4338
▁$1,2	-11.4339
▁crowded	-11.4342
gp	-11.4346
▁diff	-11.4346
lease	-11.4349
▁mentioned	-11.4349
147	-11.4351
•	-11.4354
ezc	-11.4354
▁2:	-11.4355
▁sui	-11.4356
320	-11.4358
when	-11.4359
---	-11.4359
66%	-11.4359
▁54	-11.436
rare	-11.4363
▁fines	-11.4363
about	-11.4365
▁poll	-11.4366
page	-11.4368
close	-11.4371
▁reap	-11.438
bln	-11.4382
ible	-11.4385
ave	-11.4387
▁indexes	-11.4389
▁pu	-11.4391
earn	-11.4393
making	-11.4396
levels	-11.4397
rib	-11.4398
waf	-11.4404
qep	-11.4405
iran	-11.4406
▁20,	-11.4406
sgy	-11.4412
mcrs	-11.4412
▁bay	-11.4413
utterfly	-11.4414
lii	-11.4417
▁lending	-11.4421
xyl	-11.4426
▁directors	-11.4427
▁purchases	-11.4429
▁dominion	-11.4429
▁scare	-11.443
card	-11.4436
▁fidelity	-11.444
▁mergers	-11.4443
▁processor	-11.4444
quad	-11.4453
rier	-11.4455
ces	-11.4456
▁fundamental	-11.4462
▁records	-11.4465
▁unveiled	-11.4465
hma	-11.4472
gwr	-11.4473
lot	-11.4475
style	-11.4476
case	-11.4482
▁coa	-11.4482
▁plane	-11.4489
fail	-11.4491
▁force	-11.4491
8.50	-11.4492
unca	-11.4497
byi	-11.4499
▁bu	-11.45
ode	-11.45
akr	-11.451
ón	-11.4515
▁{	-11.4515
kro	-11.4528
count	-11.4531
aus	-11.4533
aap	-11.4533
ml	-11.4534
sage	-11.4535
ghl	-11.4539
mk	-11.4548
rza	-11.4551
gmt	-11.4553
▁gana	-11.4553
add	-11.4555
ncl	-11.4565
fully	-11.4567
ify	-11.4571
irv	-11.4571
yh	-11.4575
cel	-11.4584
sai	-11.4586
city	-11.4589
▁advance	-11.4591
ppl	-11.4593
done	-11.4596
puge	-11.4597
atr	-11.4599
▁fam	-11.4609
▁wide	-11.4615
▁lee	-11.4617
▁danah	-11.4618
150	-11.4618
🔥🔥	-11.4623
focused	-11.4624
jec	-11.4626
▁disrupt	-11.4626
aining	-11.4627
▁qtr	-11.4631
▁therapy	-11.4641
▁awards	-11.4643
▁panel	-11.4646
81%	-11.465
pol	-11.4651
nvo	-11.4653
hts	-11.4665
108	-11.4668
aiv	-11.4671
ibk	-11.4673
edge	-11.4676
million	-11.4688
lip	-11.4691
▁$300	-11.4695
bud	-11.4696
:58	-11.4703
▁spam	-11.4712
123	-11.4712
place	-11.4714
▁player	-11.4715
▁door	-11.4715
hii	-11.4717
▁front	-11.472
kbw	-11.472
odf	-11.4723
▁chain	-11.4729
т	-11.4731
250,	-11.4741
▁collect	-11.4745
🙌	-11.4746
▁tight	-11.4746
📲	-11.4746
😈	-11.4746
assassin	-11.4746
▁anheuser	-11.4746
▁doubling	-11.4746
▁revlimid	-11.4746
💞	-11.4746
nowplaying	-11.4746
nuclear	-11.4746
▁altera	-11.4746
▁apparently	-11.4746
grind	-11.4746
🏆🏆	-11.4746
▁generic	-11.4746
▁semana	-11.4746
▁africa	-11.4746
▁basis	-11.4746
▁metals	-11.4747
▁collaboration	-11.4747
mnga	-11.4747
▁beginners	-11.4747
▁camera	-11.4749
▁imho	-11.4749
▁tsmc	-11.475
jmei	-11.475
▁shoppers	-11.4751
moneygang	-11.4752
▁status	-11.4753
▁pea	-11.4756
▁angelo	-11.4757
▁text	-11.4761
▁estate	-11.4762
شرك	-11.4763
▁2007	-11.4767
fnsr	-11.4767
▁thesis	-11.477
mdu	-11.477
▁australian	-11.4771
▁dios	-11.4773
▁reminder	-11.4775
bleed	-11.4777
▁$11	-11.4777
oled	-11.4778
ivv	-11.4781
▁hired	-11.4782
26%	-11.4783
▁lesson	-11.4784
kiss	-11.4784
dick	-11.4785
axs	-11.4789
▁tries	-11.4791
▁human	-11.4801
mlnx	-11.4801
▁🙏	-11.4806
qid	-11.4814
flex	-11.4817
bird	-11.4818
▁macd	-11.4829
designed	-11.483
pak	-11.4832
xp	-11.4832
▁underperform	-11.4833
▁slb	-11.4838
▁bitch	-11.4838
▁twitch	-11.4844
kmp	-11.4845
ile	-11.4846
put	-11.4848
gene	-11.4849
▁leap	-11.485
▁travel	-11.4851
rz	-11.4851
:')	-11.4854
▁competitors	-11.4855
▁god	-11.4859
▁bo	-11.486
hme	-11.4869
▁affected	-11.487
cast	-11.4873
▁jv	-11.4876
▁tree	-11.4876
yn	-11.4878
ghc	-11.4879
▁cant	-11.488
ath	-11.4887
▁insights	-11.4891
نا	-11.4893
▁strat	-11.4895
uf	-11.4897
eq	-11.4901
▁amgn	-11.4905
▁fan	-11.4907
nyt	-11.4911
street	-11.4912
perform	-11.4916
▁cae	-11.4928
2016	-11.493
93%	-11.4931
tionary	-11.4937
enb	-11.4937
▁explains	-11.4938
▁30,	-11.494
yni	-11.4951
▁55	-11.4952
millionaire	-11.4954
▁vp	-11.4959
ttk	-11.4962
ibe	-11.4966
super	-11.4969
daytraders	-11.4975
capital	-11.4978
too	-11.4978
.4%	-11.4983
monday	-11.4986
▁150	-11.4988
▁10:0	-11.4991
ugh	-11.4991
26,	-11.4992
boot	-11.4993
▁sea	-11.4998
jul	-11.4999
7,	-11.5017
targets	-11.5017
76%	-11.5017
services	-11.5023
last	-11.5023
▁viewing	-11.5025
lpi	-11.503
max	-11.503
▁slump	-11.5038
▁turns	-11.5039
erie	-11.5042
▁image	-11.5043
▁ecommerce	-11.5046
kill	-11.5051
▁ove	-11.5052
▁$1.5	-11.5055
▁housing	-11.5059
cost	-11.506
pir	-11.5065
▁1,500	-11.5069
▁cutting	-11.5072
▁toward	-11.5079
gates	-11.5082
bev	-11.5084
uda	-11.5093
vy	-11.5096
▁ass	-11.5098
71%	-11.5105
65	-11.511
ف	-11.5111
bmo	-11.5118
▁basic	-11.5126
1,	-11.5135
zo	-11.5136
▁medica	-11.5138
cad	-11.5141
▁releas	-11.5146
▁defend	-11.5152
going	-11.5153
-15	-11.5156
▁insiders	-11.5158
broadcast	-11.5162
▁german	-11.517
▁787	-11.5174
cox	-11.5174
▁cr	-11.5176
lay	-11.5178
▁knock	-11.518
↘	-11.5181
─♬─♬	-11.5181
▁clients	-11.5181
▁relevant	-11.5181
💌	-11.5181
▁bunch	-11.5181
▁wrote	-11.5181
🅰	-11.5181
ū	-11.5181
▁$92.70	-11.5181
▁exploration	-11.5181
été	-11.5181
▁secrets	-11.5182
▁tiger	-11.5182
▁stick	-11.5182
▁termino	-11.5182
▁swiss	-11.5182
▁speculation	-11.5182
▁continu	-11.5183
▁whet	-11.5183
▁reply	-11.5184
yin	-11.5186
alibabaipo	-11.5186
ndaq	-11.5188
aiz	-11.5189
▁micro	-11.519
▁ihoo	-11.5194
▁2011	-11.5197
~~	-11.5201
▁disappointing	-11.5202
▁choose	-11.5207
▁$2.6	-11.5208
▁soci	-11.521
▁tgt	-11.5211
gpn	-11.5213
▁jour	-11.5214
peix	-11.5219
▁crushed	-11.522
▁bankers	-11.5222
adtn	-11.5224
info	-11.5224
swir	-11.5225
▁hackers	-11.5228
▁till	-11.5234
▁fib	-11.5235
▁etfs	-11.5236
feat	-11.524
gbx	-11.5243
ldn	-11.5245
uz	-11.5248
mfa	-11.5249
avm	-11.5249
that	-11.5254
cd	-11.5256
▁+3	-11.5261
▁nahi	-11.5264
wi	-11.5264
ran	-11.5266
nym	-11.5266
rdc	-11.5268
▁todo	-11.5272
▁sto	-11.5277
▁lawsuits	-11.5279
ryn	-11.5279
▁juic	-11.5281
▁wire	-11.5284
▁pops	-11.529
▁coffee	-11.529
▁effective	-11.5291
orex	-11.5301
▁😁	-11.5302
▁régimen	-11.5302
▁dramatically	-11.5302
lets	-11.5302
▁peak	-11.531
▁foot	-11.5314
celebr	-11.5315
ily	-11.532
2015.	-11.5323
▁projects	-11.5328
spn	-11.5332
▁fy	-11.5333
syna	-11.5334
▁straddles	-11.5338
fxa	-11.5342
▁dominates	-11.5344
▁bitcoin	-11.5345
date	-11.5349
wlt	-11.5355
▁tools	-11.5356
▁fears	-11.5357
aron	-11.5361
▁appeal	-11.5379
▁chips	-11.5382
▁pos	-11.5388
▁brokers	-11.5389
qtm	-11.539
tory	-11.5391
usch	-11.5391
hero	-11.5392
vic	-11.5394
chl	-11.5394
▁2014.	-11.5397
▁shack	-11.54
bai	-11.5403
-2	-11.5408
▁ukraine	-11.5409
ä	-11.5431
▁127	-11.5432
€$	-11.5436
mwc	-11.5437
tt	-11.544
paa	-11.5451
▁lte	-11.5461
▁sink	-11.5462
hat	-11.5464
osl	-11.5473
900	-11.5473
▁paul	-11.548
▁bol	-11.5489
4.50	-11.5489
▁$92	-11.5497
▁grows	-11.5497
▁bob	-11.5504
▁📱	-11.5504
anth	-11.5511
twc	-11.5514
▁fitbit	-11.5515
▁benefits	-11.5521
▁students	-11.5522
mz	-11.5524
▁connected	-11.5525
tf	-11.5531
▁scheduled	-11.5539
▁$85	-11.5551
nest	-11.5556
set	-11.5558
apr	-11.5559
▁pmi	-11.556
gol	-11.556
tsx	-11.5567
▁til	-11.5567
🙏	-11.557
▁bla	-11.5572
ohr	-11.5575
▁haha	-11.5577
▁introduc	-11.5586
igx	-11.5587
3.50	-11.5587
nl	-11.5595
32%	-11.5596
aj	-11.5603
▁ches	-11.5608
directv	-11.5609
▁presentation	-11.5613
.57%	-11.5614
▁knows	-11.5615
▁villa	-11.5629
position	-11.5632
jamie	-11.5633
800%	-11.5633
gasoline	-11.5635
competitive	-11.5635
distribution	-11.5635
ö	-11.5635
▁actavis	-11.5635
▁detroit	-11.5635
▁territory	-11.5635
▁themselves	-11.5635
diagrams	-11.5635
٣	-11.5635
▁bristol	-11.5635
▁sheryl	-11.5635
▁skyworks	-11.5635
stresstest	-11.5635
▁dispute	-11.5635
▁worries	-11.5635
▁unlimited	-11.5635
chaikin	-11.5635
に	-11.5635
▁transition	-11.5636
▁standard	-11.5636
▁ruling	-11.5636
▁witching	-11.5636
▁royal	-11.5636
▁restructuring	-11.5636
كم	-11.5636
trump	-11.5637
▁chatter	-11.5638
▁crack	-11.5638
mdbx	-11.5639
▁trailer	-11.5639
ocls	-11.564
▁100.000	-11.564
▁prospects	-11.5641
▁stepping	-11.5642
miami	-11.5645
general	-11.5645
johnson	-11.5646
▁cold	-11.5646
▁harv	-11.5646
aveo	-11.5647
▁button	-11.5647
▁scoop	-11.5648
idra	-11.565
▁finished	-11.5651
▁plunged	-11.5651
▁crest	-11.5653
split	-11.5653
aryc	-11.566
▁chino	-11.566
arcp	-11.5662
syf	-11.5662
adro	-11.5666
▁filled	-11.5666
care	-11.5673
nkd	-11.5674
▁developing	-11.5675
ypf	-11.5676
avxl	-11.568
▁valeur	-11.5681
kbr	-11.5681
trp	-11.5682
▁chill	-11.5685
▁roman	-11.5687
amex	-11.5692
sfun	-11.5693
bone	-11.5694
wing	-11.5694
ki	-11.5694
mnk	-11.5697
wdr	-11.5699
▁hub	-11.5699
chi	-11.5709
3.2%	-11.571
▁rec	-11.5714
pasa	-11.5717
kmt	-11.572
bin	-11.5722
trip	-11.5728
▁debe	-11.5729
▁queda	-11.5729
mil	-11.5729
▁technically	-11.573
▁mess	-11.5731
▁♥	-11.5734
▁sues	-11.574
owns	-11.5741
▁lie	-11.5741
▁secure	-11.5744
▁wtf	-11.5747
grade	-11.5748
come	-11.5749
/2014	-11.5754
▁performers	-11.5757
zoo	-11.5758
▁module	-11.5762
ride	-11.5764
->	-11.5767
rgbp	-11.5776
▁suggestion	-11.5781
▁ticket	-11.5785
sni	-11.5794
.2%	-11.5803
▁players	-11.5804
zi	-11.5806
▁regulators	-11.5807
▁tutorial	-11.5808
▁ran	-11.5815
bell	-11.5817
6-	-11.5822
wood	-11.5823
egn	-11.5825
nfc	-11.583
м	-11.5831
plan	-11.5832
▁abb	-11.5844
ren	-11.5845
▁transactions	-11.5859
▁sep	-11.586
dk	-11.5865
fall	-11.5867
rought	-11.5871
▁119	-11.5874
uth	-11.5876
cra	-11.5899
ntv	-11.59
anac	-11.59
feb	-11.5904
amag	-11.5921
black	-11.5922
▁justin	-11.5924
▁bang	-11.5924
ofc	-11.5925
▁tiene	-11.593
pher	-11.5931
▁holidays	-11.5931
▁helping	-11.5937
▁bowl	-11.594
▁correct	-11.5947
▁train	-11.5953
rol	-11.5959
gue	-11.5961
▁delay	-11.5964
ification	-11.5965
mtl	-11.5972
ugge	-11.5972
▁rolls	-11.5975
▁tu	-11.5975
▁burger	-11.599
mdv	-11.5992
▁boston	-11.5993
▁uranium	-11.5993
▁washington	-11.5993
coming	-11.5994
rated	-11.5995
nfl	-11.5996
▁whoa	-11.5997
▁achieve	-11.6002
+:	-11.6004
117	-11.6007
▁picked	-11.6008
say	-11.6011
▁ditch	-11.6012
fri	-11.6022
▁salud	-11.6028
▁wfc	-11.6034
roku	-11.6037
wn	-11.6037
ional	-11.604
▁east	-11.6042
usm	-11.6048
▁semi	-11.6054
mal	-11.6065
urg	-11.6066
mail	-11.607
▁lleg	-11.6074
▁exits	-11.6075
mill	-11.6086
btya	-11.6089
.66	-11.609
ai	-11.6093
ark	-11.6103
▁merge	-11.6103
▁runner	-11.6103
mcsa	-11.6106
▁investigation	-11.6108
🔊	-11.6111
©	-11.6111
🎵	-11.6112
thecoachsr	-11.6112
▁11:59:2	-11.6112
▁efectivo	-11.6112
▁hewlett	-11.6112
▁improving	-11.6112
▁insurance	-11.6112
▁pharmacyclics	-11.6112
▁professional	-11.6112
▁succeed	-11.6112
▁zynga	-11.6112
▁الامريكي	-11.6112
▁وس	-11.6112
♕	-11.6112
👀	-11.6112
📧	-11.6112
▁example	-11.6112
▁regimen	-11.6112
▁lumia	-11.6112
▁compensat	-11.6112
▁population	-11.6112
▁(02:3	-11.6112
▁2/10	-11.6112
▁especially	-11.6112
▁davis	-11.6112
▁ellison	-11.6112
ção	-11.6112
▁crossover	-11.6112
ス	-11.6112
payroll	-11.6112
▁preferred	-11.6113
▁educational	-11.6114
▁revamp	-11.6114
▁commodity	-11.6115
▁~~~	-11.6115
fcau	-11.6116
▁overnight	-11.6116
▁comeback	-11.6117
sftby	-11.6118
▁river	-11.6118
▁freestyle	-11.6118
▁brian	-11.6119
plk	-11.6119
▁significantly	-11.6121
550	-11.6122
▁--->	-11.6122
▁login	-11.6124
ky	-11.6124
cade	-11.6128
acrx	-11.6129
▁wayne	-11.613
drink	-11.6131
▁powered	-11.6132
▁pound	-11.6135
beatz	-11.6136
▁cities	-11.6138
ere	-11.6142
▁09:5	-11.6144
maker	-11.6146
hor	-11.6147
dic	-11.6149
▁predicting	-11.6149
nfg	-11.6149
fone	-11.615
social	-11.615
▁iger	-11.6151
▁85%	-11.6152
▁$68	-11.6153
psid	-11.6153
▁compa	-11.6159
yama	-11.616
dí	-11.6161
hunt	-11.6171
▁pour	-11.6173
lsi	-11.6179
fu	-11.6181
$5	-11.6185
▁$21	-11.6188
slg	-11.619
ewt	-11.619
!$	-11.6192
rapping	-11.6192
empra	-11.6193
avt	-11.6194
▁tem	-11.62
412	-11.6203
cmg	-11.6203
band	-11.6208
tense	-11.621
▁wind	-11.621
3.00	-11.6216
▁expanding	-11.6218
д	-11.6223
ao	-11.6224
nbc	-11.6227
dna	-11.6231
▁keynote	-11.6234
▁rolling	-11.6236
▁smaller	-11.6237
fult	-11.6239
▁germany	-11.6242
▁hepatitis	-11.6245
must	-11.6248
vre	-11.6251
▁slash	-11.6253
▁ali	-11.6261
show	-11.6267
ار	-11.6267
▁92	-11.6269
▁predictions	-11.6271
awi	-11.6274
clean	-11.6276
experience	-11.628
att	-11.6282
▁17%	-11.6288
crm	-11.63
▁sweet	-11.6302
▁machines	-11.6305
obama	-11.6306
▁علي	-11.6317
privacy	-11.6317
▁looked	-11.6323
▁trae	-11.6326
driving	-11.6334
org	-11.6336
12%	-11.6339
▁petrole	-11.6339
jr	-11.6343
oco	-11.6345
lockheed	-11.6346
▁$95	-11.6347
▁men	-11.6351
little	-11.6355
members	-11.6355
righ	-11.6359
growth	-11.6361
hmy	-11.6365
▁denie	-11.6367
suppo	-11.6368
▁wearables	-11.6368
lex	-11.6374
▁organi	-11.6377
seeking	-11.6378
▁emails	-11.6382
pxl	-11.6385
▁pip	-11.6387
coca	-11.6392
nite	-11.6393
-0	-11.6408
axas	-11.6417
46%	-11.642
700,	-11.6433
much	-11.6435
chip	-11.6441
▁runs	-11.6448
▁64	-11.6449
▁grab	-11.6452
rom	-11.6455
upl	-11.6455
。	-11.6456
wpo	-11.6458
▁concern	-11.6458
wit	-11.6461
401	-11.6476
▁titan	-11.6479
▁sponsor	-11.6481
jking	-11.6482
opx	-11.6484
▁😉	-11.6487
▁equipment	-11.6487
endo	-11.6488
▁invested	-11.649
▁صل	-11.6491
ı	-11.6491
yields	-11.6492
▁indicat	-11.6507
▁climb	-11.6509
▁abr	-11.651
rng	-11.6511
miss	-11.6515
rush	-11.6525
acas	-11.6526
▁pur	-11.6529
hain	-11.6529
▁holds	-11.6536
▁swap	-11.654
der	-11.6546
▁resist	-11.6547
▁mountain	-11.6559
bwc	-11.6562
▁winter	-11.6567
▁scalp	-11.6568
rate	-11.6569
stoc	-11.6569
placements	-11.658
▁bump	-11.6583
sey	-11.6585
▁supplier	-11.6597
prices	-11.6599
▁bea	-11.6601
);	-11.6604
ante	-11.6607
▁explosi	-11.6608
iphi	-11.6608
▁calend	-11.6611
▁gadg	-11.6611
เ	-11.6611
・	-11.6611
π	-11.6612
σ	-11.6612
diabetes	-11.6612
marijuana	-11.6612
patience	-11.6612
▁immelt	-11.6612
▁zephyr	-11.6612
😩	-11.6612
▁resultados	-11.6612
§	-11.6612
▁francisco	-11.6612
▁indices	-11.6612
elliott	-11.6612
▁weeklies	-11.6612
packard	-11.6612
▁transfer	-11.6612
な	-11.6612
▁glance	-11.6612
hysr	-11.6612
يوم	-11.6612
axi	-11.6613
▁easier	-11.6613
inc	-11.6613
تص	-11.6613
▁arrest	-11.6613
▁wife	-11.6613
ية	-11.6614
random	-11.6614
▁topics	-11.6614
▁downtrend	-11.6615
▁careful	-11.6616
brainer	-11.6618
wntr	-11.6618
▁rocket	-11.6618
additional	-11.6619
storm	-11.662
▁plent	-11.6624
wlk	-11.6624
▁casa	-11.6627
▁clearly	-11.6627
▁115	-11.6628
▁yell	-11.6628
excel	-11.6629
jc	-11.6631
ador	-11.6633
▁2009	-11.6633
▁remove	-11.6633
elections	-11.6637
▁spur	-11.6637
awh	-11.6638
▁13%	-11.6639
▁aristocrats	-11.6644
visa	-11.6648
▁pile	-11.6649
▁🔥🔥🔥	-11.6677
2008.	-11.6678
▁slowing	-11.6681
▁listing	-11.6682
abmd	-11.6682
ntries	-11.6682
iciero	-11.6684
▁engineer	-11.6692
adpt	-11.6694
▁ru	-11.6695
extr	-11.6696
24:	-11.6698
▁explore	-11.6702
.60	-11.6702
▁palo	-11.6707
acco	-11.6719
.69	-11.6726
danger	-11.6727
iro	-11.6733
▁💎	-11.6737
▁dé	-11.6742
▁memo	-11.6742
▁brilliant	-11.6744
emb	-11.6754
4.00	-11.6756
bns	-11.6765
▁milestone	-11.6766
▁1.5	-11.6771
▁:))	-11.6772
1.50	-11.6776
90.00	-11.6784
tasr	-11.6794
nxt	-11.6801
enr	-11.6802
▁scale	-11.6823
ava	-11.6826
hin	-11.6845
aep	-11.6846
▁ship	-11.6846
▁asks	-11.6847
pping	-11.6853
▁indian	-11.6856
▁server	-11.6861
341	-11.6862
ppin	-11.6862
▁field	-11.6865
▁band	-11.6867
,700	-11.6877
20.00	-11.6884
▁incl	-11.6887
byd	-11.6894
rich	-11.6895
▁discounts	-11.6895
amos	-11.6899
rish	-11.6901
▁+5	-11.6901
1.35	-11.6903
▁10/	-11.691
▁displays	-11.6917
▁86	-11.6918
23%	-11.6925
antm	-11.6929
atw	-11.6934
warm	-11.6937
▁rated	-11.694
nnn	-11.6944
▁symbol	-11.6945
frida	-11.6948
42	-11.6948
nce	-11.6954
▁disappoint	-11.6954
seller	-11.6957
▁stars	-11.6959
rlg	-11.6977
▁fee	-11.6981
▁43	-11.6988
▁flight	-11.699
▁lights	-11.6991
:38	-11.6996
▁default	-11.7
▁conocophillips	-11.7
reward	-11.7001
▁competitor	-11.7001
9.5	-11.7003
tally	-11.7005
▁volatile	-11.7008
▁petrochina	-11.7008
▁mat	-11.701
sna	-11.7024
▁!!!!!!	-11.7025
▁sand	-11.7028
▁direction	-11.7028
▁mass	-11.703
▁"10	-11.703
н	-11.7038
sized	-11.7039
▁lock	-11.7045
▁values	-11.7049
▁crossed	-11.705
▁jai	-11.7053
mmc	-11.7054
▁hmm	-11.7062
▁immuno	-11.7063
❤	-11.7064
innovation	-11.7068
snapchat	-11.707
sight	-11.7077
reuters	-11.708
uble	-11.7085
bitc	-11.7086
greece	-11.7087
charge	-11.7089
biosimilar	-11.7095
▁dips	-11.7097
▁deck	-11.71
cor	-11.7102
wars	-11.7108
wearables	-11.7111
▁sleep	-11.7112
payments	-11.7114
mastercard	-11.7116
state	-11.7117
yahoo	-11.7121
front	-11.7124
oracle	-11.7124
bye	-11.7125
▁restaurant	-11.7127
citigroup	-11.7128
cable	-11.7128
first	-11.7131
strong	-11.7132
merck	-11.7132
▁flip	-11.7133
commodit	-11.7133
▁08:00:04:	-11.7135
ette	-11.7136
only	-11.7137
😂	-11.7138
ี่	-11.7138
💸	-11.7138
у	-11.7138
señal	-11.7138
⃣	-11.7138
▁acuerdo	-11.7138
▁engagement	-11.7138
▁mannkind	-11.7138
▁michael	-11.7138
▁petition	-11.7138
▁relevancy	-11.7138
▁steady	-11.7138
▁streak	-11.7138
▁اعلان	-11.7138
🔺	-11.7138
▁mexican	-11.7138
▁motley	-11.7138
▁utility	-11.7138
▁🔊🔊	-11.7138
nheim	-11.7138
stellar	-11.7138
▁dangerous	-11.7138
▁ohyeah	-11.7138
▁false	-11.7138
chosen	-11.7138
scandal	-11.7138
▁roger	-11.7138
bolsa	-11.7138
congress	-11.7139
▁talent	-11.7139
い	-11.7139
▁collection	-11.7139
▁flood	-11.7139
gbpusd	-11.7139
▁everybody	-11.714
▁scanner	-11.714
▁jury	-11.7142
peace	-11.7143
▁capacit	-11.7143
▁overpriced	-11.7144
july	-11.7144
▁finish	-11.7145
7.75	-11.7145
biopharma	-11.7146
▁supreme	-11.7147
▁outstanding	-11.7147
sri	-11.7148
juke	-11.7148
▁undis	-11.7151
ica	-11.7152
adjusted	-11.7153
▁texas	-11.7154
▁historical	-11.7154
▁riding	-11.7157
▁brit	-11.7158
500%	-11.7158
cio	-11.7159
▁lately	-11.7162
▁puh	-11.7164
▁fyi	-11.7165
gar	-11.7167
quot	-11.7167
▁clip	-11.717
▁narrow	-11.717
globe	-11.7177
.06%	-11.7177
▁rough	-11.7182
▁takeaways	-11.7187
epic	-11.7187
▁laser	-11.7187
▁nation	-11.7188
è	-11.7197
▁$1.00	-11.7201
▁rare	-11.7206
▁30-	-11.7207
brd	-11.7211
mcdonalds	-11.7213
▁transp	-11.7218
order	-11.7218
rey	-11.7223
1.60	-11.7223
▁licens	-11.7226
▁repurchases	-11.7231
zz	-11.7232
roll	-11.7235
▁van	-11.7241
compan	-11.7245
▁gdx	-11.7247
nati	-11.725
1:00	-11.7251
▁argentina	-11.7252
cre	-11.7261
ross	-11.7262
known	-11.7263
▁👉	-11.7264
tsm	-11.7268
▁ftc	-11.7271
rnr	-11.7272
omen	-11.7274
▁+62	-11.7274
▁built	-11.7276
▁unique	-11.7276
peake	-11.7278
yrc	-11.7285
mediate	-11.7292
▁scott	-11.7297
▁$105	-11.73
funds	-11.7302
▁fous	-11.7303
gk	-11.7303
ped	-11.7307
yge	-11.7307
bhp	-11.7309
▁riches	-11.731
,81	-11.7312
▁-0.4	-11.7313
selling	-11.7323
9.20	-11.7332
▁7%	-11.7343
5%.	-11.7345
▁$7,	-11.7346
▁mal	-11.7352
hood	-11.7361
wages	-11.7362
▁hora	-11.7365
45,	-11.7369
▁halt	-11.7382
candlesticks	-11.7389
▁36	-11.7391
anti	-11.7398
دا	-11.7399
▁unload	-11.74
bks	-11.7405
swk	-11.7405
oon	-11.7408
▁channels	-11.7412
▁vid	-11.7413
stop	-11.7424
49%	-11.7427
ties	-11.7429
▁evening	-11.7429
erni	-11.7439
camp	-11.7441
▁-10.	-11.7441
echo	-11.7442
▁dad	-11.7444
▁surprises	-11.7458
oct	-11.7475
they	-11.7478
spec	-11.7479
most	-11.748
sph	-11.748
anr	-11.749
▁1,9	-11.7495
▁hmmm	-11.7503
ytx	-11.7508
126	-11.7518
▁flu	-11.7519
0.8	-11.7524
pff	-11.7525
▁schedule	-11.7525
▁$65	-11.7526
dear	-11.7527
hole	-11.753
zn	-11.7532
▁reit	-11.7536
▁era	-11.7539
tout	-11.7539
)’	-11.7542
jf	-11.7545
▁$99	-11.7546
1.4%	-11.7547
▁clue	-11.7549
▁70	-11.7554
▁imbalance	-11.7555
▁florida	-11.7557
360	-11.7558
▁solution	-11.7558
▁expense	-11.7559
nds	-11.756
▁protest	-11.7568
gtx	-11.7576
▁reviewing	-11.7579
ntr	-11.758
▁confirmed	-11.7581
ated	-11.7587
▁3/	-11.7588
▁vie	-11.759
job	-11.7599
16%	-11.7601
stra	-11.7602
▁teen	-11.7617
▁37	-11.7622
▁fir	-11.7626
220.00	-11.7628
pulse	-11.7628
▁performer	-11.7634
▁118	-11.7634
cars	-11.7641
icl	-11.7642
cular	-11.7643
▁announc	-11.7653
ient	-11.7656
▁ken	-11.7661
▁transform	-11.7663
sos	-11.7665
ê	-11.767
rovi	-11.7672
▁exist	-11.7677
▁gay	-11.768
cia	-11.768
mel	-11.7682
asx	-11.7692
está	-11.7692
appoints	-11.7693
▁regard	-11.7693
λ	-11.7693
تويت	-11.7693
▁although	-11.7693
▁bouncing	-11.7693
▁exploding	-11.7693
▁recession	-11.7693
▁surprising	-11.7693
▁survive	-11.7693
▁keurig	-11.7693
clippers	-11.7693
▁essential	-11.7693
▁swallow	-11.7693
▁integration	-11.7694
▁ronald	-11.7694
▁triangle	-11.7694
▁iovine	-11.7694
▁sterling	-11.7694
▁lunch	-11.7694
buybuybuy	-11.7694
▁coupon	-11.7694
▁location	-11.7694
grocer	-11.7694
▁begging	-11.7694
acciones	-11.7694
▁madness	-11.7694
cannabis	-11.7694
loyalty	-11.7694
▁humira	-11.7694
cybersecurity	-11.7694
ocean	-11.7694
verified	-11.7694
▁broadcom	-11.7694
financ	-11.7694
▁caja	-11.7695
3,000	-11.7695
▁primar	-11.7695
▁biogen	-11.7695
▁capture	-11.7695
▁detected	-11.7695
mutual	-11.7696
▁modern	-11.7696
▁grid	-11.7696
▁workshop	-11.7697
kyth	-11.7698
▁reform	-11.7699
hottest	-11.77
hville	-11.7702
cher	-11.7702
▁collaborate	-11.7703
▁debit	-11.7704
athon	-11.7704
▁4/28/	-11.7705
idix	-11.7707
115.00	-11.7707
▁$1.3	-11.7707
chromebook	-11.7708
ium	-11.7709
▁branch	-11.7709
pinto	-11.771
=2	-11.7711
lockup	-11.7713
▁wake	-11.7713
▁joke	-11.7714
▁halted	-11.7714
▁racks	-11.7717
▁uber	-11.7718
azfl	-11.7718
rite	-11.7719
▁everyday	-11.772
.17	-11.7722
inversion	-11.7722
▁preorders	-11.7724
alny	-11.7724
gul	-11.7726
▁grabb	-11.7729
/2015	-11.7736
▁100+	-11.7737
▁cdn	-11.7737
infa	-11.7738
▁unveiling	-11.7741
▁nico	-11.7742
4,000	-11.7742
▁38%	-11.7743
ik	-11.7747
cscoq	-11.7747
▁delta	-11.7748
▁delivered	-11.775
aya	-11.7753
chu	-11.7754
▁hills	-11.7757
orph	-11.776
ggal	-11.7766
skyf	-11.7772
يا	-11.7778
asps	-11.7781
cramer	-11.7782
▁bash	-11.7783
▁joints	-11.7785
▁pct	-11.779
person	-11.7797
▁readers	-11.78
132	-11.78
💰💰	-11.7801
▁baja	-11.7802
putin	-11.7802
cu	-11.7802
ually	-11.7804
▁blood	-11.7808
online	-11.7808
tweet	-11.781
▁acquired	-11.7811
▁dumping	-11.7814
▁upwards	-11.7817
immun	-11.7822
idor	-11.7822
▁swat	-11.7825
.05	-11.7825
▁closely	-11.7826
vip	-11.7829
sustainable	-11.7829
29%	-11.7831
▁normal	-11.7834
pass	-11.7837
onci	-11.7838
▁pansin	-11.7841
737	-11.7844
▁copa	-11.7844
▁liquidmetal	-11.7851
imax	-11.7852
▁pages	-11.7856
▁crap	-11.7857
▁$22	-11.786
cv	-11.7861
rj	-11.7873
ij	-11.7883
wkly	-11.7884
▁climbs	-11.7889
▁spacex	-11.7893
protect	-11.7895
symbol	-11.7901
2.4%	-11.7904
mixtape	-11.7908
kan	-11.7911
track	-11.7912
bowl	-11.7918
greatest	-11.7919
analytics	-11.7923
ì	-11.7923
rrx	-11.7924
ker	-11.7924
sanofi	-11.7925
ril	-11.7933
etr	-11.7934
▁feat	-11.7935
number	-11.7939
digital	-11.7943
security	-11.795
solar	-11.7952
netflix	-11.7956
aska	-11.7959
which	-11.7959
jpmorgan	-11.7962
▁1472	-11.7963
cot	-11.7967
taking	-11.7968
▁slides	-11.7971
▁numer	-11.7972
company	-11.7974
wsj	-11.7977
9.00	-11.7981
studios	-11.7987
▁bug	-11.7989
june	-11.7993
bkd	-11.7994
▁mistake	-11.7995
raid	-11.8002
▁wester	-11.8003
rading	-11.8006
▁1999	-11.8007
navi	-11.8008
streaming	-11.8008
alan	-11.8009
marketwatch	-11.8014
turn	-11.8017
nca	-11.8018
food	-11.8022
daytrade	-11.8022
ware	-11.8032
auto	-11.8033
▁wh	-11.8034
▁adv	-11.8038
five	-11.8039
ele	-11.8043
pix	-11.8046
eled	-11.8048
▁gaps	-11.805
lam	-11.8051
▁barrons	-11.8054
▁edges	-11.8073
▁11:11:1	-11.8079
field	-11.8083
▁$52	-11.8084
roche	-11.8085
اد	-11.8087
ainly	-11.8088
▁libe	-11.8089
▁surpass	-11.8091
ayoff	-11.8097
▁successful	-11.8114
aws	-11.8115
▁criminal	-11.8116
sam	-11.8117
▁16%	-11.8123
td	-11.8124
▁reasonabl	-11.8124
▁items	-11.8127
▁2020	-11.813
.42	-11.813
▁-2.	-11.8131
acor	-11.8132
▁correlation	-11.8135
▁obamacare	-11.8136
▁yest	-11.8136
▁proposal	-11.8137
▁connect	-11.8137
▁buck	-11.8138
▁college	-11.8138
▁female	-11.8138
▁aereo	-11.8138
▁attempt	-11.8141
▁figure	-11.8142
▁excuse	-11.8142
▁brother	-11.8143
▁~$3	-11.8154
▁delayed	-11.8158
iex	-11.816
kay	-11.8162
fcc	-11.8167
economics	-11.8175
rh	-11.8177
swingtrade	-11.8177
drones	-11.8182
ند	-11.8186
code	-11.8191
apo	-11.8199
nsa	-11.8212
tg	-11.8215
▁alot	-11.8217
▁researcher	-11.8219
fix	-11.8219
final	-11.8221
ico	-11.8223
▁rep	-11.8223
catch	-11.8226
▁region	-11.8228
▁repeat	-11.8237
wz	-11.8238
icon	-11.8242
gram	-11.8246
edc	-11.825
ating	-11.825
/14	-11.8254
▁edition	-11.8254
▁crowd	-11.826
pv	-11.826
▁rappin	-11.8263
ology	-11.8266
united	-11.8268
▁magic	-11.827
▁mother	-11.828
ก	-11.8282
が	-11.8282
▁describe	-11.8282
▁implications	-11.8282
▁merchant	-11.8282
▁myecheck	-11.8282
▁universal	-11.8282
▁stuck	-11.8282
▁cumple	-11.8282
▁tiempo	-11.8282
▁verdad	-11.8282
ƒ	-11.8282
▁falter	-11.8282
alexandria	-11.8282
barnes	-11.8282
▁burst	-11.8282
▁dutch	-11.8282
▁valor	-11.8282
nexus	-11.8282
▁consolidation	-11.8282
▁crohn	-11.8282
▁reflect	-11.8282
xoom	-11.8282
driverless	-11.8282
▁division	-11.8282
▁goose	-11.8283
▁install	-11.8283
exciting	-11.8283
▁priority	-11.8283
lessons	-11.8283
▁choppy	-11.8283
▁insane	-11.8283
tgif	-11.8283
buff	-11.8283
disruptive	-11.8283
▁campus	-11.8283
latf	-11.8284
$1,245	-11.8285
▁pending	-11.8287
▁valeant	-11.8287
invent	-11.8287
▁weird	-11.8288
▁concept	-11.829
▁anyway	-11.829
▁gapped	-11.8291
▁lilly	-11.8293
▁refund	-11.8294
▁uptrend	-11.8297
▁98%	-11.83
▁7-25	-11.83
▁shrinking	-11.8301
raction	-11.8302
spwr	-11.8304
▁handset	-11.8304
mundo	-11.8304
▁pierde	-11.8305
▁however	-11.8305
▁polym	-11.8308
ory	-11.831
factory	-11.831
▁pocos	-11.8311
▁santo	-11.8313
▁seven	-11.8313
afterhours	-11.8315
▁handle	-11.8315
▁sî	-11.8316
▁define	-11.8317
colde	-11.8317
gaap	-11.8317
▁kid	-11.8321
▁hacked	-11.8322
▁facilit	-11.8322
anoma	-11.8322
▁monitoring	-11.8327
▁nxp	-11.8329
▁:-)	-11.833
▁$2.9	-11.8334
▁sum	-11.8336
▁cloth	-11.8337
bmr	-11.8342
amcf	-11.8342
▁bold	-11.8342
▁113	-11.8345
classic	-11.8353
tower	-11.8355
▁$3.5	-11.8361
wont	-11.8365
oii	-11.8368
▁asking	-11.837
fang	-11.8375
▁requests	-11.8379
▁seat	-11.8379
▁expanded	-11.8379
▁640	-11.8383
▁bmw	-11.8384
forced	-11.8386
pnr	-11.839
▁fbr	-11.8403
!!!!!!!!!!	-11.841
7.35	-11.8411
▁cerrad	-11.8424
▁uni	-11.8425
did	-11.8428
cum	-11.8429
▁129	-11.8433
hand	-11.8436
▁stupid	-11.8438
ftk	-11.8439
▁diversified	-11.844
▁senate	-11.844
▁charging	-11.844
▁-1.1	-11.8441
trie	-11.8442
vnq	-11.8443
▁broker	-11.8443
▁meat	-11.8447
▁conversation	-11.8449
▁float	-11.845
omed	-11.8452
▁wasn	-11.8454
▁lod	-11.8454
myers	-11.8461
jw	-11.8462
mely	-11.8463
▁declines	-11.8465
▁acting	-11.847
▁$33	-11.8478
hta	-11.8479
billionaires	-11.848
audi	-11.8482
mpr	-11.8482
.83	-11.8487
squad	-11.8493
smash	-11.8495
▁words	-11.8495
▁este	-11.8498
▁3,500	-11.85
▁conve	-11.8503
lts	-11.8508
▁woes	-11.8511
▁theme	-11.8512
▁celebrate	-11.8513
ufs	-11.8517
-35	-11.8522
dti	-11.8543
tz	-11.8546
▁planes	-11.8549
gh	-11.8557
▁cur	-11.856
als	-11.8563
▁cons	-11.8564
▁flame	-11.8564
▁csi	-11.8573
cho	-11.8575
▁esp	-11.8575
▁nsa	-11.8583
gie	-11.8584
ire	-11.86
▁16.	-11.8602
▁disease	-11.8604
rá	-11.8606
exc	-11.8612
▁continua	-11.8614
ripping	-11.8615
.89	-11.8622
.88	-11.8626
▁fat	-11.8628
375	-11.8629
ept	-11.8632
sun	-11.8639
▁pen	-11.8643
-8	-11.8648
▁wouldn	-11.8649
ear	-11.866
:35	-11.8669
xin	-11.8673
layoffs	-11.8678
kc	-11.8686
▁regala	-11.8691
109	-11.8692
▁$194	-11.8692
ski	-11.8706
sued	-11.8708
hotte	-11.8714
pw	-11.8715
▁path	-11.8715
▁<---	-11.872
▁logic	-11.8728
amig	-11.8736
а	-11.874
▁plunge	-11.8747
speed	-11.8747
▁mano	-11.8747
▁publica	-11.8748
▁frank	-11.8749
▁terrible	-11.875
▁lik	-11.8752
▁98	-11.8753
▁israel	-11.8754
▁breakthrough	-11.8755
▁victim	-11.8755
▁cigarette	-11.8755
▁fantastic	-11.8755
▁brasil	-11.8758
rim	-11.8763
blood	-11.8765
ldr	-11.8767
▁component	-11.8768
▁couldn	-11.8771
▁communication	-11.8773
gap	-11.8777
elling	-11.8778
climb	-11.8778
:11	-11.8783
▁woman	-11.8784
▁$35	-11.8794
▁prediction	-11.8803
▁impress	-11.8806
vaccine	-11.8808
ní	-11.881
▁compet	-11.8814
doc	-11.8815
▁extra	-11.882
0.00	-11.882
gaming	-11.8822
rine	-11.8823
▁payout	-11.8824
▁premier	-11.8829
depend	-11.8847
hawk	-11.8856
▁retailer	-11.8861
aña	-11.8861
6/	-11.8861
algorithm	-11.8863
col	-11.8865
ftse	-11.8868
patent	-11.8871
▁das	-11.8875
daily	-11.8875
legal	-11.8877
merc	-11.8878
friend	-11.888
view	-11.888
▁día	-11.8885
▁smoke	-11.8888
hurc	-11.8895
great	-11.8896
▁neuro	-11.8898
hof	-11.89
analyst	-11.89
have	-11.8901
▁72	-11.8906
consolidat	-11.8906
♪	-11.8906
в	-11.8906
👌	-11.8906
🎥	-11.8907
benzinga	-11.8907
luxury	-11.8907
oligarca	-11.8907
▁ambarella	-11.8907
▁cautious	-11.8907
▁derivative	-11.8907
▁dupont	-11.8907
▁george	-11.8907
▁regulation	-11.8907
💨	-11.8907
🕘	-11.8907
dolphin	-11.8907
⬇	-11.8907
▁dreamliner	-11.8907
▁explode	-11.8907
▁sensor	-11.8907
genius	-11.8907
ultron	-11.8907
▁prefer	-11.8907
▁tmrw	-11.8907
▁rotation	-11.8907
▁mejor	-11.8907
▁collapse	-11.8907
▁corner	-11.8907
▁witness	-11.8907
6,60	-11.8907
▁eventually	-11.8907
▁scary	-11.8908
................	-11.8908
▁ciadi	-11.8908
▁labor	-11.8908
▁clair	-11.8908
▁submit	-11.8908
▁minister	-11.8908
▁desktop	-11.8908
▁dozen	-11.8909
▁acess	-11.891
▁proud	-11.8911
▁diary	-11.8911
▁musk	-11.8912
copa	-11.8912
hammer	-11.8913
transparen	-11.8914
steel	-11.8914
child	-11.8915
▁nug	-11.8915
▁scripts	-11.892
libu	-11.892
▁fuckin	-11.8921
allday	-11.8922
lia	-11.8922
nspr	-11.8923
trend	-11.8923
tvx	-11.8925
daytrader	-11.8925
▁nobody	-11.8926
independence	-11.8927
▁operators	-11.8929
ilh	-11.8933
▁cuer	-11.8935
“	-11.8936
▁116	-11.8939
cure	-11.8944
etrm	-11.8944
dien	-11.8947
▁rejected	-11.8948
dana	-11.8948
▁menu	-11.8949
▁opko	-11.8949
pool	-11.8953
▁retest	-11.8954
▁107	-11.8955
▁recommended	-11.8956
▁trendline	-11.8957
▁table	-11.8959
▁reti	-11.896
whatever	-11.8963
▁1/	-11.8968
lei	-11.8969
▁icloud	-11.897
54%	-11.8971
isca	-11.8972
ene	-11.8973
▁$55	-11.8975
▁chrome	-11.8977
▁govt	-11.8977
yle	-11.8978
▁produced	-11.8979
▁websites	-11.8983
▁subsidiz	-11.8985
.35	-11.8989
▁fashion	-11.8989
▁sik	-11.8989
▁aid	-11.899
▁covi	-11.8991
▁stakes	-11.8992
▁stunn	-11.8993
ocat	-11.8995
▁included	-11.8995
▁capex	-11.9001
rvb	-11.9001
▁expose	-11.9002
eth	-11.9004
▁$45	-11.9007
▁fue	-11.9008
mlp	-11.9016
▁201	-11.9023
fleet	-11.9026
jobs	-11.903
▁commodities	-11.903
3%)	-11.9031
fmd	-11.9036
▁prove	-11.9041
1.5%	-11.9062
gotrade	-11.9063
▁teens	-11.9064
▁imbalances	-11.9065
▁expenses	-11.9065
5,000	-11.9071
abb	-11.9071
▁disappoints	-11.9076
esi	-11.9077
scale	-11.908
orn	-11.9081
▁restaurants	-11.9083
▁rewards	-11.9083
eco	-11.9083
▁creep	-11.9083
▁truth	-11.9085
▁beast	-11.9087
▁often	-11.9089
▁80%	-11.9089
▁yup	-11.9091
▁worked	-11.9111
21%	-11.9117
▁$2.3	-11.9127
inta	-11.9127
call	-11.9132
▁btw	-11.9141
▁2.5%	-11.9148
69%	-11.9148
rit	-11.9149
▁recalls	-11.9151
denbur	-11.9181
▁42	-11.9184
▁pres	-11.9192
lps	-11.92
jm	-11.9202
rco	-11.9202
▁decades	-11.9212
▁fest	-11.9222
rgc	-11.9223
chim	-11.9223
80.00	-11.9224
:10	-11.9231
▁$10,000	-11.9232
wear	-11.9239
▁5.5	-11.9245
tle	-11.9247
aware	-11.9248
uber	-11.9254
▁candlestick	-11.9262
ooo	-11.9263
emes	-11.9265
▁girls	-11.9267
viz	-11.9268
▁alex	-11.9277
/#	-11.9282
▁prep	-11.9282
▁trim	-11.9285
lines	-11.9286
▁$1.1	-11.9288
adde	-11.9292
▁interi	-11.9296
▁bday	-11.9299
13%	-11.9302
sym	-11.9308
emme	-11.9325
55%	-11.9327
3.4	-11.9328
▁niggas	-11.9333
▁yrs	-11.9343
sche	-11.9344
▁seem	-11.9355
▁hcv	-11.9355
▁station	-11.9356
founders	-11.9358
▁aws	-11.9358
244	-11.9358
ifty	-11.936
▁male	-11.9361
▁exp	-11.9362
ido	-11.9364
planet	-11.9366
coin	-11.9366
bad	-11.9367
▁1.2	-11.9376
15%	-11.9383
▁tie	-11.9385
▁1/3	-11.9387
▁201504	-11.9387
▁burn	-11.9395
▁fli	-11.9399
ingr	-11.9399
▁$125	-11.9401
ور	-11.9402
▁4.5	-11.9412
▁equivalent	-11.9413
▁renewable	-11.9413
▁inflation	-11.9413
▁lenovo	-11.9414
▁cholesterol	-11.9414
▁memory	-11.9415
▁→	-11.9415
▁whisper	-11.9415
▁greek	-11.9415
▁empire	-11.942
retire	-11.9424
▁sharp	-11.9429
▁guarantee	-11.9429
▁dot	-11.943
▁adviser	-11.9432
ships	-11.9434
▁material	-11.9438
▁cite	-11.9441
▁proof	-11.9446
▁upward	-11.9447
hoo	-11.945
▁$68.	-11.9451
▁developer	-11.9454
350	-11.9457
▁revolution	-11.9459
tary	-11.9459
=3	-11.9475
played	-11.9476
cer	-11.9482
▁530	-11.9486
0.50	-11.9496
goo	-11.9496
ries	-11.9498
és	-11.9509
today	-11.951
▁!!!!!!!	-11.9512
▁suggests	-11.9513
creat	-11.9519
sim	-11.9521
▁kar	-11.9525
.25	-11.9539
ypl	-11.9542
carbon	-11.9543
standing	-11.9552
0.3	-11.9553
here	-11.9554
▁spectr	-11.9557
▁suck	-11.9557
▁owner	-11.9558
▁raid	-11.9564
,50	-11.9566
▁eso	-11.957
ô	-11.9572
▁definit	-11.9573
ม	-11.9573
¢	-11.9573
▁👉👉	-11.9573
☞	-11.9573
vironment	-11.9573
wedbush	-11.9573
▁canaccord	-11.9573
▁construyó	-11.9573
▁ihnewsdesk	-11.9573
▁invitation	-11.9573
▁retreat	-11.9573
▁scrutiny	-11.9573
▁stochastic	-11.9573
▁struggling	-11.9573
▁veteran	-11.9573
▁⚓🇷🇪🇹🇼🇪🇪🇹	-11.9573
innovative	-11.9573
myeloma	-11.9573
robotics	-11.9573
teamswag	-11.9573
▁evidence	-11.9573
▁hybrid	-11.9573
▁speech	-11.9573
🎧	-11.9573
▁superior	-11.9573
▁tepper	-11.9573
👌🏼	-11.9573
munster	-11.9573
immunotherapy	-11.9573
infographic	-11.9573
▁hundred	-11.9573
▁accreti	-11.9573
fifth	-11.9573
▁beauty	-11.9573
▁regeneron	-11.9573
register	-11.9574
▁ireland	-11.9574
▁adjustment	-11.9574
▁champions	-11.9574
▁precis	-11.9574
beans	-11.9574
beacon	-11.9574
▁ysty	-11.9574
marvel	-11.9574
broadband	-11.9574
▁playstation	-11.9574
▁vital	-11.9574
▁bailout	-11.9574
で	-11.9575
blcm	-11.9575
▁function	-11.9575
▁unlikely	-11.9575
▁rejection	-11.9576
▁slowdown	-11.9576
shadow	-11.9577
▁guest	-11.9577
propri	-11.9577
▁salari	-11.9577
▁2015051	-11.9578
mpel	-11.9578
cream	-11.9578
▁quiet	-11.9579
▁lookup	-11.9579
▁avago	-11.9579
▁yourself	-11.9579
▁myself	-11.9581
mobility	-11.9581
xlrn	-11.9581
▁alliance	-11.9582
equi	-11.9583
▁involved	-11.9583
▁integrated	-11.9583
gmail	-11.9583
▁-5.	-11.9585
▁outflow	-11.9585
tiny	-11.9586
carlos	-11.9587
smg	-11.9587
stolen	-11.9588
▁hace	-11.9588
▁noble	-11.9588
▁agreements	-11.9589
boca	-11.9589
▁inventor	-11.9591
▁output	-11.9591
▁guil	-11.9593
seriously	-11.9593
▁discovery	-11.9594
slca	-11.9594
ujh	-11.9596
▁retw	-11.9596
▁stable	-11.9597
pls	-11.9597
بل	-11.9597
▁urge	-11.9597
▁8.5	-11.9601
▁junk	-11.9601
▁staff	-11.9601
gro	-11.9604
vltc	-11.9605
▁fedex	-11.9606
▁engineering	-11.9607
▁viper	-11.961
▁treat	-11.961
rian	-11.9611
▁kent	-11.9612
15.000	-11.9616
▁chris	-11.9624
▁enable	-11.9627
jon	-11.9628
▁explorer	-11.9628
▁gun	-11.9631
▁usage	-11.9633
▁535	-11.9635
▁measure	-11.9637
▁soaring	-11.964
▁enters	-11.9647
hea	-11.9648
▁2,2	-11.9649
5.6	-11.9653
▁prob	-11.9655
▁09:3	-11.9656
codi	-11.9659
▁arguments	-11.9665
▁sometime	-11.9666
kinda	-11.9674
twit	-11.9676
▁stats	-11.9678
410	-11.9679
▁makers	-11.9679
60.00	-11.9681
kn	-11.9683
50.00	-11.9684
▁savings	-11.9684
elon	-11.9688
▁900	-11.9691
avl	-11.9692
34%	-11.9694
▁struggles	-11.9694
ird	-11.9694
1.25	-11.9697
jaso	-11.9702
▁indicate	-11.9707
▁bigtime	-11.9709
neo	-11.9709
▁rain	-11.971
lying	-11.9713
▁mull	-11.9713
yall	-11.9715
lic	-11.972
lope	-11.972
▁components	-11.9723
▁hasta	-11.9724
rás	-11.9725
▁island	-11.9727
▁det	-11.9729
mcdonald	-11.9731
▁diag	-11.9733
gsat	-11.9733
.09	-11.9748
yang	-11.9751
weekly	-11.9754
▁nba	-11.9754
▁pushe	-11.9758
▁swift	-11.9759
▁ultimate	-11.976
▁$75	-11.9761
afg	-11.9762
▁spotify	-11.9763
▁180	-11.9763
▁afternoon	-11.9764
▁breast	-11.9764
mfg	-11.9765
▁spinoff	-11.9765
▁optimistic	-11.9765
urre	-11.9769
▁none	-11.977
apps	-11.9771
28,	-11.9775
▁staying	-11.9777
▁360	-11.9779
anet	-11.9779
nih	-11.9779
▁calm	-11.9785
scann	-11.9786
success	-11.9791
▁cerr	-11.9793
▁leaked	-11.9794
due	-11.9797
neutrality	-11.9799
¿	-11.9799
▁puede	-11.9802
▁bore	-11.9803
flight	-11.9805
overweight	-11.9806
▁112	-11.9809
digit	-11.9811
▁shouldn	-11.982
▁sus	-11.9821
:20	-11.9825
▁bing	-11.983
reality	-11.9831
unusual	-11.9832
ecommerce	-11.9833
▁imp	-11.9835
messenger	-11.9837
▁alto	-11.9838
remix	-11.9846
▁holder	-11.9846
▁geo	-11.9846
items	-11.9849
▁tumble	-11.9849
instagram	-11.9853
2.5%	-11.9853
webcast	-11.9855
medtronic	-11.9856
▁74.5	-11.9856
outperform	-11.9857
▁vos	-11.9857
astrazeneca	-11.9857
positive	-11.9858
ui	-11.9859
α	-11.986
▁mall	-11.9861
algo	-11.9861
icahn	-11.9862
barclays	-11.9863
touch	-11.9869
before	-11.9872
goldman	-11.9874
after	-11.9877
surface	-11.9882
check	-11.9885
▁03	-11.9887
.50	-11.9888
ugged	-11.9888
▁strikes	-11.9891
prove	-11.9892
nerv	-11.9892
▁signed	-11.9894
7%)	-11.9897
opinion	-11.9901
▁mein	-11.9903
spr	-11.9904
uh	-11.9908
zf	-11.9914
▁studio	-11.9919
winners	-11.9928
seek	-11.9928
▁surg	-11.9929
▁heads	-11.9933
india	-11.994
▁stk	-11.9944
from	-11.9946
8%.	-11.9947
▁50000	-11.9951
build	-11.9953
1%.	-11.9954
330	-11.9958
esy	-11.996
aked	-11.996
gim	-11.9971
nick	-11.9977
1200	-11.9979
349	-11.9986
insider	-11.9988
▁execs	-11.9989
▁baa	-11.9992
▁central	-11.9993
pect	-11.9996
500,000	-12.0003
:28	-12.0009
icar	-12.0011
▁centers	-12.0013
labs	-12.0014
ug	-12.0028
▁freakin	-12.0037
▁tan	-12.0043
.30	-12.0046
▁ranks	-12.0054
suite	-12.0057
pran	-12.007
▁$0.50	-12.007
flow	-12.007
▁quad	-12.0071
▁114	-12.0072
hmc	-12.0083
nct	-12.0087
▁william	-12.0088
2.30	-12.0094
nya	-12.0114
nad	-12.0114
▁sustainable	-12.0114
9.99	-12.0117
▁freedom	-12.0118
▁$110	-12.0119
▁salesforce	-12.012
▁turkey	-12.0121
▁adobe	-12.0121
▁quietly	-12.0122
gga	-12.0123
ola	-12.0124
trap	-12.0125
gep	-12.013
▁reveal	-12.0133
.70	-12.0134
leco	-12.0138
▁respond	-12.0139
▁scam	-12.015
▁ganan	-12.0152
▁result	-12.0157
▁demanda	-12.0158
risk	-12.016
berg	-12.0163
cur	-12.0163
publish	-12.0168
67%	-12.017
qt	-12.0175
rov	-12.018
▁factor	-12.0184
▁casi	-12.0186
▁word	-12.0193
got	-12.0195
▁window	-12.0195
(&	-12.0198
▁bmo	-12.0201
184	-12.0205
unt	-12.0206
▁1.25	-12.0214
▁cd	-12.0215
iest	-12.0219
sid	-12.0228
operation	-12.0244
hair	-12.0248
kisi	-12.0255
57%	-12.026
▁digest	-12.0261
awal	-12.0265
heu	-12.0271
nova	-12.0272
spli	-12.028
▁reward	-12.0281
▁franchise	-12.0282
▁cases	-12.0282
▁$46	-12.0284
gettin	-12.0284
orsky	-12.0285
journal	-12.0286
lent	-12.0286
▁sweep	-12.0287
₩	-12.0287
ัน	-12.0288
avengers	-12.0288
마사지	-12.0288
æ	-12.0288
afrezza	-12.0288
benjamin	-12.0288
challenging	-12.0288
ȼ	-12.0288
▁09:25:05:	-12.0288
▁10:59:2	-12.0288
▁aggressive	-12.0288
▁anniversary	-12.0288
▁difficult	-12.0288
▁litigation	-12.0288
▁replica	-12.0288
💦	-12.0288
wimbledonfinal	-12.0288
▁promising	-12.0288
▁defensive	-12.0288
▁brasileiro	-12.0288
captain	-12.0288
▁acabo	-12.0288
▁shopify	-12.0288
▁southwest	-12.0288
▁illegal	-12.0288
▁pledge	-12.0288
▁relief	-12.0288
physic	-12.0288
▁actual	-12.0288
▁loeb	-12.0288
pyrex	-12.0288
▁grill	-12.0288
chicago	-12.0288
▁pueblo	-12.0288
イ	-12.0288
bagger	-12.0288
football	-12.0288
▁assistant	-12.0288
microcap	-12.0289
daddy	-12.0289
▁1997	-12.0289
alipay	-12.0289
rgls	-12.029
▁label	-12.029
▁blockbuster	-12.029
transformation	-12.029
nybd	-12.0291
eeeeeeeeeeeeeeee	-12.0291
bomb	-12.0291
bridge	-12.0291
▁08:00:04:8	-12.0291
▁deliveries	-12.0291
▁$135	-12.0291
▁console	-12.0292
▁falta	-12.0292
▁taste	-12.0292
jackson	-12.0292
ubqu	-12.0292
continuation	-12.0292
breakfa	-12.0292
nueva	-12.0293
byrd	-12.0293
rgmi	-12.0293
▁household	-12.0294
▁venta	-12.0294
▁police	-12.0295
esc	-12.0295
cehy	-12.0295
aegy	-12.0296
▁2,16	-12.0297
▁swings	-12.0298
▁probes	-12.0298
▁financing	-12.0298
goodbye	-12.0298
▁greatness	-12.0299
▁comps	-12.03
▁dark	-12.03
crimea	-12.0301
▁truly	-12.0301
oscar	-12.0301
▁bandw	-12.0301
medtech	-12.0301
▁nich	-12.0303
▁crushes	-12.0307
▁hourly	-12.0311
▁millennials	-12.0314
ados	-12.0314
▁bayer	-12.0316
▁brin	-12.0318
800	-12.0319
▁espn	-12.0319
nxtd	-12.032
ville	-12.032
directly	-12.0326
▁$72	-12.0326
▁kev	-12.0331
▁army	-12.0331
▁lucky	-12.0332
designer	-12.0334
600%	-12.0334
▁critics	-12.0334
▁arrives	-12.0334
sedg	-12.0335
$1	-12.0336
idth	-12.0336
:47	-12.0338
▁lech	-12.034
108.	-12.0348
▁curv	-12.0348
▁foto	-12.0348
iwo	-12.0349
▁slower	-12.0349
coach	-12.0352
▁lowest	-12.0355
▁hacking	-12.0355
▁$108	-12.0355
inning	-12.0356
▁05	-12.0357
$2.8	-12.0361
▁pair	-12.0369
ism	-12.037
pet	-12.0371
▁+2.	-12.0372
epd	-12.0377
▁gols	-12.0377
cena	-12.0379
7.4	-12.0388
▁moon	-12.0393
▁sad	-12.0395
vd	-12.0395
wolf	-12.04
isers	-12.04
ewm	-12.0404
▁audit	-12.0415
toro	-12.0415
4.5%	-12.0417
▁2015072	-12.042
▁parade	-12.0423
fun	-12.0423
nut	-12.0424
oku	-12.0434
ims	-12.0436
▁plunges	-12.045
▁pursue	-12.0451
loc	-12.0484
170	-12.049
rdsb	-12.0496
▁stall	-12.0498
mid	-12.0503
▁90-	-12.0504
▁servers	-12.0506
dgc	-12.0509
cien	-12.0511
hia	-12.0513
▁///	-12.0513
▁warn	-12.0513
acw	-12.0519
((	-12.052
▁domin	-12.0522
79%	-12.0522
umab	-12.0523
eta	-12.0531
.03	-12.0531
utr	-12.0532
▁estab	-12.0536
▁coast	-12.0545
▁45%	-12.0546
▁apply	-12.0549
▁conce	-12.055
▁shoulders	-12.055
▁lands	-12.0551
▁performed	-12.0552
lags	-12.0554
▁catalysts	-12.0555
▁103	-12.0562
itx	-12.0571
▁accounting	-12.0586
▁pictures	-12.0587
vulg	-12.059
1.56	-12.0594
▁grande	-12.0601
ille	-12.0601
▁91	-12.0608
rzo	-12.0624
hay	-12.063
ww	-12.0637
eve	-12.0638
14%	-12.0643
.59	-12.0648
diseases	-12.0649
▁miner	-12.0655
▁ignor	-12.0656
unles	-12.066
د	-12.0661
▁rush	-12.0663
▁102	-12.0663
18:	-12.0667
▁cvs	-12.0673
sents	-12.068
с	-12.0682
664	-12.0695
▁44%	-12.0696
coast	-12.0697
▁congratulat	-12.0703
▁calculat	-12.0714
▁>>>	-12.0715
135	-12.0727
▁$1.2	-12.0731
eurs	-12.0731
chair	-12.0732
sweete	-12.0732
face	-12.0736
▁65.	-12.0736
.26	-12.074
steps	-12.0742
/1	-12.0749
103	-12.0749
wwa	-12.075
4.81	-12.0759
mais	-12.0763
ayi	-12.077
9%.	-12.077
▁realize	-12.0771
▁5000	-12.0776
▁rebounds	-12.0792
nokia	-12.0803
qm	-12.0811
:44	-12.0811
▁announcements	-12.0814
▁☺	-12.0821
leaks	-12.0822
ich	-12.0823
▁targeting	-12.0824
payc	-12.0828
cut	-12.0828
1%)	-12.0836
pti	-12.0841
lone	-12.0846
pst	-12.0848
oid	-12.0849
,600	-12.085
56%	-12.0851
👉	-12.0872
▁cancel	-12.0884
▁bag	-12.0893
istan	-12.0897
▁daytraders	-12.0899
zar	-12.0902
oso	-12.0907
lci	-12.0908
▁50-	-12.0908
dum	-12.0914
quality	-12.0914
▁flee	-12.0915
▁subs	-12.0916
▁maintain	-12.0918
▁struggle	-12.0919
moody	-12.0929
▁111	-12.093
cni	-12.0931
ela	-12.0937
action	-12.0937
▁controls	-12.0939
sides	-12.0941
macbook	-12.0945
▁developments	-12.0946
isco	-12.095
▁+6.	-12.0951
muy	-12.0952
kills	-12.0953
▁mercado	-12.0953
▁def	-12.0953
think	-12.0955
held	-12.0957
▁62	-12.0963
maybe	-12.0965
39%	-12.0965
▁bite	-12.0966
growing	-12.0968
provid	-12.0969
▁95	-12.0969
chinese	-12.0972
leon	-12.0974
acquisition	-12.0975
194	-12.0976
stockpick	-12.0977
posted	-12.0978
abbvie	-12.0978
training	-12.098
potential	-12.0983
revenue	-12.0985
exxon	-12.0992
amgen	-12.0994
consumer	-12.1
ease	-12.1001
uzi	-12.1012
doctor	-12.1012
î	-12.1012
type	-12.1014
coke	-12.1014
▁converge	-12.1015
9/15	-12.1015
demonstrate	-12.1017
shine	-12.1021
▁ops	-12.1026
▁+6	-12.1031
19%	-12.1032
▁shrink	-12.1033
march	-12.1042
▁$4.4	-12.1045
▁ví	-12.1048
wish	-12.1049
ecd	-12.105
▁attract	-12.1054
▁10:00	-12.1055
👇	-12.1057
セ	-12.1057
п	-12.1057
̷	-12.1057
⚠	-12.1057
diversify	-12.1057
ebitda	-12.1057
logistics	-12.1057
mercenary	-12.1057
pentagon	-12.1057
petrobras	-12.1057
recognition	-12.1057
revolucion	-12.1057
switzerland	-12.1057
zindagi	-12.1057
ŕ	-12.1057
⏩	-12.1057
▁07:59:2	-12.1057
▁66.67%	-12.1057
▁capabilities	-12.1057
▁divorce	-12.1057
▁empresas	-12.1057
▁environmental	-12.1057
▁hangover	-12.1057
▁harbinger	-12.1057
▁language	-12.1057
▁medicine	-12.1057
▁studies	-12.1057
▁valentine	-12.1057
▁written	-12.1057
♫	-12.1057
🎲	-12.1057
📢	-12.1057
podcast	-12.1057
▁achillion	-12.1057
✔	-12.1057
angelonetofic	-12.1057
traditional	-12.1057
▁08:59:2	-12.1057
▁09:59:2	-12.1057
▁8:59:2	-12.1057
▁intereses	-12.1057
▁mínimo	-12.1057
▁sustitu	-12.1057
▁chayton	-12.1057
▁children	-12.1057
▁warrant	-12.1057
▁🎵🎵	-12.1057
▁organization	-12.1057
▁squibb	-12.1057
ficient	-12.1057
viekira	-12.1057
▁committee	-12.1057
▁trucks	-12.1057
sustainability	-12.1057
▁deserve	-12.1057
▁rancho	-12.1057
▁steep	-12.1057
falke	-12.1057
▁7:59:2	-12.1057
▁barrick	-12.1057
río	-12.1057
▁journey	-12.1057
seattle	-12.1057
▁thirst	-12.1057
▁anticipate	-12.1057
fracking	-12.1057
▁kaboom	-12.1057
▁turk	-12.1057
satisfact	-12.1058
▁combination	-12.1058
izzy	-12.1058
▁address	-12.1058
▁horse	-12.1058
scene	-12.1058
barely	-12.1058
debt	-12.1058
▁valuewalk	-12.1058
▁2/3	-12.1058
teaming	-12.1058
シ	-12.1058
throne	-12.1059
igorous	-12.1059
▁goldcorp	-12.1061
boring	-12.1061
unidad	-12.1061
cult	-12.1061
jakk	-12.1061
▁plain	-12.1061
▁inspired	-12.1062
▁okay	-12.1062
imgn	-12.1062
▁mojo	-12.1062
otro	-12.1063
rosne	-12.1063
icha	-12.1064
▁bargain	-12.1064
▁headqua	-12.1064
كث	-12.1065
▁arrived	-12.1065
qcor	-12.1065
▁heavi	-12.1065
▁meses	-12.1066
ageof	-12.1068
▁disclose	-12.1068
changer	-12.1069
never	-12.1069
▁strengthen	-12.1069
anybody	-12.107
1.38	-12.1071
▁combin	-12.1072
iox	-12.1072
defeat	-12.1073
pam	-12.1073
▁useful	-12.1073
▁requested	-12.1074
=1	-12.1075
▁repurchase	-12.1075
playlist	-12.1075
▁minor	-12.1077
vale	-12.1078
dropbox	-12.1078
feel	-12.1079
friendly	-12.108
slim	-12.1082
reign	-12.1084
▁vira	-12.1084
tiff	-12.1084
pmcb	-12.1085
▁2018	-12.1085
giveaway	-12.1088
▁shape	-12.109
37%	-12.1091
self	-12.1092
▁lord	-12.1093
ival	-12.1094
€€	-12.1096
clock	-12.1096
$€	-12.1097
athm	-12.1098
expr	-12.1099
▁ondemand	-12.11
▁nine	-12.1102
treated	-12.1104
▁cannot	-12.1107
▁lí	-12.1107
▁rethink	-12.1108
▁locked	-12.1109
▁thin	-12.111
anip	-12.1113
pico	-12.1115
brew	-12.1117
west	-12.1117
▁internal	-12.1118
ities	-12.1119
▁practices	-12.1119
kate	-12.1119
▁evp	-12.1119
onic	-12.1121
}$	-12.1122
▁curb	-12.1124
▁nada	-12.1125
▁ameri	-12.1126
asi	-12.1127
hsd	-12.1131
▁markes	-12.1132
glasses	-12.1134
▁looms	-12.1135
▁regain	-12.1135
▁intern	-12.1142
▁2-	-12.1144
lous	-12.1145
248	-12.1156
rsk	-12.1157
▁outage	-12.1159
420	-12.1162
oak	-12.1163
0%)	-12.1165
▁downward	-12.1166
▁issuer	-12.1167
▁chor	-12.1167
▁gasta	-12.1169
.27%	-12.1174
.93	-12.1175
used	-12.1175
528	-12.118
nts	-12.118
▁killed	-12.1182
▁pics	-12.1186
erno	-12.1189
▁cheers	-12.1189
quin	-12.1191
▁potentially	-12.1194
▁maintains	-12.1198
gmo	-12.1199
connect	-12.1202
▁08:00	-12.1204
▁$16.	-12.1211
▁meno	-12.1215
qnt	-12.1225
▁declined	-12.1225
giga	-12.1228
▁días	-12.1233
class	-12.1236
▁$159	-12.1237
wow	-12.1237
selfie	-12.1238
5:00	-12.1239
activity	-12.124
ivo	-12.1241
▁oncology	-12.1243
▁65	-12.1248
rou	-12.1249
performance	-12.1252
ade	-12.1253
cock	-12.1253
makers	-12.1256
▁bottle	-12.126
▁tale	-12.1262
urch	-12.1262
lol	-12.1263
refuse	-12.1264
▁tao	-12.127
▁arbs	-12.1271
heat	-12.128
loved	-12.128
▁williams	-12.1282
agu	-12.1283
▁networking	-12.129
ilo	-12.1291
▁loser	-12.1295
.02%	-12.1304
▁seller	-12.1305
▁20-	-12.1309
glb	-12.1309
▁cel	-12.1313
▁forming	-12.1318
mtg	-12.1319
▁uno	-12.1323
bti	-12.1344
abar	-12.1354
nice	-12.1365
▁erase	-12.1368
не	-12.1373
340	-12.1374
pgr	-12.1377
ute	-12.1377
amiento	-12.1386
some	-12.1391
delivering	-12.1399
ecu	-12.1403
citi	-12.1409
▁beer	-12.1415
amx	-12.1416
axl	-12.1429
cion	-12.1434
backs	-12.1445
traded	-12.1449
▁~$2	-12.1451
▁boys	-12.1452
▁cbs	-12.1454
▁250.	-12.1457
▁sessions	-12.1463
▁mayer	-12.1469
▁"#	-12.1475
.32	-12.1478
erj	-12.148
▁paga	-12.1486
edu	-12.1487
▁seal	-12.149
hub	-12.1493
train	-12.1494
murd	-12.1506
dang	-12.151
mbo	-12.1512
xdc	-12.1517
far	-12.1518
sie	-12.1526
didnt	-12.1528
...#	-12.1532
▁=>	-12.1543
inv	-12.1552
hav	-12.1555
▁16.5	-12.1557
▁200-	-12.1563
65%	-12.1563
melon	-12.1564
▁bam	-12.1572
▁blocks	-12.1576
10.4	-12.1577
345	-12.1578
bind	-12.158
:-1.	-12.1585
▁arms	-12.1588
)(	-12.1591
__	-12.1596
.71%	-12.1605
gnx	-12.1622
had	-12.1631
1.70	-12.1634
31,	-12.1634
▁$69	-12.1645
load	-12.1646
▁2014,	-12.1649
your	-12.1656
40%	-12.1658
alm	-12.1662
roy	-12.167
▁meri	-12.167
205	-12.167
ches	-12.1671
▁mich	-12.168
▁doj	-12.1684
▁dese	-12.1695
136	-12.1695
▁offset	-12.1699
condition	-12.1705
▁agent	-12.1707
▁charles	-12.171
321	-12.1712
older	-12.1713
▁4.7	-12.1717
أ	-12.1721
nik	-12.1723
$%	-12.1733
tent	-12.1733
▁request	-12.1735
0/15	-12.1738
▁saving	-12.1752
▁ramp	-12.1753
▁$140	-12.1765
/24/14	-12.1772
▁10:00:04	-12.1772
ture	-12.1776
▁destin	-12.178
31%	-12.1784
ani	-12.1799
sé	-12.1801
▁(#	-12.1804
found	-12.1807
vol	-12.1808
▁trail	-12.181
▁mars	-12.1816
▁rid	-12.1821
gbp	-12.1822
issa	-12.1825
▁dumb	-12.1828
▁driver	-12.1836
mount	-12.1837
▁1.4	-12.1839
hns	-12.184
.8%	-12.1845
18,	-12.1846
dynamic	-12.1847
▁cheer	-12.185
▁bal	-12.1859
118	-12.1863
wwe	-12.1868
▁laugh	-12.1869
▁hoard	-12.1875
ouch	-12.1876
▁flaw	-12.188
lovin	-12.1885
▁generate	-12.1885
▁alleged	-12.1886
post	-12.1889
highs	-12.1889
loyal	-12.189
จ	-12.189
jeremy	-12.189
shanghai	-12.189
▁refresh	-12.189
▁reservas	-12.189
foxconn	-12.189
kapital	-12.189
seadrill	-12.189
thailand	-12.189
underweight	-12.189
yosemite	-12.189
السوق	-12.189
▁2:59:2	-12.189
▁^_^	-12.189
▁attorney	-12.189
▁automotive	-12.189
▁bandwagon	-12.189
▁basket	-12.189
▁efficacy	-12.189
▁herbalife	-12.189
▁increíble	-12.189
▁macquarie	-12.189
▁peanutbuddajamm	-12.189
▁phenomenal	-12.189
▁remarkable	-12.189
▁verdict	-12.189
▁vulnerable	-12.189
▁xtreme	-12.189
meddevice	-12.189
▁cruise	-12.189
▁intellect	-12.189
▁legacy	-12.189
▁sandisk	-12.189
automation	-12.189
hidden	-12.189
pocket	-12.189
scotland	-12.189
▁offshore	-12.189
▁tandem	-12.189
▁independent	-12.189
repatha	-12.189
▁laboratori	-12.189
forums	-12.189
▁📲📲	-12.189
▁eagle	-12.189
▁recognize	-12.189
▁influence	-12.189
▁filter	-12.189
ん	-12.189
▁sideways	-12.1891
eeuu	-12.1891
▁penney	-12.1891
▁groceries	-12.1891
▁britain	-12.1891
▁bruh	-12.1891
corruption	-12.1891
▁anthem	-12.1891
▁animal	-12.1891
▁bapti	-12.1891
7/17	-12.1892
▁garmin	-12.1892
▁everywhere	-12.1893
▁bidding	-12.1893
▁desire	-12.1893
▁root	-12.1893
▁internacionales	-12.1893
tackle	-12.1893
▁uptick	-12.1893
nmxs	-12.1893
copper	-12.1893
wifi	-12.1893
▁shame	-12.1894
▁achievers	-12.1894
▁constant	-12.1894
pimp	-12.1895
legend	-12.1895
grants	-12.1895
ott	-12.1895
▁brick	-12.1896
▁drilling	-12.1896
▁stuffit	-12.1897
▁indeed	-12.1897
▁array	-12.1898
▁investigational	-12.1898
▁grave	-12.1898
zpin	-12.1899
gorsky	-12.1899
uro	-12.1899
▁ipos	-12.1899
epaz	-12.1899
18,000	-12.19
bow	-12.19
▁ambitions	-12.19
dowjones	-12.19
▁stephen	-12.1901
▁revise	-12.1901
italy	-12.1903
▁balti	-12.1903
spoke	-12.1904
8:00	-12.1905
▁divide	-12.1905
1.64	-12.1906
▁plot	-12.1906
718	-12.1907
wan	-12.1908
▁11:00	-12.1908
omach	-12.1911
▁monda	-12.1913
▁kinder	-12.1914
▁spectra	-12.1915
mature	-12.1915
▁boat	-12.1915
lazy	-12.1916
doom	-12.1917
691	-12.1917
▁brewer	-12.1919
▁disappointed	-12.1921
▁headwinds	-12.1921
▁concerned	-12.1922
firetv	-12.1923
1/4	-12.1923
2.75	-12.1924
▁stack	-12.1924
scal	-12.1925
▁greed	-12.1927
▁gapper	-12.1928
▁forgotten	-12.1931
▁await	-12.1935
▁county	-12.1935
▁tasa	-12.1937
7.5%	-12.194
oç	-12.1949
▁indicated	-12.195
▁teva	-12.1955
▁rail	-12.1956
gasl	-12.1961
sold	-12.1967
▁argue	-12.1968
▁beach	-12.1969
hool	-12.1969
▁$50/	-12.1971
infy	-12.1974
eprs	-12.1975
netics	-12.1979
bdn	-12.1981
138	-12.1981
mack	-12.1982
ecn	-12.1982
▁11:0	-12.1983
even	-12.1985
bee	-12.1986
▁package	-12.1986
arm	-12.1987
▁headset	-12.1988
▁providers	-12.1992
▁dept	-12.1993
▁inhibitors	-12.1995
777	-12.1999
197	-12.1999
ewi	-12.2
fact	-12.2002
▁$115	-12.2004
mercados	-12.2004
glen	-12.2008
2.15	-12.201
0.40	-12.2016
!!!!!!	-12.2024
▁momento	-12.2025
▁programs	-12.2027
loose	-12.2027
grown	-12.203
▁entered	-12.203
▁packages	-12.2031
tex	-12.2034
▁breakup	-12.2035
mkm	-12.2039
▁saved	-12.2039
ggl	-12.204
▁passing	-12.2042
cute	-12.2043
▁18%	-12.2044
▁comprar	-12.2046
▁tour	-12.2047
mally	-12.2051
▁exto	-12.2051
6%.	-12.2056
unció	-12.2063
economic	-12.2063
400	-12.2063
▁bounced	-12.2064
8%)	-12.2073
talk	-12.2078
520	-12.2078
een	-12.2083
▁macs	-12.2084
dnt	-12.2088
▁aero	-12.209
▁sucks	-12.2094
▁yday	-12.2095
bz	-12.2097
▁songs	-12.2116
▁$970	-12.212
nvc	-12.2127
deo	-12.2128
pedia	-12.2133
▁llc	-12.2134
▁argu	-12.2135
▁meta	-12.2136
▁troll	-12.2137
📱	-12.214
stats	-12.2142
560	-12.2144
▁patterns	-12.2154
▁dive	-12.2157
:0	-12.2161
yad	-12.2162
sharp	-12.2162
▁runners	-12.2164
parabolic	-12.2166
▁bnp	-12.2167
▁appeals	-12.2169
ahora	-12.2173
produc	-12.2175
alot	-12.2175
.1%	-12.2178
▁sticks	-12.218
stress	-12.2184
▁-4.	-12.2186
▁wings	-12.2188
powered	-12.219
▁$97	-12.2192
currency	-12.2194
generation	-12.2195
dolar	-12.2196
icymi	-12.2198
bubble	-12.2198
98.	-12.2202
still	-12.2206
hint	-12.2208
blackberry	-12.221
website	-12.2211
customer	-12.2211
▁flags	-12.2213
intraday	-12.2214
▁pitch	-12.2218
buffett	-12.2218
beverage	-12.2219
▁tweeting	-12.222
shareholders	-12.2222
through	-12.2222
gdp	-12.2226
thanks	-12.2229
season	-12.2229
webinar	-12.2231
▁shed	-12.2231
fargo	-12.2231
since	-12.2236
morning	-12.2237
▁actions	-12.2238
april	-12.2239
gfi	-12.2246
▁dent	-12.2247
▁soc	-12.2251
1.30	-12.2255
816	-12.2257
600	-12.2261
▁140	-12.2261
corporation	-12.2262
ime	-12.2262
50,000	-12.2266
priced	-12.2267
trial	-12.2269
probabilit	-12.2275
378	-12.2276
hey	-12.2277
dump	-12.2277
sony	-12.228
death	-12.2285
▁kidd	-12.2289
lion	-12.2292
00.00	-12.2295
updated	-12.2295
▁ideal	-12.2299
true	-12.2299
rose	-12.23
▁scenarios	-12.2309
custom	-12.2314
▁alive	-12.2321
gged	-12.2332
96%	-12.2333
smb	-12.2337
una	-12.234
yen	-12.2344
▁allows	-12.2348
▁23.	-12.2355
ogc	-12.2357
race	-12.2365
gages	-12.2369
changing	-12.237
dream	-12.2371
365	-12.2372
▁regal	-12.2378
0.35	-12.2394
illa	-12.2399
sense	-12.24
blx	-12.24
ially	-12.2403
urges	-12.2408
veg	-12.2415
omx	-12.2418
algn	-12.2423
ctic	-12.2425
▁downloads	-12.2427
▁rob	-12.2429
under	-12.2439
cdc	-12.2443
▁lowe	-12.2446
uch	-12.245
ppi	-12.2454
▁died	-12.2456
▁pharmacy	-12.2457
-16	-12.2458
▁tracks	-12.2462
▁pumpin	-12.2463
▁$1.4	-12.2464
▁eli	-12.2476
▁sera	-12.2477
▁holo	-12.2479
.92	-12.2482
abio	-12.2484
ão	-12.2484
asap	-12.2485
▁daniel	-12.2486
nvg	-12.2486
▁fq	-12.2488
infi	-12.2497
ape	-12.2502
▁facts	-12.2503
%.	-12.2508
cker	-12.2513
3.20	-12.2518
.80	-12.2528
2,500	-12.2534
phi	-12.2537
,,,	-12.2538
5.97	-12.254
▁$600,00	-12.2545
7.2	-12.2553
▁votes	-12.2554
▁settles	-12.2558
88%	-12.2562
.98	-12.2563
sources	-12.2565
ruck	-12.2569
▁pan	-12.2573
▁rapid	-12.2575
aah	-12.2584
zon	-12.2588
antes	-12.2592
igan	-12.2593
chain	-12.2594
▁logo	-12.2602
latt	-12.2603
▁71	-12.2604
مع	-12.2604
$160	-12.2608
burg	-12.2614
▁bat	-12.2623
rci	-12.2627
-18	-12.2627
bioc	-12.2628
ative	-12.2629
ect	-12.2641
fields	-12.2648
>>>	-12.2649
▁initiative	-12.2658
▁tele	-12.2659
roi	-12.266
american	-12.2662
ified	-12.2667
▁$360	-12.2672
▁reli	-12.2682
0.11	-12.2683
ick	-12.2684
▁seconds	-12.2686
5)	-12.2686
.45	-12.2688
again	-12.2701
▁$58	-12.2708
.51	-12.2715
aaaaa	-12.2725
hless	-12.2729
▁follows	-12.2733
para	-12.2739
,000%	-12.2741
е	-12.2741
nswer	-12.2749
teri	-12.275
hos	-12.2751
▁appreciate	-12.2757
ways	-12.2758
▁inflow	-12.2758
mile	-12.2759
9.50	-12.2766
mkts	-12.2772
▁strange	-12.2774
▁harm	-12.2777
????	-12.2779
▁subsid	-12.2781
rcha	-12.2782
udn	-12.2784
noon	-12.2785
ación	-12.2787
▁obvious	-12.2788
▁addition	-12.2788
▁optim	-12.2788
ص	-12.2793
jab	-12.2795
ensive	-12.2795
▁borrow	-12.2798
▁arbitr	-12.2798
😭	-12.2799
บ	-12.2799
ย	-12.2799
💣	-12.2799
💪	-12.2799
▁chronikk	-12.2799
conviction	-12.2799
imbruvica	-12.2799
linkedfa	-12.2799
marriage	-12.2799
monopoly	-12.2799
perlmutter	-12.2799
taylor	-12.2799
ï	-12.2799
ضارب	-12.2799
▁03:59:2	-12.2799
▁alirocumab	-12.2799
▁allocation	-12.2799
▁charlotte	-12.2799
▁conflict	-12.2799
▁conservative	-12.2799
▁episode	-12.2799
▁infrastructure	-12.2799
▁lorillard	-12.2799
▁revisit	-12.2799
▁revolución	-12.2799
▁santander	-12.2799
▁thousand	-12.2799
▁vehicles	-12.2799
▁للأ	-12.2799
▄	-12.2799
♡	-12.2799
💋	-12.2799
▁allergan	-12.2799
▁methods	-12.2799
▁unchanged	-12.2799
💃	-12.2799
▁arabia	-12.2799
othegod	-12.2799
▀▄	-12.2799
▁susquehanna	-12.2799
▁determine	-12.2799
lehman	-12.2799
▁libor	-12.2799
▁applied	-12.2799
😇	-12.2799
▁salary	-12.2799
▁18:00:03:	-12.2799
▁chronic	-12.2799
▁abbott	-12.2799
▁suspect	-12.2799
▁punto	-12.2799
▁recib	-12.2799
▁ملي	-12.28
▁begun	-12.28
chromecast	-12.28
▁contribute	-12.28
▁attach	-12.28
▁interface	-12.28
ladies	-12.28
horsemen	-12.28
▁retain	-12.28
bankruptcy	-12.28
▁programming	-12.28
▁donald	-12.28
▁blind	-12.28
▁crane	-12.28
▁immediate	-12.28
▁jitters	-12.28
▁creator	-12.28
▁armour	-12.28
▁homebuilder	-12.28
▁soros	-12.28
▁yawn	-12.28
▁skeptic	-12.28
وف	-12.2801
▁dicen	-12.2801
▁background	-12.2801
▁university	-12.2801
avnr	-12.2801
▁janney	-12.2802
circuit	-12.2802
▁crown	-12.2802
▁oilfield	-12.2802
fifa	-12.2803
▁skies	-12.2803
▁scrap	-12.2803
▁2015042	-12.2803
▁trough	-12.2804
▁anymore	-12.2804
▁keyboard	-12.2804
▁spook	-12.2804
chicken	-12.2804
▁underway	-12.2804
uga	-12.2805
▁activat	-12.2805
rigging	-12.2806
اع	-12.2807
wheat	-12.2807
▁aetna	-12.2807
society	-12.2807
▁rift	-12.2809
eh	-12.2809
akci	-12.281
▁coloc	-12.281
▁santa	-12.281
▁faith	-12.281
▁afuera	-12.2812
▁manch	-12.2812
bep	-12.2812
ير	-12.2814
▁thoms	-12.2814
▁mylan	-12.2815
ylen	-12.2815
▁cargo	-12.2816
mvis	-12.2817
erry	-12.2818
boyz	-12.2818
▁biosciences	-12.282
kansas	-12.282
▁perfectly	-12.2823
isns	-12.2825
zona	-12.2826
▁dragg	-12.2827
ién	-12.2829
▁organs	-12.283
▁remi	-12.283
▁blast	-12.283
mit	-12.2833
▁trimm	-12.2833
asti	-12.2834
▁deeds	-12.2835
ulta	-12.284
▁garant	-12.284
▁10,000	-12.2843
ghx	-12.2847
▁stark	-12.2849
managing	-12.2849
120.00	-12.2851
▁joint	-12.2852
▁vegas	-12.2852
▁predicted	-12.2854
graph	-12.2855
qun	-12.2859
nyseipo	-12.286
125.00	-12.286
én	-12.2863
arios	-12.2864
▁cord	-12.2864
▁decided	-12.2868
pal	-12.2869
:34	-12.2871
nasd	-12.2872
==	-12.2874
nerships	-12.2875
2.25	-12.2878
▁11:03:2	-12.288
▁cry	-12.2881
ues	-12.2893
juan	-12.2898
▁brokerages	-12.2901
▁09:4	-12.2902
▁+0.0	-12.2905
wetf	-12.2906
jes	-12.2906
nz	-12.2908
regi	-12.2909
▁rat	-12.2915
17:	-12.2928
▁10:00:04:	-12.2931
▁badly	-12.2932
dba	-12.2934
getty	-12.2935
ito	-12.2936
adas	-12.2936
comb	-12.2953
ivity	-12.2956
▁revolutioniz	-12.2961
izing	-12.2964
▁drivers	-12.2974
%^	-12.298
mini	-12.298
applelive	-12.2981
folios	-12.2983
▁~$1	-12.2983
mhr	-12.2989
818	-12.2995
بي	-12.2996
▁nah	-12.2999
ça	-12.3004
-17	-12.3015
2%.	-12.3016
44%	-12.3018
5.5%	-12.3019
▁skin	-12.3021
▁attempts	-12.3024
▁figures	-12.3024
vision	-12.3024
▁vod	-12.3029
▁mover	-12.3033
ewc	-12.3043
2.2%	-12.3048
08,	-12.3073
▁shock	-12.3081
volu	-12.3084
prov	-12.3085
30.00	-12.3085
vine	-12.3097
111	-12.3102
sieg	-12.3109
▁mod	-12.3119
▁marketers	-12.3119
▁aside	-12.3121
pai	-12.3131
colas	-12.3133
ong	-12.3136
▁foe	-12.3139
msf	-12.3146
nay	-12.3146
tric	-12.3152
▁investo	-12.3161
unp	-12.3166
:50	-12.3167
▁$1000	-12.3169
shar	-12.3171
0.52	-12.3171
▁130.	-12.3174
▁spain	-12.3174
ians	-12.3175
mpty	-12.3177
hated	-12.3178
sep	-12.3196
uba	-12.321
▁$2.5	-12.3211
crit	-12.3213
:26	-12.3225
/9	-12.3228
okf	-12.323
rave	-12.3234
▁►	-12.3234
ándo	-12.3238
1.3%	-12.3249
▁theft	-12.3254
2000	-12.3257
mcr	-12.3257
stan	-12.3265
.(	-12.3267
▁steam	-12.3273
lan	-12.3273
hab	-12.3275
▁$240	-12.3276
apped	-12.3279
234	-12.3282
▁+101	-12.3284
▁clo	-12.3287
▁stands	-12.3292
▁resident	-12.3299
xw	-12.3302
▁blu	-12.3304
atd	-12.3306
oing	-12.3313
cou	-12.3314
86.	-12.3317
lai	-12.333
ما	-12.3331
:11:10	-12.3332
quo	-12.3336
onde	-12.3344
rend	-12.3351
5%)	-12.3355
mite	-12.3363
ipc	-12.3364
▁fbi	-12.3368
convince	-12.3372
▁$89	-12.3381
▁statements	-12.3389
rade	-12.3394
3%.	-12.3394
emos	-12.3402
aco	-12.3407
duk	-12.3408
celebrates	-12.3411
2.60	-12.3419
▁دو	-12.3425
law	-12.3434
wearable	-12.3436
▁wor	-12.3438
94%	-12.3441
lane	-12.3448
aids	-12.345
.65	-12.3451
itz	-12.3457
vx	-12.3462
edz	-12.3468
ita	-12.3468
43%	-12.3471
cvs	-12.3476
rada	-12.3477
▁plants	-12.3479
lower	-12.348
3.85	-12.3487
night	-12.3496
liz	-12.3498
2013	-12.3499
▁realiz	-12.3499
▁cells	-12.3501
olas	-12.3504
▁computers	-12.3504
2.00	-12.3509
test	-12.3512
▁manage	-12.3512
7)	-12.3512
0.80	-12.3519
▁shitt	-12.3522
..!!	-12.3523
zen	-12.3532
stupid	-12.3534
float	-12.3536
shy	-12.3541
penny	-12.355
1.27	-12.356
▁melt	-12.3561
16:	-12.3562
winter	-12.3563
ward	-12.357
zero	-12.3593
throw	-12.3601
korea	-12.3605
mexico	-12.3615
▁$750	-12.3618
either	-12.3624
▁dates	-12.3625
fibonacci	-12.3627
kya	-12.3632
press	-12.3632
content	-12.3636
multiple	-12.3636
▁finn	-12.3637
crash	-12.3637
boom	-12.3638
fixed	-12.364
venture	-12.364
deck	-12.364
5,75	-12.3641
schlumberger	-12.3643
▁(0	-12.3644
pepsico	-12.3644
bofa	-12.3645
tablet	-12.3645
software	-12.3647
sachs	-12.3647
guru	-12.3651
cheap	-12.3653
double	-12.3653
spotted	-12.3654
bears	-12.3657
caterpillar	-12.3657
oculus	-12.3658
▁browser	-12.3659
ngg	-12.3661
▁admit	-12.3661
better	-12.3662
▁argument	-12.3662
fashion	-12.3667
tweets	-12.3669
▁6.5	-12.3669
soon	-12.3672
fuels	-12.3673
▁commit	-12.3673
drive	-12.3681
▁bend	-12.3693
rack	-12.3696
ró	-12.3696
tour	-12.3696
learn	-12.3697
💰	-12.3701
1.6%	-12.3701
2%)	-12.3703
lk	-12.3704
demand	-12.3712
really	-12.3712
0.64	-12.372
▁chances	-12.3723
soft	-12.3734
,000,000,000	-12.3735
▁ranges	-12.3739
bound	-12.3751
▁jets	-12.3751
entrepreneur	-12.3753
gadget	-12.3756
▁clears	-12.3758
346	-12.3758
historic	-12.3767
rkus	-12.377
weeklys	-12.3771
▁valu	-12.3773
▁complain	-12.3777
buyback	-12.3779
sterne	-12.3781
wheel	-12.3791
amph	-12.3792
lagging	-12.3794
▁speculati	-12.3795
75.00	-12.3796
▁drama	-12.3799
б	-12.3799
💵	-12.3799
마	-12.3799
▁mayweather	-12.3799
atlantic	-12.3799
barcelona	-12.3799
blincyto	-12.3799
recruit	-12.3799
sclerosis	-12.3799
zarxio	-12.3799
─	-12.3799
▁01:59:2	-12.3799
▁04:59:2	-12.3799
▁05:59:2	-12.3799
▁06:07:0	-12.3799
▁consecutive	-12.3799
▁curious	-12.3799
▁demolish	-12.3799
▁ejecuta	-12.3799
▁hollywood	-12.3799
▁initiation	-12.3799
▁injection	-12.3799
▁irrelevant	-12.3799
▁neupogen	-12.3799
▁résultats	-12.3799
▁schmidt	-12.3799
▁siemens	-12.3799
▁▀▄☆▀♬▶	-12.3799
▁alzheimer	-12.3799
▁audience	-12.3799
▁character	-12.3799
▁garbage	-12.3799
▁mechanic	-12.3799
pizza	-12.3799
psoriasis	-12.3799
▁affirm	-12.3799
▁nicolaus	-12.3799
▁pathetic	-12.3799
ministro	-12.3799
▁embrace	-12.3799
▁possibility	-12.3799
▁specifically	-12.3799
bourse	-12.3799
▁5:07:1	-12.3799
▁benchmark	-12.3799
▁▀▄☆▀♬	-12.3799
autonomous	-12.3799
▁aumenta	-12.3799
dinero	-12.3799
▁idiots	-12.3799
▁mentorship	-12.3799
か	-12.3799
stevejobs	-12.3799
healthkit	-12.3799
▁proceed	-12.3799
▁pioneer	-12.3799
▁cliffs	-12.3799
▁12:11:	-12.3799
efut	-12.3799
▁melhor	-12.3799
▁$0.42	-12.38
▁11:03:1	-12.38
🙌🙌	-12.38
▁infinity	-12.38
▁universe	-12.38
▁blessing	-12.38
▁billete	-12.38
▁contrarian	-12.38
nashville	-12.38
▁frame	-12.38
▁snack	-12.38
snowden	-12.38
▁cablevision	-12.38
▁reduction	-12.38
2.64%	-12.38
prd	-12.38
▁leaderboard	-12.38
▁unsubscribe	-12.38
praying	-12.38
starwars	-12.38
mansion	-12.38
jimcramer	-12.38
▁bryan	-12.3801
guard	-12.3801
▁encourage	-12.3801
▁smoking	-12.3801
unleash	-12.3801
▁bumpin	-12.3801
ッ	-12.3801
▁subsidiary	-12.3801
▁fault	-12.3801
▁evil	-12.3802
devil	-12.3802
▁incorporated	-12.3802
▁espirit	-12.3802
と	-12.3802
smith	-12.3802
16.40	-12.3802
barrel	-12.3802
▁hospi	-12.3803
extension	-12.3803
kuran	-12.3803
▁latin	-12.3803
▁+40%	-12.3803
cameron	-12.3804
kkd	-12.3804
▁novavax	-12.3804
▁intend	-12.3805
▁miller	-12.3805
emplea	-12.3805
nktr	-12.3805
▁1/5	-12.3806
$_$	-12.3806
▁wrist	-12.3806
musings	-12.3806
▁majority	-12.3806
▁deux	-12.3807
orange	-12.3807
crime	-12.3807
▁publishers	-12.3808
▁playli	-12.3808
pollut	-12.3808
شهر	-12.3809
pero	-12.3809
▁12:00	-12.381
raf	-12.381
ciones	-12.3811
chtr	-12.3811
▁political	-12.3811
idcc	-12.3811
▁bove	-12.3812
obviously	-12.3812
▁restore	-12.3812
cigna	-12.3812
▁peers	-12.3813
.05%	-12.3814
primeday	-12.3814
▁aggre	-12.3814
promoters	-12.3814
qsr	-12.3815
jjc	-12.3815
▁advisory	-12.3815
qué	-12.3816
arch	-12.3816
▁checked	-12.3818
xbox	-12.3818
pause	-12.3819
▁97%	-12.3819
▁09:31	-12.3819
▁92%	-12.382
elnk	-12.382
icular	-12.382
€£	-12.382
mentor	-12.3821
▁simply	-12.3821
▁bueno	-12.3821
7.69%	-12.3822
▁angeles	-12.3825
▁carry	-12.3825
▁navigat	-12.3827
▁09:55	-12.3828
▁suspend	-12.3829
dhr	-12.3829
pkk	-12.383
▁patch	-12.383
82.5	-12.3831
elite	-12.3831
spun	-12.3833
anderson	-12.3833
▁doug	-12.3833
▁deeper	-12.3834
▁primer	-12.3834
▁🔥🔥🔥🔥🔥🔥🔥🔥🔥🔥🔥🔥🔥🔥🔥	-12.3835
▁12:59:2	-12.3837
▁bonos	-12.3838
adores	-12.3838
▁overseas	-12.3839
▁elect	-12.3839
fence	-12.384
▁twin	-12.384
▁richer	-12.3841
snn	-12.3849
▁$43	-12.3849
▁agee	-12.3849
quiere	-12.3851
▁statistics	-12.3852
skto	-12.3853
rides	-12.3854
zr	-12.3854
▁meaning	-12.3854
adapt	-12.3858
realty	-12.3859
▁doctors	-12.3859
▁bumping	-12.386
smallcap	-12.386
lux	-12.3865
370	-12.3865
lbtya	-12.3866
▁lenders	-12.3867
bmg	-12.3871
▁guides	-12.3872
▁headphones	-12.3877
▁wafa	-12.3879
▁fallen	-12.3881
linger	-12.3881
▁searches	-12.3884
▁specs	-12.3885
▁soul	-12.3886
▁kfc	-12.3894
▁exclud	-12.3895
reph	-12.3895
▁filling	-12.3897
medica	-12.39
▁dro	-12.3907
wsi	-12.3909
1.45	-12.3915
sync	-12.3916
rne	-12.3921
▁nate	-12.3925
1.01%	-12.3927
watt	-12.3931
boomer	-12.3932
:0.	-12.3934
▁splits	-12.3936
sigm	-12.3937
tpac	-12.3944
tmg	-12.3945
srne	-12.3947
▁lining	-12.395
aux	-12.395
▁timeline	-12.3952
288	-12.3957
▁inflows	-12.3957
▁2005	-12.3958
nned	-12.3958
nep	-12.396
6.34	-12.3963
lá	-12.397
▁meaningful	-12.3972
centric	-12.3977
*(	-12.398
▁$350	-12.3981
dió	-12.3984
▁idc	-12.3988
rpg	-12.3991
violations	-12.3993
gti	-12.3996
696	-12.3997
▁gasto	-12.4003
▁magnet	-12.4008
emain	-12.4009
cnc	-12.401
$$$$$	-12.4018
▁$168	-12.4024
▁'13	-12.4025
,200	-12.403
tch	-12.4031
dle	-12.4031
▁scans	-12.4034
nete	-12.4045
▁brothers	-12.4049
▁stir	-12.405
▁font	-12.4053
theory	-12.4056
▁dam	-12.4056
▁dev	-12.4057
nvs	-12.4063
onn	-12.4064
▁listened	-12.4067
اج	-12.4068
inks	-12.4069
0.41	-12.4076
cris	-12.4079
▁reader	-12.4079
iser	-12.4084
208	-12.4091
ewo	-12.4092
hubs	-12.4101
▁entre	-12.4101
-60	-12.4104
380	-12.4105
0.2%	-12.4114
▁delays	-12.4115
▁lists	-12.4125
▁mae	-12.4129
pny	-12.4132
round	-12.4133
hnp	-12.4135
ili	-12.4136
ories	-12.4137
▁thx	-12.4138
idad	-12.414
▁images	-12.414
aca	-12.4147
51%	-12.415
لي	-12.4151
nny	-12.4152
.62%	-12.4171
▁77.77	-12.4176
aid	-12.418
:62	-12.4182
=10	-12.4182
▁-9.	-12.4189
ribu	-12.4193
ndn	-12.4195
▁permi	-12.4201
658	-12.4211
ccar	-12.4212
rue	-12.4213
▁$66	-12.4218
item	-12.422
phh	-12.4224
▁reale	-12.4224
▁wallets	-12.423
wards	-12.4239
▁0.0	-12.4243
▁effects	-12.425
cpi	-12.4251
ration	-12.4254
appletv	-12.4261
frm	-12.4265
nam	-12.4267
watching	-12.4269
▁seasonal	-12.4272
▁feds	-12.4276
ality	-12.4284
avo	-12.4286
cto	-12.4299
203	-12.4306
9.65	-12.4306
half	-12.4323
▁$78	-12.4325
fmi	-12.4328
▁favors	-12.4328
investments	-12.4339
reddy	-12.4339
agi	-12.4351
▁cama	-12.4352
adcom	-12.4357
dgi	-12.436
án	-12.4369
gbs	-12.437
ntri	-12.4387
aeg	-12.439
0.45	-12.4395
210	-12.4401
3/15)	-12.4401
▁digits	-12.4402
▁neg	-12.4404
tumbles	-12.4411
blackli	-12.4418
resi	-12.4422
▁+0.3	-12.4424
▁160	-12.443
mge	-12.4465
%$	-12.4468
▁rocks	-12.4473
eiro	-12.4482
cco	-12.4484
ره	-12.4485
0.75%	-12.449
heb	-12.4491
cree	-12.4491
cac	-12.4508
full	-12.4508
▁visual	-12.451
.9%.	-12.4514
▁arb	-12.4518
lun	-12.4519
▁lag	-12.4521
swingtrad	-12.4537
▁alt	-12.4542
ctl	-12.4553
▁pel	-12.4564
presentation	-12.4569
3.90	-12.4596
god	-12.4596
dey	-12.4597
166	-12.4599
:41	-12.46
7,000	-12.4601
3.4%	-12.4607
▁slows	-12.4622
12:0	-12.4623
6.60	-12.4624
▁mue	-12.4631
uy	-12.4637
▁externa	-12.4638
▁flexib	-12.4642
iq	-12.4642
aug	-12.4649
ли	-12.4653
▁12-	-12.4657
rings	-12.4661
hele	-12.4669
ction	-12.4675
618	-12.4677
-10	-12.4677
▁snow	-12.4678
ول	-12.4678
▁math	-12.4682
izu	-12.4689
▁vendi	-12.4692
arden	-12.4698
hen	-12.4706
bcb	-12.4714
cli	-12.4716
▁وال	-12.4717
▁$6.4	-12.4724
ews	-12.4727
0.48	-12.4733
6,00	-12.4734
inar	-12.4741
й	-12.4743
author	-12.4743
stm	-12.475
▁$42	-12.475
▁huh	-12.4751
4.75	-12.4761
▁slashe	-12.4764
▁alternative	-12.4765
▁inhibitor	-12.4771
▁03:11:	-12.4778
840	-12.4788
1.75	-12.4809
7/15	-12.481
▁04/1	-12.4812
▁usual	-12.4844
▁$650	-12.4848
iai	-12.4851
▁legit	-12.4852
char	-12.4855
▁$1.7	-12.4855
كر	-12.4867
nai	-12.4867
▁platforms	-12.4881
▁5,5	-12.4883
▁movi	-12.4883
soi	-12.4887
brain	-12.4891
tampa	-12.4891
culture	-12.4892
▁advise	-12.49
anas	-12.4901
ater	-12.4902
gotten	-12.4903
âñ	-12.4904
▁201507	-12.4906
▁origin	-12.4906
▁consistent	-12.4906
▁absolute	-12.4906
evolution	-12.4907
ř	-12.4908
:57	-12.4908
▁ridin	-12.4909
▁confident	-12.491
х	-12.491
э	-12.491
ш	-12.491
і	-12.491
💥	-12.491
▁по	-12.491
medicinas	-12.491
cogniti	-12.491
conspiracy	-12.491
intelligent	-12.491
▁arrival	-12.491
▁inception	-12.491
▁otezla	-12.491
▁quebrado	-12.491
alexander	-12.491
desperate	-12.491
obsolete	-12.491
possibly	-12.491
survival	-12.491
survivors	-12.491
zachary	-12.491
▁07:03:2	-12.491
▁abstract	-12.491
▁boycott	-12.491
▁category	-12.491
▁einhorn	-12.491
▁flurry	-12.491
▁frenzy	-12.491
▁glaxo	-12.491
▁glaxosmithkline	-12.491
▁grantham	-12.491
▁hilarious	-12.491
▁ihposts	-12.491
▁infringement	-12.491
▁juggernaut	-12.491
▁overhaul	-12.491
▁paribas	-12.491
▁perhaps	-12.491
▁plummet	-12.491
▁próxim	-12.491
▁qorvo	-12.491
▁rallied	-12.491
▁rumour	-12.491
✊	-12.491
ี	-12.491
▁cadivi	-12.491
▁idenix	-12.491
▁indonesia	-12.491
▁knife	-12.491
/18/2014	-12.491
mercedes	-12.491
▁1:59:2	-12.491
myanmar	-12.491
▁composite	-12.491
▁landscape	-12.491
▁prescription	-12.491
🌊	-12.491
pregunt	-12.491
▁presence	-12.491
▁ackman	-12.491
▁sweden	-12.491
▁nightmare	-12.491
▁utiliz	-12.491
💳	-12.491
madrid	-12.4911
whitney	-12.4911
▁enbrel	-12.4911
hustle	-12.4911
▁slammed	-12.4911
holmes	-12.4911
▁meanwhile	-12.4911
▁scratch	-12.4911
▁distribute	-12.4911
▁excitement	-12.4911
▁behavior	-12.4911
▁cotiza	-12.4911
▁tweak	-12.4911
battleground	-12.4911
▁telus	-12.4911
▁bulk	-12.4911
newsfeed	-12.4911
▁dallas	-12.4911
▁execute	-12.4911
▁optimism	-12.4911
hillary	-12.4911
▁citizen	-12.4911
▁context	-12.4911
▁hospital	-12.4911
▁emily	-12.4911
▁punch	-12.4911
▁strategically	-12.4911
▁aruba	-12.4911
▁suddenly	-12.4911
▁origination	-12.4911
▁ibdinvestors	-12.4911
▁adult	-12.4911
▁automate	-12.4911
▁batteries	-12.4911
▁persist	-12.4911
▁tinto	-12.4911
▁richard	-12.4911
▁hiding	-12.4911
▁energize	-12.4911
▁15:50	-12.4912
relax	-12.4912
▁abuse	-12.4912
/10/14	-12.4912
ajax	-12.4912
▁projections	-12.4912
boja	-12.4913
kirk	-12.4913
▁feedback	-12.4913
clark	-12.4913
prison	-12.4913
haunt	-12.4913
▁animation	-12.4913
▁senator	-12.4913
▁criticize	-12.4913
1.54%	-12.4913
▁designation	-12.4914
▁carplay	-12.4914
sphere	-12.4914
▁consistently	-12.4915
▁voor	-12.4915
▁lobby	-12.4915
▁disaster	-12.4915
caracas	-12.4915
▁happi	-12.4916
▁clash	-12.4916
▁familiar	-12.4916
▁suppose	-12.4916
▁associates	-12.4916
▁hurdle	-12.4916
luent	-12.4917
eadsy	-12.4917
puesto	-12.4917
▁$747	-12.4917
▁agricultura	-12.4918
▁nude	-12.4918
▁$459	-12.4919
▁renova	-12.492
leuk	-12.492
luster	-12.492
revive	-12.4921
▁verge	-12.4922
1.02	-12.4922
quantum	-12.4922
▁slice	-12.4922
▁greet	-12.4922
5.30	-12.4923
appstore	-12.4923
1.39	-12.4924
bxmt	-12.4924
▁accurately	-12.4924
section	-12.4925
mended	-12.4925
cohen	-12.4925
▁identi	-12.4925
yey	-12.4926
▁brace	-12.4927
▁lime	-12.4927
ezza	-12.4927
prp	-12.4928
qualifie	-12.4929
▁finger	-12.4929
▁speakers	-12.4929
▁wise	-12.4929
▁politics	-12.4929
▁neuroc	-12.493
icipate	-12.4931
pratt	-12.4932
▁gamestop	-12.4933
▁smell	-12.4933
shark	-12.4935
▁brave	-12.4935
hsba	-12.4936
ull	-12.4936
1.62%	-12.4937
nog	-12.4938
tails	-12.4939
▁prize	-12.494
viation	-12.4941
▁$195	-12.4941
senti	-12.4942
racing	-12.4943
▁exact	-12.4945
▁upfront	-12.4946
▁proven	-12.4947
snss	-12.4947
▁nuance	-12.4949
yz	-12.4949
▁cinc	-12.4949
amot	-12.495
llbo	-12.495
▁rankings	-12.4952
▁anytime	-12.4954
jaw	-12.4955
▁incorrect	-12.4955
+/-	-12.4956
inspire	-12.4957
▁finalize	-12.4959
▁myster	-12.496
▁sour	-12.4962
▁dave	-12.4964
notebook	-12.4965
▁premkt	-12.4966
adios	-12.4966
▁sleeping	-12.4967
wcp	-12.4967
▁publicly	-12.4968
omk	-12.4969
▁heck	-12.4972
▁ryan	-12.4973
▁$230	-12.4974
▁124	-12.4975
▁cray	-12.4978
▁shines	-12.4978
▁skip	-12.498
3.23	-12.4981
▁complaints	-12.4986
▁replacement	-12.4988
▁fate	-12.4988
1.22	-12.4988
sln	-12.4989
▁reck	-12.4992
airpo	-12.4994
▁tenc	-12.4996
revo	-12.4998
sexy	-12.4998
▁tanking	-12.4999
llen	-12.4999
dado	-12.5
▁smack	-12.5003
dreams	-12.5005
300	-12.5006
frsh	-12.5006
redg	-12.5008
cpg	-12.5008
rgv	-12.501
▁cpu	-12.5016
▁takeda	-12.5016
siness	-12.5019
▁econ	-12.5019
▁2006	-12.5021
▁speaking	-12.5025
wou	-12.5028
drum	-12.5028
azz	-12.5028
oneer	-12.5032
▁poke	-12.5032
tbtf	-12.5033
evaluate	-12.5034
▁245	-12.5034
▁longest	-12.5035
thof	-12.5036
▁connections	-12.5037
3.06	-12.5037
▁fires	-12.5037
▁cie	-12.5038
▁bode	-12.504
▁crossing	-12.5041
▁downloaded	-12.5042
jt	-12.5043
thus	-12.5047
candy	-12.5048
▁sharehold	-12.5049
bhe	-12.5051
fam	-12.5052
▁viewers	-12.5053
rin	-12.5055
dejo	-12.506
▁vaca	-12.5065
▁booming	-12.5066
0.72%	-12.5068
▁bigge	-12.5072
▁terminati	-12.5073
rden	-12.5084
eff	-12.5085
▁publicis	-12.5088
▁initiatives	-12.5088
▁124.	-12.509
▁wil	-12.5091
ewp	-12.5092
▁cvr	-12.5094
1.02%	-12.51
▁yor	-12.5101
ddt	-12.5104
venezuelan	-12.5106
▁linked	-12.5111
0.53	-12.5114
csx	-12.5118
▁sooner	-12.5119
control	-12.5121
▁simb	-12.5123
1.36	-12.5123
▁tease	-12.5132
55.00	-12.5141
40.00	-12.5142
stage	-12.5152
▁posi	-12.5153
▁tras	-12.5157
▁$74	-12.5159
eros	-12.5159
bsr	-12.5168
▁nano	-12.5169
▁9:0	-12.517
walk	-12.5171
olla	-12.5174
fnv	-12.5174
▁rational	-12.5174
fgen	-12.5178
mole	-12.5182
whisper	-12.5186
greek	-12.5186
→	-12.5186
brasil	-12.519
service	-12.519
target	-12.5192
step	-12.5195
level	-12.5195
0.7%	-12.5202
terrible	-12.5203
proposal	-12.5203
proof	-12.5207
emia	-12.5207
222	-12.5211
forbes	-12.5216
▁sponsors	-12.5217
conocophillips	-12.5218
default	-12.5218
trans	-12.5218
▁gut	-12.5219
nrf	-12.522
▁areas	-12.5221
4.05	-12.5222
extended	-12.5224
direction	-12.5224
▁88.	-12.5226
titan	-12.5226
▁handles	-12.5226
▁issu	-12.5229
368	-12.5235
tivo	-12.5237
▁pasand	-12.5244
▁-0.6	-12.5247
áv	-12.5247
picture	-12.525
▁edward	-12.5252
pva	-12.5253
0.15	-12.5257
force	-12.5257
kindle	-12.5257
cycle	-12.5259
housing	-12.526
connected	-12.5261
3:04	-12.5261
▁builds	-12.5266
▁$117	-12.5267
jos	-12.5268
piv	-12.527
frank	-12.527
hsbc	-12.527
manda	-12.5276
stuff	-12.5276
motorola	-12.5278
shopping	-12.5278
monster	-12.528
oneq	-12.5283
▁breath	-12.5284
leave	-12.5284
▁von	-12.5286
▁btd	-12.5291
baidu	-12.5291
search	-12.5291
canada	-12.5293
bern	-12.5294
▁(10	-12.5295
tww	-12.5296
bezos	-12.5297
bbc	-12.5297
mdw	-12.5298
324	-12.5299
development	-12.5299
▁unma	-12.53
zzz	-12.5301
crude	-12.5302
john	-12.5302
bounce	-12.5303
priceline	-12.5304
leading	-12.5305
broke	-12.5305
mination	-12.5307
enough	-12.5308
graphics	-12.5311
without	-12.5313
gift	-12.5316
avoid	-12.5325
strike	-12.5325
biggest	-12.5328
listen	-12.5328
launch	-12.5329
watchlist	-12.5332
mkto	-12.5334
6/14	-12.5336
gear	-12.5338
steve	-12.5338
switch	-12.5341
outlook	-12.5345
tiene	-12.5355
hern	-12.5356
stry	-12.5356
ş	-12.5357
jane	-12.5357
▁44.	-12.5358
são	-12.536
adve	-12.5362
around	-12.5364
▁227	-12.5369
downgrades	-12.5371
kind	-12.539
hopeful	-12.539
left	-12.5391
knd	-12.5397
goal	-12.5399
estimated	-12.5401
$400	-12.5403
sod	-12.5404
▁~2	-12.5405
▁cam	-12.5407
loan	-12.5409
oran	-12.5414
~(	-12.5414
move	-12.5417
rating	-12.5418
185	-12.5422
referen	-12.5424
hbo	-12.5426
asm	-12.5426
etp	-12.5437
▁edit	-12.5438
rally	-12.5441
▁weeklys	-12.5445
sdr	-12.5448
aisa	-12.5454
liable	-12.5455
pvc	-12.5458
lazar	-12.5464
▁rallying	-12.5467
said	-12.5474
▁thang	-12.5482
▁2$	-12.5482
arni	-12.5488
0.5	-12.5489
scote	-12.5492
▁!!"	-12.5495
ndi	-12.5497
▁manos	-12.5502
finl	-12.5513
▁costa	-12.5527
تا	-12.5547
expo	-12.5548
.03%	-12.5553
dard	-12.5555
erial	-12.5561
▁forces	-12.5562
▁sole	-12.5569
▁myth	-12.557
▁07:11:	-12.557
adc	-12.5571
1.15	-12.5574
pph	-12.5574
agile	-12.5575
saw	-12.5575
▁documents	-12.5579
ebr	-12.5586
station	-12.559
72%	-12.5595
accumulate	-12.5601
8.7	-12.5602
mnr	-12.5604
▁opt	-12.5608
pdl	-12.5613
vsb	-12.5615
▁fre	-12.5619
▁$77	-12.5621
mind	-12.5621
1.07	-12.5628
rman	-12.5628
▁-3%	-12.5632
▁feder	-12.5633
cool	-12.5634
9.6	-12.5651
▁عل	-12.5655
sciences	-12.5659
2.07	-12.5659
▁pie	-12.5661
anw	-12.5662
mente	-12.5666
palm	-12.5668
hw	-12.5675
2,1	-12.568
▁$49.	-12.5681
pointing	-12.5697
▁yg	-12.5703
mik	-12.5708
/26	-12.5713
brl	-12.5717
eev	-12.5719
▁6/2	-12.5726
,27	-12.5726
0.000.000	-12.5729
block	-12.5736
▁+0.12	-12.5738
▁bail	-12.574
ь	-12.575
▁graphic	-12.5755
▁watchmaker	-12.5781
newe	-12.5782
100,000	-12.5785
ripe	-12.5801
▁$0.6	-12.5807
▁celeb	-12.581
▁$64	-12.5816
bana	-12.5818
arca	-12.5824
tuk	-12.5829
gig	-12.5835
xperi	-12.5835
176	-12.5838
sys	-12.5843
р	-12.5847
▁+13	-12.5848
hhhh	-12.5848
0.25	-12.5858
▁boa	-12.5859
▁remov	-12.5859
ampe	-12.5864
.84	-12.5866
icad	-12.5866
4.7%	-12.5866
itor	-12.587
uan	-12.587
376	-12.5875
131	-12.5878
asy	-12.588
eft	-12.5881
fen	-12.5882
▁55-	-12.5884
يق	-12.5885
insta	-12.5886
istas	-12.589
kid	-12.5902
guid	-12.5905
tate	-12.5907
ista	-12.5912
1.000	-12.5915
▁diss	-12.5918
▁propos	-12.5923
please	-12.5933
rome	-12.5934
1.65	-12.5941
:00:07:2	-12.5943
▁midst	-12.5945
▁+29	-12.5949
mfc	-12.595
0.19	-12.595
▁mint	-12.5952
▁(+2	-12.5953
adv	-12.5969
323	-12.5977
/17/15	-12.598
:32	-12.5983
▁chri	-12.5987
5/15	-12.5998
.15%	-12.6
▁atlas	-12.6002
inform	-12.6004
gw	-12.6004
^{	-12.6011
▁rod	-12.6013
▁strangle	-12.6015
appy	-12.6016
▁resume	-12.6018
▁$126	-12.6018
▁connection	-12.6022
fmg	-12.6023
▁brokerage	-12.6023
ngd	-12.6024
.89%	-12.6026
span	-12.6026
1.12	-12.6033
▁prop	-12.6034
▁formal	-12.6037
/12/2014	-12.6038
0.92	-12.6039
▁headline	-12.6044
▁desp	-12.6052
testing	-12.6052
5.20	-12.6058
▁hacker	-12.606
67.5	-12.6066
bard	-12.607
mesh	-12.6075
fag	-12.6079
entr	-12.6081
107	-12.6088
rous	-12.6094
▁shits	-12.6095
▁provider	-12.6097
▁$3.9	-12.6097
eky	-12.6099
▁jam	-12.6099
▁leverage	-12.61
olv	-12.6104
▁(-0.0	-12.6106
▁evolv	-12.6107
▁redesign	-12.6109
pson	-12.6112
wine	-12.6114
▁sac	-12.6116
generat	-12.6118
alta	-12.6119
gem	-12.612
▁evolve	-12.6122
major	-12.6125
rdn	-12.6131
▁$54	-12.6131
het	-12.6131
▁chin	-12.6135
hunter	-12.6135
▁dismisse	-12.6136
632	-12.6137
▁polic	-12.6141
▁nacional	-12.6143
▁alarm	-12.6144
eases	-12.6147
eru	-12.6148
▁columb	-12.6148
▁batter	-12.6148
frg	-12.6151
ifon	-12.6152
oyi	-12.6154
▁consum	-12.6155
ificat	-12.6158
0.90	-12.616
▁cruci	-12.616
▁punish	-12.616
▁century	-12.616
ห	-12.616
ξ	-12.616
็	-12.616
👏	-12.616
enchufa	-12.616
continent	-12.616
▁clarity	-12.616
booyah	-12.616
counterfeit	-12.616
encouraging	-12.616
illinois	-12.616
luckyjimmy	-12.616
overwhelming	-12.616
testimonials	-12.616
whistle	-12.616
เห	-12.616
่า	-12.616
▁14:00:05:	-12.616
▁accelerating	-12.616
▁advaxis	-12.616
▁ahrendts	-12.616
▁appliance	-12.616
▁biotherapeutics	-12.616
▁coincidence	-12.616
▁dólar	-12.616
▁equinix	-12.616
▁fútbol	-12.616
▁governor	-12.616
▁helicopter	-12.616
▁kyprolis	-12.616
▁otherwise	-12.616
▁predecessor	-12.616
▁quebrada	-12.616
▁raytheon	-12.616
▁retention	-12.616
▁scientific	-12.616
▁sinopec	-12.616
▁spreadsheet	-12.616
mirror	-12.616
▁9:59:2	-12.616
▁vmware	-12.616
¥£€	-12.616
▁asleep	-12.616
▁corbat	-12.616
▁fossil	-12.616
▁passwords	-12.616
▁samuel	-12.616
augmented	-12.616
qihoo	-12.616
▁column	-12.616
▁jersey	-12.616
▁kingdmc	-12.616
▁mulally	-12.616
▁cierre	-12.616
▁divergence	-12.616
▁headache	-12.616
▁turbo	-12.616
emoji	-12.616
▁abandon	-12.616
:**:.	-12.616
▁roadmap	-12.616
▁+2.67%	-12.6161
▁nordic	-12.6161
▁urban	-12.6161
صف	-12.6161
▁kroger	-12.6161
▁relieve	-12.6161
です	-12.6161
на	-12.6161
▁muscle	-12.6161
▁dedicate	-12.6161
accumulation	-12.6161
▁sunshine	-12.6161
▁vacation	-12.6161
▁recept	-12.6161
▁retiring	-12.6161
relationship	-12.6161
▁bolster	-12.6161
▁corning	-12.6161
▁-1.03	-12.6161
▁08:02	-12.6161
tinib	-12.6161
▁país	-12.6161
▁frontier	-12.6161
▁wiki	-12.6161
odys	-12.6161
fusion	-12.6161
sentifi	-12.6161
▁identity	-12.6161
▁fading	-12.6161
wilson	-12.6161
▁composition	-12.6161
▁stimulus	-12.6161
flipboard	-12.6161
kidney	-12.6161
▁parity	-12.6162
▁rescue	-12.6162
▁promotion	-12.6162
▁ingreso	-12.6162
▁johncm	-12.6162
▁cnnmoney	-12.6162
cruz	-12.6162
▁brutal	-12.6162
▁sauce	-12.6162
definitive	-12.6162
▁$110.00	-12.6162
▁nominate	-12.6162
▁nepal	-12.6163
encryption	-12.6163
▁blackstone	-12.6163
▁radical	-12.6163
▁educaci	-12.6163
▁blackrock	-12.6163
▁suicide	-12.6163
▁addict	-12.6163
▁trippy	-12.6164
▁alumin	-12.6164
▁nicolas	-12.6164
2.80	-12.6164
disappointment	-12.6165
▁kickback	-12.6165
▁jetblue	-12.6165
▁bearishness	-12.6165
▁1990	-12.6166
zgnx	-12.6166
stein	-12.6166
nuity	-12.6166
▁1929	-12.6166
▁8.1	-12.6166
▁steer	-12.6167
▁negotiation	-12.6167
hysteri	-12.6167
infosec	-12.6167
▁1998	-12.6167
▁fait	-12.6167
7/16	-12.6168
hulu	-12.6168
pfpt	-12.6168
dreamwork	-12.6169
▁unlike	-12.6169
▁suitor	-12.6169
▁roof	-12.6169
▁annoying	-12.6169
▁interesa	-12.617
lemon	-12.617
▁obsess	-12.617
▁merry	-12.6171
▁emisoras	-12.6171
▁scientists	-12.6171
99%	-12.6172
▁percentage	-12.6172
sweat	-12.6172
333	-12.6172
▁conden	-12.6172
/17/2015	-12.6172
▁clothes	-12.6173
lstr	-12.6173
▁svp	-12.6173
▁remot	-12.6174
draft	-12.6174
/21/14	-12.6175
affiliate	-12.6175
2.99	-12.6175
▁paris	-12.6176
▁barrier	-12.6176
▁plead	-12.6177
bobe	-12.6177
patriot	-12.6178
▁haters	-12.6178
▁compact	-12.6178
▁الدو	-12.6178
▁shakeup	-12.6179
▁divest	-12.618
▁0-4	-12.6182
ceuti	-12.6183
7.96	-12.6184
▁lawmaker	-12.6184
rcii	-12.6184
dir	-12.6185
▁hatch	-12.6186
▁shocked	-12.6187
▁+3.5	-12.6188
▁somebody	-12.6188
hwest	-12.6188
kept	-12.6189
kyo	-12.6189
▁makeover	-12.6189
▁volta	-12.619
edison	-12.619
12,000	-12.6191
▁39.3	-12.6191
umpq	-12.6192
complex	-12.6192
nasda	-12.6193
▁peco	-12.6193
glog	-12.6194
▁worker	-12.6194
nseh	-12.6196
▁nuestr	-12.6196
▁shocking	-12.6196
7.7	-12.6196
▁stranger	-12.6198
▁burned	-12.6198
▁yung	-12.6199
▁approx	-12.62
golia	-12.62
850	-12.62
ghost	-12.6202
1.62	-12.6203
leo	-12.6203
pence	-12.6205
▁emotional	-12.6206
▁crashes	-12.6206
assy	-12.6208
▁novel	-12.6208
1/14	-12.6208
▁antibiotics	-12.6209
▁insurers	-12.6209
▁cavi	-12.6209
▁occurre	-12.621
▁2.8%	-12.621
applemusic	-12.6213
▁580	-12.6219
▁sobre	-12.6219
▁entrepreneurs	-12.6219
ebol	-12.6221
73%	-12.6222
▁cnet	-12.6224
▁tactics	-12.6228
▁mood	-12.623
tus	-12.6235
2.86	-12.6236
më	-12.6238
▁christo	-12.6238
▁removed	-12.6239
▁$98	-12.6239
donate	-12.624
▁landing	-12.6243
▁avec	-12.6244
▁ampli	-12.6244
eww	-12.6245
▁accepted	-12.6246
disclosed	-12.6247
▁climbing	-12.6247
▁yep	-12.625
▁fighter	-12.625
▁jose	-12.6251
▁mgmt	-12.6252
▁weaker	-12.6254
nee	-12.6254
▁allowed	-12.6255
▁tear	-12.6255
pall	-12.6263
trix	-12.6263
48%	-12.6265
▁damages	-12.6266
7.40	-12.6267
▁sinking	-12.6267
hyped	-12.6269
broad	-12.627
▁cheat	-12.6272
grw	-12.6272
ike	-12.6274
▁desk	-12.6276
inked	-12.6285
yó	-12.6285
rse	-12.6288
axe	-12.6289
synthes	-12.6291
0.74	-12.6292
2.61	-12.6293
1.87	-12.6293
▁1.1	-12.6294
iente	-12.6298
▁ova	-12.6301
1+	-12.6302
brent	-12.6302
▁resumes	-12.6305
▁kath	-12.6305
7.14	-12.6311
!!!!!!!!	-12.6312
▁10:03:2	-12.6314
▁750	-12.6316
hasi	-12.6317
▁gpu	-12.6317
1,73	-12.6322
5.75	-12.6322
▁propa	-12.6323
sanm	-12.6324
pcg	-12.6324
tanha	-12.6326
▁overpay	-12.6326
▁macy	-12.6328
▁esto	-12.6329
ы	-12.6332
▁viaja	-12.6334
mai	-12.6335
rising	-12.6337
auth	-12.6339
▁dies	-12.6341
▁$87.	-12.6341
stc	-12.6342
▁browsers	-12.6344
▁26.2	-12.6345
▁career	-12.6345
ayer	-12.6348
9%)	-12.6364
barri	-12.6368
gern	-12.6369
akti	-12.6374
▁diet	-12.6374
▁demo	-12.6375
gud	-12.6375
ان	-12.6377
mbl	-12.6379
habi	-12.6382
beau	-12.6384
▁ramps	-12.6384
uu	-12.6386
▁deudas	-12.6389
▁officials	-12.6389
▁comi	-12.6391
▁exiting	-12.6398
fend	-12.6404
▁corin	-12.6411
indi	-12.6412
▁$3.3	-12.6413
mdco	-12.6421
▁$74.6	-12.6424
issan	-12.6428
▁deleti	-12.6429
369	-12.6433
ington	-12.6435
▁booking	-12.6441
longterm	-12.6442
stev	-12.6449
ixy	-12.6452
100.00	-12.6458
rke	-12.6458
oxi	-12.6458
95.00	-12.646
▁shall	-12.646
187	-12.6467
cupe	-12.6468
308	-12.647
mits	-12.647
enido	-12.6474
3%,	-12.6474
▁external	-12.6479
▁regions	-12.6479
▁2012.	-12.648
ranking	-12.648
▁bucks	-12.6482
9300	-12.6482
▁manag	-12.6483
:00:07:	-12.6483
cyt	-12.6484
elec	-12.6493
يع	-12.6493
tren	-12.6496
▁muj	-12.6498
icipa	-12.6499
encia	-12.6503
anza	-12.6505
▁sands	-12.6507
▁cardi	-12.6509
acr	-12.6509
otm	-12.6511
awr	-12.6527
..........	-12.6529
cjt	-12.6529
klar	-12.653
▁infin	-12.653
jay	-12.6532
laid	-12.6536
▁-200	-12.6541
socialf	-12.6541
▁boo	-12.6542
upo	-12.6547
▁74.	-12.6551
007	-12.6554
011	-12.656
wmc	-12.6566
▁doce	-12.6566
▁cri	-12.6568
udi	-12.6579
。.	-12.6579
rgen	-12.6579
0.04%	-12.658
ngo	-12.658
▁esperan	-12.659
grf	-12.659
▁slumps	-12.6601
▁assum	-12.661
▁vend	-12.6616
▁01:07:0	-12.6617
uve	-12.6625
5.70	-12.6628
▁intre	-12.663
к	-12.664
▁$9,	-12.6642
rav	-12.6647
▁(-1.	-12.6648
leanin	-12.6652
rell	-12.6654
▁sara	-12.6654
ço	-12.6654
235	-12.6659
0.33	-12.6661
▁2.2	-12.6661
otaron	-12.6662
lee	-12.6673
alj	-12.6674
lgar	-12.6676
▁wipe	-12.668
▁proves	-12.6682
384	-12.6689
omo	-12.669
▁nvi	-12.6717
▁segments	-12.6723
svu	-12.6724
775	-12.6729
rubi	-12.6733
:63	-12.6734
▁illustrate	-12.6737
ized	-12.6741
▁211	-12.6745
igv	-12.6745
▁coz	-12.6755
ailing	-12.6756
▁enroll	-12.6767
fran	-12.6771
3.9%	-12.6777
▁unions	-12.6791
canal	-12.6797
▁mala	-12.6804
vec	-12.6809
nuc	-12.6809
27%	-12.6812
757	-12.6817
accel	-12.6818
jj	-12.6822
ahf	-12.6833
layn	-12.6833
=$	-12.6843
285	-12.6875
1.92	-12.6878
0.82%	-12.6879
35.8	-12.6887
$11	-12.6888
▁6000	-12.6895
rnt	-12.6901
=29.	-12.6904
^#	-12.6904
▁+8.	-12.6905
▁fools	-12.6906
▁450	-12.6912
▁pose	-12.6917
▁pare	-12.6923
🔥🔥🔥🔥	-12.6932
lant	-12.6945
1.40	-12.695
organ	-12.695
wac	-12.6952
-7.	-12.6954
ré	-12.696
hmmmm	-12.6963
/28/2014	-12.6965
roda	-12.6966
▁letters	-12.697
▁boon	-12.6971
▁hota	-12.6973
$*	-12.6977
amz	-12.6979
onne	-12.6979
aber	-12.698
▁rout	-12.6985
wir	-12.6992
▁engines	-12.6995
dì	-12.6997
▁unch	-12.701
462	-12.7011
▁bust	-12.7011
.78%	-12.7014
▁owning	-12.7018
pointed	-12.7022
730	-12.7023
vido	-12.7026
waiting	-12.7038
cef	-12.708
qual	-12.7081
هد	-12.709
▁tier	-12.7095
eeeee	-12.71
221	-12.7111
▁1300	-12.7112
manipulate	-12.7113
aix	-12.7117
17%	-12.7121
8.06	-12.7125
▁laws	-12.7131
4.47	-12.7135
viewed	-12.714
8.98	-12.7158
▁electro	-12.7163
1.39%	-12.7167
tso	-12.7169
▁(5/	-12.717
ecen	-12.7171
breast	-12.718
spotify	-12.718
spinoff	-12.718
threat	-12.7184
system	-12.7184
10.5	-12.719
255	-12.7192
small	-12.7197
▁var	-12.7199
alia	-12.7201
uv	-12.7207
truth	-12.7208
▁absurd	-12.7208
▁2016.	-12.7209
.04%	-12.7209
handle	-12.7209
rugge	-12.721
normal	-12.721
▁$1,000,000	-12.7218
▁receiv	-12.7221
💎	-12.7221
angle	-12.7223
movie	-12.7224
successful	-12.7224
germany	-12.7227
lado	-12.7237
travel	-12.7241
twitch	-12.7244
▁$106	-12.7245
basic	-12.7248
computing	-12.7249
▁$83	-12.7251
machine	-12.7252
lending	-12.7252
.43%	-12.7254
52%	-12.7259
eme	-12.7262
funny	-12.7265
ayo	-12.7269
quest	-12.727
tobacco	-12.7273
▁outlin	-12.7274
******	-12.7276
🚶#	-12.7278
93.5	-12.728
inp	-12.728
/23/15	-12.7281
defense	-12.7283
advantage	-12.7284
alstom	-12.7284
secure	-12.729
galaxy	-12.7293
effect	-12.7294
supply	-12.7294
carefully	-12.7295
rojo	-12.7298
airlines	-12.7304
pdvsa	-12.7305
janet	-12.7305
flash	-12.7306
crisis	-12.7306
deep	-12.7306
range	-12.7306
wait	-12.7306
south	-12.7308
383	-12.7309
platform	-12.731
1.26	-12.731
pricing	-12.7311
white	-12.7312
pretty	-12.7313
wild	-12.7313
cyber	-12.7314
natural	-12.7314
project	-12.7314
nothing	-12.7315
extreme	-12.7317
always	-12.7317
zuckerberg	-12.7318
second	-12.7318
believe	-12.7319
learning	-12.7324
resistance	-12.7325
▁$2.4	-12.7325
network	-12.7329
llon	-12.733
$$$$$$$$$$	-12.733
taxes	-12.733
index	-12.733
bds	-12.7333
proct	-12.7336
خ	-12.734
baby	-12.7346
break	-12.7347
morgan	-12.7348
▁$590	-12.7349
▁isps	-12.7351
valuation	-12.7351
rba	-12.7351
lef	-12.7353
match	-12.7361
activ	-12.7361
▁legs	-12.7363
▁claus	-12.7364
soda	-12.7366
dor	-12.7368
falling	-12.7369
2.7%	-12.7371
9.36	-12.7372
momo	-12.7372
three	-12.7372
record	-12.7378
below	-12.738
gooo	-12.738
medical	-12.7386
▁expir	-12.739
idu	-12.7404
impo	-12.7405
argentina	-12.741
mtu	-12.7411
▁investigat	-12.7416
leaps	-12.7417
sharing	-12.7426
▁jae	-12.7431
base	-12.7431
lfd	-12.7435
▁10:11:	-12.7437
argentin	-12.7438
jef	-12.7442
936	-12.7442
2.000	-12.7444
▁commitment	-12.7444
(*	-12.7452
▁(+1	-12.7453
▁70.7	-12.7459
tanh	-12.7465
suck	-12.7469
▁takeaway	-12.7471
psl	-12.7472
systems	-12.7479
dress	-12.7496
▁chop	-12.7497
770	-12.7498
icipating	-12.7505
▁(+0.6	-12.7507
▁loom	-12.7511
marginal	-12.7514
▁servic	-12.7516
0.0%	-12.7531
7.77	-12.7535
mike	-12.7535
▁$5.8	-12.7537
celebrit	-12.7541
▁stretch	-12.7545
:-1.1	-12.7545
▁08:	-12.755
0.73	-12.7555
▁tail	-12.7555
retwee	-12.7557
▁adjust	-12.756
▁emerge	-12.7563
select	-12.7565
▁involve	-12.7568
▁battl	-12.7569
▁integrate	-12.7569
$$$$$$	-12.7572
▁object	-12.7573
9.47	-12.7573
▁tend	-12.7575
large	-12.7577
muzik	-12.7578
▁90.	-12.7579
positioning	-12.7579
statin	-12.7579
▁republic	-12.7582
▁moderate	-12.7585
▁encrypt	-12.7586
▁05:00	-12.7588
ップ	-12.7588
▁retrace	-12.7588
▁contain	-12.7589
▀	-12.7589
ambitious	-12.7589
cyberattack	-12.7589
disappear	-12.7589
manhattan	-12.7589
registration	-12.7589
risperdal	-12.7589
synchron	-12.7589
techniques	-12.7589
vitór	-12.7589
▁$005930	-12.7589
▁03:07:1	-12.7589
▁06:59:2	-12.7589
▁acknowledge	-12.7589
▁anadarko	-12.7589
▁bakken	-12.7589
▁bombardier	-12.7589
▁chrysler	-12.7589
▁compañía	-12.7589
▁distributor	-12.7589
▁district	-12.7589
▁domestic	-12.7589
▁efecto	-12.7589
▁emirates	-12.7589
▁expenditure	-12.7589
▁families	-12.7589
▁fascinating	-12.7589
▁governance	-12.7589
▁gundlach	-12.7589
▁hawaii	-12.7589
▁leerink	-12.7589
▁macintosh	-12.7589
▁maverick	-12.7589
▁mcnamee	-12.7589
▁misunderstood	-12.7589
▁neighborhood	-12.7589
▁principal	-12.7589
▁renaissance	-12.7589
▁resubmit	-12.7589
▁thieves	-12.7589
clinton	-12.7589
lawrence	-12.7589
▁09:25:04:	-12.7589
▁disagree	-12.7589
▁juniper	-12.7589
▁philadelphia	-12.7589
▁stabilize	-12.7589
velcade	-12.7589
น้	-12.7589
▁09:07:1	-12.7589
▁errors	-12.7589
▁sandridge	-12.7589
▁understood	-12.7589
shuffle	-12.7589
destruct	-12.7589
▁6:59:2	-12.7589
▁fwiw	-12.7589
houston	-12.7589
▁journalism	-12.7589
lnvgy	-12.7589
▁chocolate	-12.7589
phablet	-12.7589
▁$48.5	-12.7589
▁endeuda	-12.7589
▁telegraph	-12.7589
▁2:03:1	-12.7589
bruin	-12.7589
▁fireworks	-12.7589
▁tailwind	-12.7589
▁4:59:2	-12.7589
▁commence	-12.7589
▁oregon	-12.7589
▁vwap	-12.7589
▁engaged	-12.7589
▁opentable	-12.7589
implant	-12.7589
beijing	-12.7589
>+2.	-12.7589
comunista	-12.7589
▁retroce	-12.7589
▁backlash	-12.7589
▁screaming	-12.7589
▁walgreens	-12.7589
▁9/18	-12.7589
deflation	-12.7589
aaww	-12.7589
hashtag	-12.7589
dissect	-12.7589
▁5:59:2	-12.7589
derecho	-12.7589
▁himself	-12.7589
▁praise	-12.7589
affair	-12.7589
inevitable	-12.7589
▁hurd	-12.7589
▁monetization	-12.7589
▁mouse	-12.7589
▁9:03:1	-12.759
solicitation	-12.759
▁defect	-12.759
▁supervisor	-12.759
▁thermostat	-12.759
ozrk	-12.759
nugget	-12.759
▁institutions	-12.759
▁repair	-12.759
▁consumable	-12.759
132013	-12.759
▁13:33	-12.759
creative	-12.759
▁chowd	-12.759
blessed	-12.759
10:29	-12.759
る	-12.759
duration	-12.759
▁webpage	-12.759
▁warehouse	-12.759
▁4:30	-12.759
▁1987	-12.759
devastat	-12.759
▁10:03:1	-12.759
▁scottish	-12.759
hiphop	-12.759
▁comerica	-12.7591
▁wendy	-12.7591
▁saturn	-12.7591
▁ultimo	-12.7591
▁wheaton	-12.7591
▁varco	-12.7591
▁arista	-12.7591
cardiac	-12.7591
▁railway	-12.7591
quiz	-12.7591
▁subway	-12.7591
▁advancement	-12.7591
▁prompt	-12.7591
▁9/11	-12.7591
lucent	-12.7591
▁+1.2%	-12.7591
▁7:11:	-12.7591
▁illumina	-12.7592
▁potash	-12.7592
▁profes	-12.7592
▁requirement	-12.7592
▁sneak	-12.7592
castle	-12.7592
▁$0.54	-12.7592
▁healthier	-12.7592
lear	-12.7592
▁fondo	-12.7592
▁igual	-12.7593
▁cerradas	-12.7593
▁poache	-12.7593
doubtful	-12.7593
▁blogger	-12.7593
innovate	-12.7593
▁euphoria	-12.7593
▁47.5	-12.7593
▁endpoint	-12.7594
▁connector	-12.7594
▁obliga	-12.7594
▁05/23/201	-12.7595
▁glim	-12.7595
virginia	-12.7595
▁trabaj	-12.7595
▁$0.03	-12.7595
▁mouth	-12.7595
oty	-12.7595
▁blair	-12.7596
▁spare	-12.7596
▁7-1	-12.7596
▁printers	-12.7596
muzikkzo	-12.7596
ratchet	-12.7597
▁0.5%	-12.7597
1993	-12.7597
▁$0.63	-12.7597
▁flagging	-12.7597
asia	-12.7598
jesus	-12.7598
bench	-12.7598
didas	-12.7598
قط	-12.7599
▁spree	-12.7599
▁frustrating	-12.7599
▁bullshit	-12.7599
ironor	-12.7599
▁misleading	-12.7599
▁charli	-12.76
▁$245	-12.76
onera	-12.76
2040	-12.76
unbelievable	-12.76
££	-12.76
depress	-12.76
▁*""	-12.76
aught	-12.7601
▁explosion	-12.7601
▁unlock	-12.7602
▁$231	-12.7602
▁يست	-12.7602
fucc	-12.7603
▁amaz	-12.7603
▁animat	-12.7603
▁opec	-12.7603
1/30/14	-12.7603
varian	-12.7604
▁07/11/201	-12.7604
▁formation	-12.7604
▁manual	-12.7605
baker	-12.7605
▁intact	-12.7605
illest	-12.7606
pqy	-12.7606
eej	-12.7606
▁illuminate	-12.7606
breakingnews	-12.7607
▁elevat	-12.7607
anger	-12.7607
fraz	-12.7607
▁piss	-12.7607
▁$178	-12.7608
▁pissed	-12.7608
3.95	-12.7609
allegedly	-12.7609
icious	-12.7609
ída	-12.7611
madmoney	-12.7611
▁ruin	-12.7611
▁2015012	-12.7611
▁comedy	-12.7611
▁viewpoint	-12.7612
▁separate	-12.7612
▁align	-12.7612
▁nhod	-12.7613
rica	-12.7613
skul	-12.7614
▁تح	-12.7614
💯💯💯	-12.7614
▁-0.95%	-12.7615
▁looming	-12.7616
renewal	-12.7617
disruption	-12.7617
dior	-12.7618
1.67	-12.7618
▁settl	-12.7618
▁biologics	-12.762
▁twi	-12.762
▁claw	-12.762
aviv	-12.762
▁$155	-12.7622
mela	-12.7622
▁purposes	-12.7622
followback	-12.7624
▁beware	-12.7624
▁10:42	-12.7625
fina	-12.7626
▁whack	-12.7627
diamond	-12.7628
▁milan	-12.7628
6.37	-12.7628
harmoni	-12.7629
▁6,6	-12.763
▁tea	-12.763
▁giz	-12.763
▁setback	-12.7631
6/6	-12.7632
▁flock	-12.7633
▁kidding	-12.7634
▁incentive	-12.7634
katy	-12.7634
▁opera	-12.7635
amkr	-12.7635
parece	-12.7636
afte	-12.7636
tique	-12.7638
▁teacher	-12.7639
polar	-12.764
attu	-12.7643
▁petro	-12.7643
▁hunters	-12.7644
sting	-12.7644
▁dud	-12.7646
▁nowhere	-12.7646
▁passes	-12.7647
▁1/31	-12.7647
ntage	-12.7648
vzla	-12.7648
▁burning	-12.7649
130.00	-12.765
▁roller	-12.765
▁entregar	-12.7653
▁-300	-12.7653
1.23	-12.7653
▁franc	-12.7655
luxe	-12.7656
ome	-12.7658
▁gadgets	-12.7658
▁dry	-12.7658
leveraged	-12.7659
▁typo	-12.7662
nsav	-12.7662
▁2015061	-12.7662
videogame	-12.7664
akt	-12.7664
▁acct	-12.7664
loyd	-12.7664
▁revisions	-12.7668
▁safra	-12.7668
girl	-12.767
▁conditions	-12.7671
5.79	-12.7672
▁task	-12.7674
▁denied	-12.7674
▁cada	-12.7674
iopharm	-12.7674
dax	-12.7674
renn	-12.7678
znh	-12.7678
▁positively	-12.768
▁correcting	-12.7681
istic	-12.7682
▁sticking	-12.7685
clap	-12.7685
tmus	-12.769
84.00	-12.769
saas	-12.7691
▁retires	-12.7692
vich	-12.7692
▁expires	-12.7693
harry	-12.7693
▁entregad	-12.7694
▁5/7	-12.7694
ufa	-12.7696
▁lcz	-12.77
91%	-12.77
compli	-12.7705
л	-12.7706
algotrad	-12.7706
▁stumbles	-12.771
▁emotions	-12.7713
▁prici	-12.7713
stige	-12.7716
▁vot	-12.7716
-11-	-12.7724
▁sane	-12.7725
iva	-12.7727
▁lure	-12.7727
enti	-12.773
zq	-12.7732
3.5%	-12.7733
hula	-12.7737
:-0.8	-12.774
2.1%	-12.7741
leaf	-12.7746
▁2004	-12.7747
bax	-12.7752
▁mili	-12.7761
netw	-12.7762
scalping	-12.7763
▁trash	-12.7764
▁tlm	-12.7764
▁cres	-12.7767
epr	-12.777
hld	-12.7774
lowering	-12.7776
▁quie	-12.7776
fallon	-12.7783
▁authorit	-12.7786
riv	-12.7786
9.95	-12.7786
▁estado	-12.7794
dari	-12.7795
weighted	-12.7795
ques	-12.7799
dji	-12.7801
$0.5	-12.7803
rolling	-12.7804
▁admits	-12.7805
▁sali	-12.7806
▁mild	-12.781
payers	-12.781
olympics	-12.7815
elan	-12.7815
▁astra	-12.7816
auri	-12.7818
▁assist	-12.7818
+0.74%	-12.782
otov	-12.782
▁dash	-12.782
▁fave	-12.782
getting	-12.782
iness	-12.7822
▁slight	-12.7822
▁committ	-12.7823
nwn	-12.7825
0.75	-12.7827
4.29	-12.7828
lsa	-12.7829
▁3-5	-12.783
mental	-12.783
pee	-12.783
▁78.	-12.783
▁crashing	-12.7841
listed	-12.7841
▁investigate	-12.7841
▁omg	-12.7842
cta	-12.7843
**$*	-12.7844
▁$23.	-12.7844
zoom	-12.7847
eka	-12.7848
▁9:03:2	-12.7849
▁replaced	-12.7864
▁só	-12.7867
▁100.2	-12.787
cnn	-12.787
▁+0.36	-12.7873
0.46	-12.7876
riches	-12.7876
ounge	-12.7877
beta	-12.7879
bdc	-12.7885
0.000	-12.7886
uje	-12.7888
lton	-12.789
$"	-12.7894
▁5.2	-12.7894
laga	-12.7895
▁scams	-12.7895
439	-12.7898
▁06:11:	-12.7898
▁laun	-12.7899
likea	-12.7901
1.34	-12.7903
▁decom	-12.7904
▁08:4	-12.7906
mbr	-12.7908
3.77	-12.7917
▁rope	-12.7917
▁guarantees	-12.7918
▁burns	-12.7918
neil	-12.7919
2.27	-12.7921
hiv	-12.7921
▁coil	-12.7924
490	-12.7927
ggle	-12.793
aaon	-12.7932
ooooo	-12.7932
8.11	-12.7937
▁payouts	-12.7941
warna	-12.7941
5.50	-12.7941
▁$705	-12.7944
992	-12.7953
▁64%	-12.796
▁fanni	-12.7961
▁cow	-12.7964
▁flipp	-12.7966
cake	-12.7967
204	-12.7971
▁dose	-12.7975
kov	-12.7977
ewis	-12.7981
▁7/1	-12.7986
▁clues	-12.7988
phir	-12.7995
chase	-12.7996
▁vou	-12.7996
uddy	-12.8
morr	-12.8006
té	-12.8007
▁secondar	-12.801
hoff	-12.802
▁$110.	-12.8023
ullo	-12.8025
▁cab	-12.8027
3.30	-12.8031
mails	-12.8032
rough	-12.8032
1.600	-12.8034
rats	-12.8038
?????	-12.8057
662	-12.8059
))))	-12.8063
▁agios	-12.807
0.56	-12.8075
▁nash	-12.8083
fred	-12.8086
alv	-12.809
3.10	-12.8091
0.8%	-12.8091
▁charm	-12.8095
umn	-12.8097
▁micros	-12.8097
ominou	-12.8099
aibi	-12.8099
▁baru	-12.81
1.37	-12.8101
▁winters	-12.8103
atus	-12.8106
itters	-12.8107
218	-12.811
abm	-12.811
▁plann	-12.8114
enter	-12.8115
counting	-12.812
aut	-12.813
▁qtrs	-12.813
0.13	-12.8135
209	-12.8136
▁bother	-12.8137
▁freak	-12.814
mamo	-12.8142
fsp	-12.8145
amber	-12.8146
▁$130.	-12.8149
▁const	-12.815
▁basics	-12.8151
payday	-12.8151
gress	-12.8155
3.11%	-12.816
▁3/2	-12.8173
▁doubts	-12.8175
▁lawyers	-12.8176
ider	-12.8177
3.15	-12.8178
rick	-12.8183
▁searching	-12.8189
:59	-12.819
iez	-12.819
▁corr	-12.8191
▁#850	-12.8191
-52	-12.8204
وا	-12.8206
1.28	-12.8212
éco	-12.8213
envi	-12.8213
▁2-3	-12.8218
ango	-12.8221
rxc	-12.8222
▁conduct	-12.8238
gary	-12.8238
▁masters	-12.8242
الن	-12.8244
wja	-12.8251
▁egg	-12.8253
ensa	-12.8255
stand	-12.8263
▁cit	-12.8264
ingle	-12.8264
cfm	-12.8264
▁zones	-12.8274
▁grip	-12.8275
▁.40	-12.8279
logic	-12.8289
gome	-12.8289
▁disco	-12.8289
ué	-12.8301
pci	-12.8302
41%	-12.8306
▁+0.6	-12.8312
strp	-12.832
▁muni	-12.8331
bach	-12.8332
479	-12.8336
miento	-12.8341
hear	-12.8344
▁242	-12.8344
▁-1.9	-12.8346
2014)	-12.8349
1:30	-12.835
829	-12.8351
▁ruth	-12.8365
.25,	-12.8368
▁lowes	-12.8373
8.2%	-12.8373
ogen	-12.8383
cove	-12.8385
▁timely	-12.8386
5.03	-12.8391
▁bath	-12.8393
▁types	-12.8394
▁goste	-12.8395
1.19	-12.8413
unemploy	-12.8421
▁palme	-12.8423
gz	-12.8426
1.20	-12.843
entra	-12.8436
........	-12.8448
jer	-12.8465
kwk	-12.8474
shoes	-12.8476
▁lacks	-12.8484
untu	-12.8486
ager	-12.8491
bara	-12.8492
▁eyed	-12.8499
iglo	-12.8508
amente	-12.851
hail	-12.8524
▁bars	-12.8533
note	-12.8537
placed	-12.8538
190	-12.8538
139	-12.8543
-2%	-12.8546
edition	-12.8553
292	-12.8561
▁(3/	-12.8578
▁coat	-12.8584
0.22%	-12.8584
▁05:07:	-12.8609
▁impe	-12.8609
4%)	-12.861
▁-0.34	-12.8612
signing	-12.8621
gman	-12.8626
:53	-12.8628
rby	-12.8642
▁meal	-12.8642
nwt	-12.8647
▁cud	-12.8647
ddle	-12.8653
oone	-12.8659
▁comple	-12.8668
344	-12.8671
boro	-12.8676
▁gall	-12.8677
+21%	-12.8683
tudo	-12.8685
:52	-12.8686
aham	-12.8687
raw	-12.8693
▁divi	-12.8694
ugly	-12.8695
▁283	-12.8713
342	-12.8715
695	-12.8731
▁bé	-12.874
-25	-12.8747
/16/2014	-12.8757
)))	-12.8759
▁adopt	-12.8767
rnf	-12.8769
sero	-12.8773
▁plz	-12.8781
1.01	-12.8791
efn	-12.8791
▁$113	-12.8795
179	-12.8796
2.10	-12.881
ough	-12.8819
eeze	-12.882
2.11	-12.8854
▁exercise	-12.8855
abi	-12.8856
▁hamb	-12.8858
aez	-12.8858
▁7:1	-12.8862
425	-12.8867
mau	-12.8871
▁paint	-12.8879
6.92	-12.888
virus	-12.888
▁rely	-12.8905
funk	-12.8915
▁ple	-12.8924
cover	-12.8924
74%	-12.8936
solved	-12.8944
63.5	-12.8945
avid	-12.8946
rjet	-12.8948
signaling	-12.8951
lge	-12.8962
▁asus	-12.8963
unitedhealth	-12.8965
▁315	-12.8976
imos	-12.8985
▁1800	-12.8995
entes	-12.9014
▁weeeee	-12.9015
▁salid	-12.9015
erá	-12.9027
indra	-12.9032
rè	-12.9038
usse	-12.9046
pples	-12.9047
▁emotion	-12.905
▁gapp	-12.9063
2.12	-12.907
▁77.5	-12.9082
▁synthe	-12.9088
▁carg	-12.9094
10.00	-12.9097
▁$133	-12.9103
vus	-12.9107
taxi	-12.9107
9:30	-12.9113
ility	-12.9113
▁deposit	-12.9114
▁damage	-12.9114
enters	-12.9117
▁practice	-12.9117
hacer	-12.9118
2.93	-12.912
▁vector	-12.9121
biomed	-12.9123
btz	-12.9123
3.3	-12.9129
▁resource	-12.9132
elo	-12.9133
2.40	-12.9133
1.63	-12.9133
2.6%	-12.9134
ole	-12.9134
▁pig	-12.9135
▁1.0	-12.9149
builder	-12.9151
▁7:07:	-12.9156
▁arrow	-12.9157
nalize	-12.9167
8.5%	-12.9173
▁$1.9	-12.9178
morrow	-12.9179
rico	-12.9182
57.	-12.919
▁1.05	-12.9207
671	-12.9207
aje	-12.921
▁weaken	-12.9219
▁advanc	-12.922
10/10	-12.9227
▁valid	-12.9229
tcn	-12.9237
allen	-12.9239
vé	-12.9243
▁controvers	-12.9243
<<	-12.9243
,36	-12.9247
1.78	-12.9249
detect	-12.9249
▁internacional	-12.925
▁chick	-12.9252
spirit	-12.9252
▁violat	-12.9255
って	-12.9255
cataly	-12.9255
••••	-12.9255
อยา	-12.9255
▁purpo	-12.9256
プ	-12.9256
⋆⋆⋆⋆⋆⋆⋆⋆⋆⋆⋆⋆⋆⋆⋆	-12.9256
▁negativity	-12.9256
abraxane	-12.9256
adequate	-12.9256
alimentos	-12.9256
blinatumomab	-12.9256
cosentyx	-12.9256
dimension	-12.9256
explicit	-12.9256
fastmoneymadness	-12.9256
ferguson	-12.9256
gambling	-12.9256
gimmick	-12.9256
mitsubishi	-12.9256
modular	-12.9256
slaughter	-12.9256
spectacular	-12.9256
treasure	-12.9256
worldemojiday	-12.9256
▁02:10:4	-12.9256
▁02:59:2	-12.9256
▁accident	-12.9256
▁alcatel	-12.9256
▁américa	-12.9256
▁automatic	-12.9256
▁boutique	-12.9256
▁brooklyn	-12.9256
▁carvalho	-12.9256
▁concessions	-12.9256
▁confess	-12.9256
▁discontinue	-12.9256
▁embedded	-12.9256
▁establish	-12.9256
▁exelixis	-12.9256
▁exploit	-12.9256
▁gorgeous	-12.9256
▁greenehugh	-12.9256
▁inclusion	-12.9256
▁individual	-12.9256
▁judgment	-12.9256
▁library	-12.9256
▁methodolog	-12.9256
▁miracle	-12.9256
▁mossberg	-12.9256
▁mozilla	-12.9256
▁narrative	-12.9256
▁nintendo	-12.9256
▁obligations	-12.9256
▁perusahaan	-12.9256
▁reynolds	-12.9256
▁siguiente	-12.9256
▁substantial	-12.9256
▁thompson	-12.9256
▁turquoise	-12.9256
/18/15	-12.9256
olysio	-12.9256
tafasdelchavismo	-12.9256
▁10:00:05:0	-12.9256
▁10:10:5	-12.9256
▁12:00:05:	-12.9256
▁biometric	-12.9256
▁conclusion	-12.9256
▁esperion	-12.9256
▁ganancias	-12.9256
▁5:11:0	-12.9256
▁pummel	-12.9256
▁sistema	-12.9256
crystal	-12.9256
ะเ	-12.9256
′′	-12.9256
▁anuncia	-12.9256
▁debacle	-12.9256
hippie	-12.9256
laundering	-12.9256
▁10:07:1	-12.9256
▁11/7/14	-12.9256
▁anthony	-12.9256
▁athletic	-12.9256
▁durable	-12.9256
▁epidemi	-12.9256
▁prestado	-12.9256
▁sliding	-12.9256
daughter	-12.9256
lightening	-12.9256
▁railroad	-12.9256
cubist	-12.9256
nevada	-12.9256
▁3:07:2	-12.9256
▁adwords	-12.9256
го	-12.9256
عود	-12.9256
▁categori	-12.9256
timeframe	-12.9256
นะ	-12.9256
blvck	-12.9256
ntdoy	-12.9256
▁10:07:0	-12.9256
▁beaumont	-12.9256
▁tillerson	-12.9256
glitch	-12.9256
marketmover	-12.9256
pervasi	-12.9256
▁والتوقع	-12.9256
▁necesita	-12.9256
▁plunging	-12.9256
radioshack	-12.9256
▁minuto	-12.9256
▁spiral	-12.9256
▁dinner	-12.9256
bendgate	-12.9256
▁demise	-12.9256
▁prosecutor	-12.9256
▁simplify	-12.9256
/21/15	-12.9256
fruit	-12.9256
▁compression	-12.9256
▁exhaustion	-12.9256
าย	-12.9256
▁reinforce	-12.9256
▁terminal	-12.9256
¿¿	-12.9256
👌👌	-12.9256
▁ascend	-12.9256
▁modification	-12.9256
▁testimon	-12.9256
▁colgate	-12.9256
linux	-12.9256
▁drunk	-12.9256
fukk	-12.9256
▁axiom	-12.9256
homeowner	-12.9256
timothysykes	-12.9256
▁juventu	-12.9256
ocul	-12.9256
▁gobble	-12.9256
astella	-12.9256
▁rightsmile	-12.9256
▁contractors	-12.9256
▁weapon	-12.9256
rpxc	-12.9256
▁buoyant	-12.9256
▁norway	-12.9256
▁parents	-12.9256
horrible	-12.9256
legendary	-12.9256
5/22	-12.9256
▁splash	-12.9256
compliance	-12.9256
phony	-12.9256
▁identifie	-12.9256
▁domain	-12.9256
▁favour	-12.9256
▁(21)	-12.9256
▁rattle	-12.9256
salini	-12.9256
▁applaud	-12.9256
sbmry	-12.9256
▁nonsense	-12.9256
▁seagate	-12.9256
▁surgical	-12.9256
▁textron	-12.9256
▁withdraw	-12.9256
codecon	-12.9257
baltimore	-12.9257
▁revolt	-12.9257
▁sidelines	-12.9257
hungry	-12.9257
stocktips	-12.9257
frustration	-12.9257
▁buenas	-12.9257
¡¡	-12.9257
▁eight	-12.9257
henry	-12.9257
▁medication	-12.9257
▁ensure	-12.9257
iiiiii	-12.9257
1.57	-12.9257
▁cierra	-12.9257
438	-12.9257
▁subsidies	-12.9257
psuv	-12.9257
▁queens	-12.9258
▁regardless	-12.9258
assess	-12.9258
▁christie	-12.9258
▁crook	-12.9258
reliance	-12.9258
▁reenter	-12.9258
91,62	-12.9258
qlik	-12.9258
▁serge	-12.9258
▁cavan	-12.9258
▁horno	-12.9258
▁baird	-12.9258
▁invention	-12.9259
▁mickey	-12.9259
▁escape	-12.9259
username	-12.9259
▁pembro	-12.9259
▁tencent	-12.9259
▁sesión	-12.9259
colorado	-12.9259
▁penalty	-12.9259
iconic	-12.9259
▁confirmation	-12.9259
▁100.49	-12.926
▁liquidation	-12.926
50.000.000.	-12.926
▁medley	-12.926
jak	-12.926
spaceship	-12.926
ます	-12.9261
15:57	-12.9261
▁restorati	-12.9261
▁$32.5	-12.9261
▁perfora	-12.9261
contoh	-12.9261
▁knight	-12.9262
facial	-12.9262
lscc	-12.9262
▁spell	-12.9262
▁الشرك	-12.9262
libre	-12.9262
burl	-12.9262
▁moral	-12.9263
▁soldier	-12.9263
▁fitch	-12.9263
6.86	-12.9264
▁prevent	-12.9264
▁jú	-12.9264
republican	-12.9264
ète	-12.9264
whoops	-12.9264
claro	-12.9265
:98	-12.9265
▁enforce	-12.9265
ughou	-12.9265
xxxxx	-12.9266
▁curse	-12.9266
▁08/01/201	-12.9266
▁editor	-12.9266
▁10:47	-12.9266
▁breather	-12.9267
=93.	-12.9267
▁utter	-12.9267
crowdsourc	-12.9267
▁fellow	-12.9267
▁gaug	-12.9268
5011	-12.9268
duck	-12.9268
▁gusta	-12.9269
▁heights	-12.9269
underwriter	-12.9269
▁alright	-12.9269
guerr	-12.9269
segur	-12.9269
greenlight	-12.9269
538	-12.927
▁nothin	-12.927
▁fondem	-12.927
susq	-12.9271
▁expiry	-12.9271
▁pré	-12.9271
▁bullishness	-12.9272
1978	-12.9272
columbus	-12.9272
erken	-12.9272
efendi	-12.9272
▁futuro	-12.9273
▁unreal	-12.9273
▁dodge	-12.9273
▁btig	-12.9273
brook	-12.9274
▁mounting	-12.9274
unate	-12.9274
▁2014121	-12.9275
▁pink	-12.9275
axta	-12.9275
genie	-12.9276
▁syst	-12.9276
▁donated	-12.9276
▁himax	-12.9277
+0.20	-12.9277
09:00	-12.9277
▁airliner	-12.9277
▁poker	-12.9277
ptnr	-12.9277
▁macro	-12.9278
▁traction	-12.9278
▁1.000.000	-12.9278
▁easter	-12.9278
▁lleva	-12.9279
▁casual	-12.9279
▁incremental	-12.9279
▁$12.0	-12.9279
tender	-12.928
▁brea	-12.9281
wwww	-12.9281
▁brean	-12.9281
necessary	-12.9282
▁widening	-12.9282
▁dragon	-12.9283
thanksgiving	-12.9283
57.5	-12.9284
▁(-2.	-12.9284
▁seque	-12.9285
igrw	-12.9285
▁10.10	-12.9285
berger	-12.9285
▁shap	-12.9286
▁24.5	-12.9286
▁emergenc	-12.9286
<->	-12.9287
▁nasty	-12.9287
unfo	-12.9288
با	-12.9288
observ	-12.9288
▁niche	-12.9289
venue	-12.9289
▁5:03:2	-12.9289
▁+99	-12.929
magical	-12.929
▁banger	-12.929
▁4.9%	-12.9291
▁oversight	-12.9292
▁thick	-12.9293
▁peor	-12.9293
▁awhile	-12.9293
▁briefing	-12.9294
neff	-12.9294
impression	-12.9294
whale	-12.9294
outbreak	-12.9295
▁whip	-12.9296
chuy	-12.9296
▁flawed	-12.9296
cutters	-12.9297
8.02	-12.9297
▁pinterest	-12.9297
577	-12.9298
ctrp	-12.9299
$530	-12.9299
struy	-12.9299
4.54	-12.9301
moore	-12.9303
oln	-12.9304
+[	-12.9305
▁2015021	-12.9305
▁$199	-12.9305
▁(40%	-12.9306
▁mick	-12.9307
7.79	-12.9307
▁outcome	-12.9307
iliad	-12.9309
presso	-12.9309
photograph	-12.9311
▁bass	-12.9311
▁dude	-12.9312
▁vario	-12.9313
▁reasonable	-12.9314
▁zip	-12.9317
▁awful	-12.9318
▁catz	-12.932
amed	-12.9321
▁saber	-12.9323
▁hoe	-12.9324
▁blah	-12.9324
1.94	-12.9325
▁nuke	-12.9325
▁programme	-12.9327
▁riche	-12.9328
twist	-12.9328
▁-1.8	-12.9329
9.35	-12.933
busters	-12.9333
▁fasten	-12.9333
geek	-12.9334
▁بال	-12.9336
xcm	-12.9336
▁bait	-12.9336
▁broadcaster	-12.9337
▁telev	-12.9337
▁fizzle	-12.9337
eparation	-12.9338
▁638	-12.9338
▁+2.8	-12.9338
1.81	-12.9338
▁compre	-12.9339
▁humana	-12.9339
rebels	-12.9341
▁transforming	-12.9341
duo	-12.9341
edible	-12.9342
$?$	-12.9342
alkan	-12.9344
grim	-12.9345
▁(-1.3	-12.9345
▁donation	-12.9345
paralel	-12.9348
▁tensions	-12.935
onés	-12.9351
▁abound	-12.9351
1.08	-12.9351
▁fabr	-12.9352
▁smile	-12.9354
:06:59	-12.9355
marcus	-12.9355
▁scut	-12.9358
746	-12.9361
itte	-12.9362
achc	-12.9364
hunting	-12.9364
▁opex	-12.9365
ncaa	-12.9366
oodle	-12.9368
▁stent	-12.9369
▁bien	-12.937
▁safer	-12.9376
▁vendors	-12.9377
tube	-12.9377
logical	-12.9382
▁encan	-12.9383
▁string	-12.9385
▁locker	-12.9387
▁imaging	-12.9388
$5.3	-12.9389
0.29	-12.9389
▁04:11:3	-12.939
margin	-12.9392
▁discipline	-12.9393
▁belie	-12.9394
58.82	-12.9394
▁537	-12.9397
salt	-12.9401
▁deposits	-12.9401
▁updat	-12.9403
famous	-12.9403
▁freeze	-12.9407
▁resolve	-12.9408
▁backlog	-12.9409
ester	-12.941
▁widen	-12.9413
6.44	-12.9414
rage	-12.9415
▁appar	-12.9417
▁skan	-12.9418
▁auro	-12.9419
▁cya	-12.9421
amcn	-12.9424
drugmaker	-12.9425
rgr	-12.9425
▁chf	-12.9425
▁commitments	-12.9431
zio	-12.9431
pear	-12.9431
dlp	-12.9434
▁fantas	-12.9438
ural	-12.9438
▁mills	-12.9438
▁medio	-12.9439
turd	-12.9442
6.27	-12.9442
▁$2.1	-12.9447
▁slowed	-12.9447
ptn	-12.945
▁prote	-12.945
imate	-12.945
workday	-12.9452
.38%	-12.9452
64,	-12.9453
▁finale	-12.9453
,781	-12.9453
9,4	-12.9456
quent	-12.9457
andom	-12.9457
▁strangles	-12.9458
▁alexion	-12.9458
▁cuent	-12.946
uten	-12.946
▁eow	-12.946
▁deny	-12.9464
vish	-12.9466
""!	-12.9466
▁216	-12.9467
▁personaliz	-12.9467
-28-	-12.9468
▁423	-12.9471
▁memp	-12.9472
000000	-12.9474
1.48	-12.9475
door	-12.9476
▁premiere	-12.9476
▁260.00	-12.9476
▁snag	-12.9477
tope	-12.9478
497	-12.9481
▁+9%	-12.9482
proved	-12.9485
▁alternatives	-12.9485
citing	-12.9487
5.60	-12.9491
▁sail	-12.9493
▁04/23/1	-12.9494
bolt	-12.9496
▁exited	-12.9498
tmf	-12.9499
1.09	-12.9501
6.1%	-12.9502
▁impresse	-12.9503
cashtags	-12.9504
▁malo	-12.9505
▁rocking	-12.9506
▁amor	-12.9506
▁conso	-12.9506
▁basel	-12.9511
▁nonprofit	-12.9522
ntl	-12.9522
▁102.5	-12.9525
hoca	-12.9525
0.36	-12.9529
▁tatt	-12.9535
▁belong	-12.9536
yfi	-12.9536
▁touched	-12.9538
road	-12.9539
▁$102	-12.954
▁446	-12.9542
▁capit	-12.9547
ewen	-12.9548
▁$29.3	-12.9551
872	-12.9555
▁underestimate	-12.9557
89%	-12.9557
23.50	-12.9559
▁retiree	-12.9559
▁unite	-12.9561
blogging	-12.9567
ija	-12.9568
▁390	-12.9568
▁tera	-12.957
total	-12.9573
louis	-12.9575
venokia	-12.9582
9:10	-12.9587
▁mera	-12.9591
▁differentiat	-12.9599
icel	-12.9599
fsr	-12.96
moodys	-12.96
iry	-12.9603
▁embarg	-12.9619
▁factors	-12.9621
▁sask	-12.9622
hive	-12.9622
anchi	-12.9628
▁£3	-12.9632
1.86	-12.9634
▁resign	-12.9635
▁6,000	-12.9636
صل	-12.9637
finan	-12.9643
▁vog	-12.9647
byl	-12.9647
genetic	-12.9652
▁advisers	-12.9654
▁lineup	-12.966
6.99	-12.9662
:65	-12.9669
renal	-12.9674
turkey	-12.9677
hawks	-12.9679
▁1,6	-12.9684
correct	-12.9684
adobe	-12.9684
winner	-12.9686
damn	-12.9687
cholesterol	-12.9688
memory	-12.9688
lenovo	-12.9688
▁-2.8	-12.9688
empire	-12.9689
bery	-12.969
▁aboard	-12.9692
328	-12.9693
capitalist	-12.9695
future	-12.9695
breakthrough	-12.9698
israel	-12.9698
champ	-12.9698
emd	-12.9699
xph	-12.9701
fty	-12.9702
▁1/30/1	-12.9703
delayed	-12.9706
▁correlations	-12.9707
obamacare	-12.9707
server	-12.9708
▁cib	-12.971
drys	-12.971
confirmed	-12.9711
7:10	-12.9718
ميز	-12.9722
thinking	-12.9724
▁$1,1	-12.9725
▁robins	-12.9727
woman	-12.9728
▁83.5	-12.9731
▁protests	-12.9734
▁fret	-12.9735
0.4%	-12.9735
▁schedules	-12.9736
▁llegad	-12.9738
running	-12.9739
disrupt	-12.9746
cutting	-12.9746
burger	-12.9748
wallst	-12.975
letter	-12.9753
country	-12.9753
transcript	-12.9754
▁+0.9	-12.9755
pwt	-12.9757
6.07	-12.9757
ground	-12.9757
▁8:07:2	-12.9758
cá	-12.9758
lays	-12.976
pandora	-12.9761
▁gum	-12.9762
fitbit	-12.9763
eaux	-12.9767
iya	-12.9772
middle	-12.9776
pivot	-12.978
8.04	-12.9781
challenge	-12.9781
peter	-12.9783
▁kum	-12.9783
qat	-12.9784
piece	-12.9784
selloff	-12.9786
favor	-12.9788
silicon	-12.9788
▁noche	-12.9788
immigrants	-12.9789
sorry	-12.9789
decision	-12.9789
▁intri	-12.979
compar	-12.9791
setups	-12.9792
suisse	-12.9793
şl	-12.9794
rida	-12.9794
qualcomm	-12.9794
except	-12.9796
thru	-12.9796
toyota	-12.9797
600,000	-12.9797
antitrust	-12.9798
paypal	-12.9798
balance	-12.9799
▁prepp	-12.98
787	-12.98
▁bully	-12.9801
fool	-12.9801
interview	-12.9802
multi	-12.9803
ctz	-12.9803
semiconductor	-12.9804
gross	-12.9806
nadella	-12.9806
including	-12.9807
bbg	-12.9808
cause	-12.9808
delivery	-12.9808
local	-12.9808
exclusive	-12.9809
1.41	-12.981
rumors	-12.9817
amazing	-12.9818
club	-12.9819
triple	-12.9819
bottom	-12.982
momentum	-12.9823
alpha	-12.9823
crazy	-12.9826
▁insys	-12.9826
▁10:3	-12.9828
▁$448	-12.9829
imer	-12.983
specific	-12.9831
ultra	-12.9831
people	-12.9833
electric	-12.9833
tuesday	-12.9833
message	-12.9834
–	-12.9836
▁infra	-12.9837
▁alike	-12.9838
office	-12.9838
0.84	-12.9839
sykes	-12.984
▁183	-12.9841
exchange	-12.9842
killer	-12.9843
could	-12.9843
liver	-12.9844
aircraft	-12.9844
▁manipulat	-12.9846
tomy	-12.9849
▁surpasse	-12.985
▁dial	-12.9851
5.06	-12.9852
sound	-12.9852
▁levin	-12.9855
licens	-12.9856
develop	-12.9861
tracking	-12.9864
▁streamline	-12.9865
subscribe	-12.9865
criminal	-12.9866
oops	-12.9869
would	-12.9869
3.1%	-12.9869
7.56	-12.9873
rya	-12.9875
astro	-12.9876
midd	-12.9877
near	-12.9878
ously	-12.9879
zone	-12.9887
347	-12.9887
192	-12.9887
388	-12.9888
present	-12.9888
mlc	-12.989
riz	-12.989
▁liber	-12.9891
▁dejar	-12.9895
click	-12.99
▁opi	-12.9905
▁106	-12.9905
zni	-12.9907
▁pickup	-12.9916
uuuu	-12.9917
▁12.2	-12.9918
nity	-12.9923
ature	-12.9927
▁.90	-12.9934
ко	-12.9936
things	-12.9939
entry	-12.994
6/15	-12.9944
▁porn	-12.9945
2020	-12.995
▁aths	-12.995
busca	-12.9952
irg	-12.9964
ence	-12.9965
phant	-12.9966
15.00	-12.9968
president	-12.9979
.000.000.000	-12.9979
▁route	-12.9982
▁inquir	-12.9989
з	-13
▁monetize	-13.0004
▁heap	-13.0006
.98%	-13.0009
12:4	-13.0009
claim	-13.0017
3.03	-13.0019
79.5	-13.0029
khc	-13.003
estos	-13.0037
apan	-13.004
9/14	-13.0046
650	-13.0047
lift	-13.0054
▁haz	-13.0061
🔥🔥🔥🔥🔥🔥	-13.0061
bgr	-13.0072
vfc	-13.0084
258	-13.0086
▁tday	-13.009
0.05%	-13.0095
▁aide	-13.0096
lif	-13.0097
42.00	-13.0097
▁vida	-13.0105
1.68%	-13.0106
igi	-13.0114
0+	-13.0119
ickens	-13.0121
32:	-13.0134
pone	-13.0144
▁herd	-13.0148
mni	-13.0155
/05/2014	-13.0164
▁ske	-13.0167
▁$1.6	-13.019
▁+10	-13.0198
usu	-13.0205
anz	-13.0208
otiv	-13.0212
▁obr	-13.0213
isle	-13.0217
hui	-13.0226
wned	-13.0243
epco	-13.0244
▁numero	-13.0245
/16/15	-13.0245
▁trippin	-13.0251
/25/2014	-13.0263
▁hall	-13.0264
▁bottl	-13.0267
3.83	-13.0271
tinker	-13.0273
▁6.1	-13.0282
oppy	-13.0299
317	-13.0303
cuán	-13.031
▁156	-13.0311
safe	-13.0313
765	-13.0314
clara	-13.0318
migo	-13.0331
$3.8	-13.0335
nky	-13.0343
.63%	-13.0344
ké	-13.0346
achi	-13.0349
3.8	-13.0359
65.00	-13.036
▁trv	-13.0362
immi	-13.0365
arz	-13.0366
ota	-13.0375
▁solv	-13.0377
▁refer	-13.0378
2.76	-13.0384
▁breaker	-13.0399
entos	-13.0404
00:06:2	-13.0413
tsl	-13.0414
4.52	-13.042
▁feu	-13.042
▁tit	-13.0427
278	-13.0428
bgc	-13.0439
▁+2.0	-13.0445
▁experienc	-13.0451
▁$1,3	-13.0454
eber	-13.0464
coi	-13.0468
▁pitche	-13.0468
▁tee	-13.0487
calga	-13.0488
4.30	-13.0489
▁78.5	-13.0491
até	-13.0502
▁8/2	-13.0504
▁mcca	-13.0506
291	-13.0512
-48	-13.0522
▁mucho	-13.0531
▁113.4	-13.0531
▁uncom	-13.0534
▁entreg	-13.0535
0.49	-13.054
bian	-13.0551
▁assume	-13.0557
ackfriday	-13.057
▁oppose	-13.0582
▁(+3.	-13.0587
▁//3	-13.0588
05,	-13.059
▁retake	-13.0597
▁chg	-13.0598
▁albe	-13.0603
milestones	-13.0616
$300	-13.0623
ister	-13.0653
363	-13.0659
bli	-13.0669
▁8:07:	-13.0675
▁packag	-13.0677
144	-13.0681
78%	-13.069
ugu	-13.07
▁spik	-13.0701
1;	-13.0703
▁explor	-13.0708
gaya	-13.0708
inuv	-13.0715
▁dominat	-13.0715
▁275	-13.0717
mping	-13.0717
0.58	-13.0727
8:00:06:	-13.0731
jeez	-13.0733
▁-6.	-13.0735
pxy	-13.0736
eezy	-13.0737
▁machin	-13.0758
▁+0.8	-13.0772
5.16	-13.0774
ió	-13.0782
ahhh	-13.079
▁85.4	-13.0791
ecom	-13.0815
▁shutter	-13.0816
▁pil	-13.0826
0.68	-13.0828
940	-13.0832
270	-13.0833
1.97	-13.0853
▁impuls	-13.0858
▁violation	-13.0863
<==	-13.0881
▁118.4	-13.0888
▁03/2	-13.089
nqi	-13.089
▁loui	-13.0891
▁$151	-13.0899
▁layoff	-13.0905
653	-13.0906
purpose	-13.0916
humans	-13.0917
47%	-13.0919
pushed	-13.0924
mdg	-13.0928
92.2	-13.0937
▁09:25:	-13.0937
▁olympic	-13.0939
-1.27	-13.0939
rilla	-13.0946
▁149	-13.0946
▁revers	-13.0949
responsib	-13.0949
ctu	-13.0963
▁sucker	-13.097
alla	-13.0977
▁$129	-13.0979
▁-0.3%	-13.0996
▁awaken	-13.0997
▁spoiler	-13.0998
اك	-13.1006
lue	-13.1016
ofi	-13.102
▁deni	-13.1033
rcon	-13.1041
ugl	-13.1052
akba	-13.1058
▁cld	-13.1058
eido	-13.1061
neyma	-13.1075
168	-13.1084
▁arrive	-13.1097
sdt	-13.1099
た	-13.1103
7.85	-13.1104
▁critic	-13.1105
▁teenager	-13.1107
inda	-13.111
▁vendor	-13.1112
467	-13.1114
▁lender	-13.1116
▁clea	-13.1118
▁aristocrat	-13.1119
▁analytic	-13.1121
▁choos	-13.1126
▁roadsh	-13.1126
raz	-13.1129
▁peep	-13.1136
▁2,00	-13.1146
*******	-13.115
0.03%	-13.1158
▁9:11:1	-13.116
▁complaint	-13.1162
▁$128	-13.1162
essen	-13.1163
▁styl	-13.1165
hucks	-13.1165
atro	-13.1172
▁headphone	-13.1175
▁finis	-13.1177
ذه	-13.1186
luggi	-13.1187
yyyy	-13.1187
▁custo	-13.1197
9.1	-13.1201
12500	-13.1201
▁$7.8	-13.1204
▁18:00:	-13.1208
script	-13.121
umba	-13.1213
amic	-13.1215
employer	-13.1217
pring	-13.1222
▁stole	-13.1224
▁necessar	-13.1224
wnr	-13.1225
duct	-13.1227
▁incrementa	-13.1227
▁buen	-13.1228
▁skyrocket	-13.1229
acqui	-13.1234
hamburg	-13.124
witter	-13.1242
/11/2014	-13.1243
▁74,0	-13.1245
outdoor	-13.1245
▁negotiat	-13.1245
▁supplie	-13.1245
▁familia	-13.1245
▁distract	-13.1246
روب	-13.1248
▁associat	-13.125
crunch	-13.1251
ociali	-13.1252
1.29	-13.1252
bury	-13.1253
▁denny	-13.1253
▁becau	-13.1254
ridiculo	-13.1254
▁relations	-13.1255
buoy	-13.1255
▁😂😂😂	-13.1255
ม่	-13.1255
▁restrict	-13.1255
ultim	-13.1256
ะ	-13.1256
samantha	-13.1256
😍😍😍	-13.1256
иде	-13.1256
nnnnnnnnnnnnnnn	-13.1256
👏👏	-13.1256
▁sunrise	-13.1256
▁scumbag	-13.1256
allegations	-13.1256
apremilast	-13.1256
aventis	-13.1256
brodalumab	-13.1256
eligible	-13.1256
evolocumab	-13.1256
hritis	-13.1256
hydrogen	-13.1256
inconsistent	-13.1256
literally	-13.1256
motivation	-13.1256
mysterious	-13.1256
náutico	-13.1256
palbociclib	-13.1256
palmolive	-13.1256
pandemonium	-13.1256
pocalypse	-13.1256
secukinumab	-13.1256
slingshot	-13.1256
sovaldi	-13.1256
spicejet	-13.1256
symmetric	-13.1256
variableannuity	-13.1256
xtrdvol	-13.1256
ล้	-13.1256
▁08:11:0	-13.1256
▁747-8	-13.1256
▁alguien	-13.1256
▁bahrain	-13.1256
▁bizarre	-13.1256
▁bojangles	-13.1256
▁chelsea	-13.1256
▁colombia	-13.1256
▁conglomerate	-13.1256
▁contemplat	-13.1256
▁corevalve	-13.1256
▁ingredient	-13.1256
▁kimberly	-13.1256
▁knuck	-13.1256
▁latinoamerican	-13.1256
▁lucrative	-13.1256
▁malandros	-13.1256
▁mohabbat	-13.1256
▁obnoxious	-13.1256
▁pennsylvania	-13.1256
▁popcorn	-13.1256
▁quadcopter	-13.1256
▁resemble	-13.1256
▁robbins	-13.1256
▁scramble	-13.1256
▁shield	-13.1256
▁soberanos	-13.1256
▁surrounding	-13.1256
▁telefoni	-13.1256
▁throttl	-13.1256
▁tremendo	-13.1256
▁triforcetrader	-13.1256
▁tycoon	-13.1256
▁unstoppable	-13.1256
▁virnetx	-13.1256
▁انته	-13.1256
ている	-13.1256
vennyvenn	-13.1256
▁00:03:	-13.1256
▁3:59:2	-13.1256
▁circle	-13.1256
▁economist	-13.1256
▁exhibits	-13.1256
▁gazprom	-13.1256
▁implode	-13.1256
▁parameters	-13.1256
▁pessimis	-13.1256
▁sabmiller	-13.1256
▁southeast	-13.1256
▁vencido	-13.1256
▁zillow	-13.1256
▁про	-13.1256
inspiring	-13.1256
mcafee	-13.1256
unibail	-13.1256
▁6/13/201	-13.1256
▁equate	-13.1256
▁kramer	-13.1256
▁realmoneypro	-13.1256
▁relentless	-13.1256
▁victoria	-13.1256
🔫🔫	-13.1256
intercept	-13.1256
็ก	-13.1256
▁assumptions	-13.1256
▁parliament	-13.1256
qiwi	-13.1256
▁btmfd	-13.1256
▁oficial	-13.1256
👽👽👽👽👽👽	-13.1256
▁scrambling	-13.1256
👽👽	-13.1256
collins	-13.1256
ericsson	-13.1256
خص	-13.1256
▁biomarker	-13.1256
▁mandarin	-13.1256
▁boooooooooo	-13.1256
▁intention	-13.1256
▁loophole	-13.1256
guardians	-13.1256
▁yikes	-13.1256
▁refining	-13.1256
🇺🇸🇺🇸🇺🇸🇺🇸🇺🇸🇺🇸🇺🇸🇺🇸	-13.1256
opdivo	-13.1256
▁baxter	-13.1256
▁1485%	-13.1256
▁awareness	-13.1256
▁consult	-13.1256
▁04/17/2015	-13.1256
spawn	-13.1256
▁excess	-13.1256
fatigue	-13.1256
▁gratis	-13.1256
censorship	-13.1256
нэ	-13.1256
▁telco	-13.1256
▁constructive	-13.1256
▁pér	-13.1256
▁shades	-13.1256
▁impossible	-13.1256
▁balloon	-13.1256
▁harris	-13.1256
resilien	-13.1256
▁redux	-13.1256
últim	-13.1256
için	-13.1256
▁entresto	-13.1256
plunk	-13.1256
zonder	-13.1256
▁observation	-13.1256
summit	-13.1256
▁overlooked	-13.1256
▁rentals	-13.1256
evasion	-13.1256
▁ethical	-13.1256
ξδ	-13.1256
ий	-13.1256
▁3:07:1	-13.1256
▁manufac	-13.1256
janssen	-13.1256
▁gather	-13.1256
▁valve	-13.1256
homekit	-13.1256
élé	-13.1256
て	-13.1256
lucas	-13.1256
genzyme	-13.1256
nervous	-13.1256
▁compute	-13.1256
▁michaud	-13.1256
►►	-13.1256
▁soriot	-13.1256
▁presiona	-13.1256
▁khush	-13.1256
▁eliminate	-13.1256
ま	-13.1256
periscope	-13.1256
▁colour	-13.1256
▁soothe	-13.1256
▁$7.6	-13.1256
▁microwave	-13.1256
setters	-13.1256
▁premio	-13.1256
▁windfall	-13.1256
▁magna	-13.1256
▁instance	-13.1256
▁aplicaci	-13.1256
ôñ	-13.1256
▁+1.21%	-13.1256
▁harley	-13.1256
adblock	-13.1256
cyte	-13.1257
eads	-13.1257
▁owens	-13.1257
/09/2014	-13.1257
▁kpmg	-13.1257
▁terminate	-13.1257
▁retracement	-13.1257
ocado	-13.1257
▁5-10%	-13.1257
▁reconsider	-13.1257
▁violent	-13.1257
annonce	-13.1257
▁punishment	-13.1257
hughes	-13.1257
<<<	-13.1257
▁jewel	-13.1257
▁fulfill	-13.1257
▁churn	-13.1257
▁podría	-13.1257
cyclic	-13.1257
▁khata	-13.1257
▁cambio	-13.1257
▁enemy	-13.1257
diadel	-13.1257
▁canyon	-13.1257
objective	-13.1257
▁akamai	-13.1257
▁التو	-13.1257
▁indict	-13.1257
▁عند	-13.1257
▁choreography	-13.1257
▁inherit	-13.1257
▁₩€	-13.1257
▁golpe	-13.1257
▁dilute	-13.1257
▁contender	-13.1257
angola	-13.1257
▁elsewhere	-13.1257
بور	-13.1257
▁wreck	-13.1257
▁visitors	-13.1258
00:00	-13.1258
▁unconfirmed	-13.1258
notherapy	-13.1258
▁$4.04	-13.1258
▁bluetoo	-13.1258
esdep	-13.1258
▁chica	-13.1258
▁neces	-13.1258
vibes	-13.1258
▁vicious	-13.1258
mafia	-13.1258
▁borrowers	-13.1258
▁tesor	-13.1259
▁👍👍	-13.1259
▁airshow	-13.1259
4:01	-13.1259
▁demographic	-13.1259
carlyle	-13.1259
tizen	-13.1259
▁$0.09	-13.1259
shady	-13.1259
▁gentle	-13.1259
▁imacs	-13.1259
titude	-13.126
عر	-13.126
▁operate	-13.126
▁applies	-13.126
▁alimenta	-13.126
▁fetch	-13.126
▁techcrunch	-13.126
▁foolish	-13.126
ologist	-13.126
▁provision	-13.126
▁dominic	-13.126
▁pře	-13.126
"8"	-13.126
stroke	-13.126
▁salon	-13.126
lifestyle	-13.126
▁unloved	-13.126
▁broadwell	-13.1261
affaro	-13.1261
▁yellow	-13.1261
gillis	-13.1261
/22/2014	-13.1261
17.6	-13.1261
scammer	-13.1261
^^	-13.1261
▁+0.72%	-13.1261
▁bancorp	-13.1261
clueless	-13.1262
cnpc	-13.1262
▁kiril	-13.1262
▁journalist	-13.1262
dakid	-13.1262
confuse	-13.1262
ucla	-13.1262
token	-13.1262
exceptional	-13.1262
▁funky	-13.1262
▁$0.23	-13.1263
bucket	-13.1263
davidson	-13.1263
▁unknown	-13.1263
mentary	-13.1263
▁accumulating	-13.1263
▁2015052	-13.1263
▁intuit	-13.1263
▁toxic	-13.1263
gnrc	-13.1263
achievement	-13.1263
▁combat	-13.1263
▁thread	-13.1263
▁activation	-13.1264
length	-13.1264
▁holla	-13.1264
5.15	-13.1264
▁compatib	-13.1265
▁calif	-13.1265
▁robado	-13.1265
▁peek	-13.1265
▁heroes	-13.1265
▁rofl	-13.1265
▁cease	-13.1265
▁102.00	-13.1265
angry	-13.1266
▁diverse	-13.1266
☆*	-13.1266
tidal	-13.1267
▁keycorp	-13.1267
[...]
