<unk>	0
<s>	0
</s>	0
<pad>	0
<mask>	0
rt	0
AT_USER	0
URL	0
$aapl	0
$aep	0
$agfs	0
$amgn	0
$amzn	0
$ba	0
$bac	0
$c	0
$cat	0
$cmcsa	0
$codi	0
$csco	0
$cvx	0
$d	0
$dis	0
$duk	0
$exc	0
$gd	0
$ge	0
$gmre	0
$goog	0
$hd	0
$hon	0
$intc	0
$jnj	0
$jpm	0
$ko	0
$lmt	0
$ma	0
$mcd	0
$mdt	0
$mmm	0
$mo	0
$mrk	0
$msft	0
$nee	0
$orcl	0
$pcg	0
$pm	0
$ppl	0
$rex	0
$so	0
$sre	0
$t	0
$ups	0
$v	0
$vz	0
$wfc	0
$wmt	0
$xom	0
▁	-1.54897
▁$	-2.79052
▁#	-3.57552
.	-3.91682
s	-4.3932
▁the	-4.52216
,	-4.53872
▁to	-4.56419
:	-4.7628
▁and	-5.00404
▁a	-5.03939
▁for	-5.12616
▁?	-5.19437
▁in	-5.2195
▁of	-5.27054
!	-5.27899
▁is	-5.31359
?	-5.40252
▁on	-5.46242
'	-5.55116
▁this	-5.58559
▁i	-5.58908
▁you	-5.62046
t	-5.65209
▁-	-5.66058
▁it	-5.77785
▁with	-5.80934
’	-5.81508
-	-5.81514
btc	-5.99349
m	-6.03236
▁at	-6.08017
▁&	-6.09504
️	-6.13184
sla	-6.15185
▁will	-6.15401
▁be	-6.17124
rx	-6.17743
▁we	-6.18846
)	-6.20233
▁your	-6.24182
f	-6.27441
x	-6.29048
▁(	-6.30241
▁are	-6.32027
l	-6.32909
ing	-6.35086
▁that	-6.35515
▁my	-6.35523
crypto	-6.37425
/	-6.38327
d	-6.39297
▁up	-6.43723
k	-6.45283
eth	-6.47202
▁get	-6.58087
c	-6.58095
▁me	-6.60512
▁can	-6.6164
▁✅	-6.62472
▁1	-6.63521
▁by	-6.6392
h	-6.63985
ed	-6.64885
...	-6.65144
re	-6.65204
▁all	-6.6553
▁have	-6.65572
▁like	-6.668
stocks	-6.67059
▁??	-6.6764
▁follow	-6.67725
▁more	-6.68424
▁from	-6.68673
▁now	-6.69753
b	-6.72526
a	-6.74743
▁new	-6.75965
▁no	-6.7729
y	-6.77609
xrp	-6.80264
▁or	-6.8294
▁out	-6.82943
▁here	-6.85656
▁as	-6.86506
spy	-6.88294
▁3	-6.88465
n	-6.88524
▁our	-6.8976
▁if	-6.90748
fb	-6.91838
▁not	-6.95841
▁today	-6.96856
▁good	-6.98345
i	-6.98504
3	-6.99286
▁just	-6.99703
▁has	-6.99869
▁so	-6.99911
r	-7.00732
p	-7.01941
link	-7.02895
e	-7.0316
ltc	-7.05054
▁what	-7.05748
▁retweet	-7.06906
_	-7.08292
▁but	-7.08435
tron	-7.10794
▁one	-7.11711
▁2	-7.12004
▁tag	-7.12463
▁win	-7.1294
2	-7.12946
bnb	-7.14435
!!	-7.16035
▁do	-7.16845
▁away	-7.17067
trading	-7.17574
▁+	-7.17836
▁sho	-7.18365
▁price	-7.18801
▁could	-7.19219
giveaway	-7.20007
g	-7.21863
▁about	-7.22475
▁some	-7.2318
▁market	-7.23405
▁buy	-7.2361
▁5	-7.24978
trx	-7.25047
bitcoin	-7.25109
▁they	-7.25208
nflx	-7.25417
▁giving	-7.26232
ada	-7.2687
er	-7.27156
▁time	-7.27454
▁free	-7.27861
▁luck	-7.28267
news	-7.28621
▁10	-7.2873
▁see	-7.29098
et	-7.29172
v	-7.30248
blockchain	-7.30357
▁stock	-7.30994
▁us	-7.31107
▁week	-7.31167
▁enter	-7.33247
▁join	-7.3415
"	-7.34223
eos	-7.35506
▁pa	-7.35534
▁people	-7.36927
ba	-7.37082
4	-7.37599
gb	-7.37787
▁was	-7.37907
$	-7.3829
▁friends	-7.38399
▁an	-7.38482
neo	-7.40096
tic	-7.40122
▁day	-7.40133
follow	-7.40888
▁where	-7.41598
1	-7.41988
▁100	-7.42278
▁who	-7.42765
▁mon	-7.45783
es	-7.46411
▁over	-7.4743
▁rules	-7.4884
▁"	-7.49233
xlm	-7.5007
▁sta	-7.52079
▁next	-7.53753
▁how	-7.54224
▁inc	-7.54273
▁top	-7.5465
st	-7.54698
▁last	-7.54958
o	-7.5504
cryptocurrency	-7.55525
w	-7.55738
spx	-7.56365
▁cash	-7.57839
▁down	-7.58358
wtr	-7.58882
▁long	-7.60362
▁when	-7.60472
▁don	-7.60797
ly	-7.61711
qqq	-7.61872
▁after	-7.63271
▁its	-7.64796
▁earnings	-7.6536
amd	-7.66985
ash	-7.67425
ashtag	-7.67493
▁???	-7.67525
▁must	-7.67638
▁going	-7.68339
??	-7.69299
▁their	-7.70024
gc	-7.70828
▁only	-7.7094
▁into	-7.71111
▁first	-7.71333
▁giveaway	-7.71391
▁days	-7.71421
▁make	-7.71612
th	-7.71725
▁go	-7.72065
▁“	-7.72793
oge	-7.73295
▁money	-7.73742
▁year	-7.74269
▁been	-7.74601
investing	-7.74998
▁help	-7.75011
▁trading	-7.75283
▁would	-7.7533
al	-7.75862
▁suppo	-7.76052
▁big	-7.76057
▁other	-7.76475
slaq	-7.77033
gs	-7.771
▁need	-7.77267
▁cashapp	-7.77313
rvn	-7.77384
nvda	-7.77791
▁trade	-7.77982
usd	-7.78236
q	-7.79262
▁tesla	-7.79563
▁there	-7.79649
+	-7.80026
in	-7.80403
!!!	-7.8042
cgd	-7.81012
ve	-7.81314
ia	-7.81574
▁coming	-7.81729
gold	-7.82178
▁void	-7.82189
▁great	-7.82413
▁app	-7.82515
ca	-7.82677
▁repo	-7.82852
like	-7.83127
▁below	-7.83492
▁please	-7.83653
ya	-7.83778
ll	-7.84542
▁post	-7.85617
”	-7.8644
en	-7.86827
stock	-7.86954
▁know	-7.87644
▁qualify	-7.8874
etc	-7.89492
▁let	-7.90852
airdrop	-7.91097
▁even	-7.91101
nasdaq	-7.91537
▁airdrop	-7.91553
▁back	-7.91556
▁volume	-7.91593
▁cha	-7.91651
▁right	-7.91774
▁than	-7.918
to	-7.92125
▁tweet	-7.92154
▁share	-7.92239
&	-7.9226
▁still	-7.92639
▁want	-7.92782
▁most	-7.93243
on	-7.94007
stockmarket	-7.94093
▁any	-7.95551
▁|	-7.95619
▁these	-7.96134
0	-7.96196
▁500	-7.96258
▁winners	-7.9682
▁each	-7.97215
tcm	-7.97898
▁4	-7.9791
5	-7.97925
ix	-7.98482
u	-7.98617
▁2019	-7.98648
tesla	-7.98654
▁shares	-7.98697
win	-7.99563
daytrading	-7.99856
btt	-7.99934
money	-8.00014
▁before	-8.00394
▁use	-8.00728
▁interest	-8.01233
▁another	-8.01475
market	-8.01478
▁company	-8.01927
ro	-8.0194
zc	-8.02718
▁comment	-8.0301
nt	-8.03614
▁should	-8.03987
20	-8.04096
▁best	-8.04554
▁1000	-8.04949
▁group	-8.0525
▁winner	-8.05331
ron	-8.05682
▁take	-8.06069
nd	-8.062
ag	-8.06226
gld	-8.06652
na	-8.06864
;	-8.07
▁why	-8.08006
▁give	-8.08035
one	-8.08093
▁2020	-8.08441
▁nec	-8.08767
▁$100,	-8.08882
▁someone	-8.08919
▁everyone	-8.08965
▁also	-8.09269
▁via	-8.0927
▁million	-8.0929
▁ale	-8.09529
bch	-8.0985
▁check	-8.10114
z	-8.10205
▁proh	-8.10366
the	-8.1045
▁he	-8.1069
ren	-8.10759
rm	-8.11407
lt	-8.11593
▁news	-8.1229
▁$500.	-8.12716
▁video	-8.13358
▁look	-8.13783
▁call	-8.13974
▁which	-8.14171
tag	-8.14267
day	-8.14533
▁purc	-8.14727
am	-8.14919
▁watch	-8.14933
▁think	-8.15893
▁update	-8.17528
8	-8.1754
▁very	-8.17692
▁much	-8.18044
roku	-8.18186
gt	-8.18537
xmr	-8.18545
▁off	-8.18707
we	-8.19939
usdt	-8.20099
(	-8.20102
▁open	-8.20858
earnings	-8.2109
▁got	-8.21307
acb	-8.21352
retweet	-8.21476
cashappfriday	-8.21759
▁earn	-8.22009
▁sell	-8.2244
▁community	-8.2266
▁high	-8.22938
7	-8.23283
▁his	-8.23482
▁daily	-8.23702
mg	-8.24035
▁telegram	-8.24163
it	-8.25714
ibm	-8.25835
▁average	-8.26295
▁soon	-8.26462
▁every	-8.2648
*	-8.26958
▁send	-8.27086
▁u	-8.27368
▁hours	-8.27592
j	-8.278
▁way	-8.27868
ost	-8.27961
bynd	-8.28371
▁target	-8.28398
▁7	-8.28779
rus	-8.28841
markets	-8.28985
▁them	-8.29197
pfe	-8.29268
▁live	-8.29337
technical	-8.2941
▁many	-8.29682
▁again	-8.30085
▁$250,	-8.30207
omo	-8.30432
cr	-8.30546
▁2.	-8.30744
ai	-8.3108
▁looking	-8.31333
9	-8.32194
▁above	-8.32536
▁close	-8.32581
▁too	-8.3289
all	-8.3306
sbes	-8.33379
rypto	-8.33602
▁since	-8.33946
▁come	-8.34214
▁view	-8.34655
▁profit	-8.34779
ar	-8.3504
▁ceo	-8.3558
binance	-8.35642
10	-8.35929
▁love	-8.36363
6	-8.36363
lry	-8.36442
▁qua	-8.36683
go	-8.37171
▁then	-8.3793
analysis	-8.37956
▁exchange	-8.38065
▁1.	-8.38543
▁50	-8.3883
▁20	-8.39037
ms	-8.39399
▁well	-8.39755
iwm	-8.39807
▁q	-8.40298
▁200	-8.40855
enj	-8.4128
▁•	-8.41443
options	-8.41688
▁~	-8.41855
▁real	-8.42017
▁wo	-8.42246
he	-8.42432
hot	-8.42541
snap	-8.42722
el	-8.42804
▁am	-8.42933
ont	-8.43102
▁did	-8.43109
▁co	-8.43189
▁per	-8.43192
ata	-8.44207
▁getting	-8.44227
▁project	-8.447
▁keep	-8.45509
▁world	-8.45922
▁huge	-8.46558
▁current	-8.46819
ale	-8.47016
▁china	-8.47198
▁token	-8.47443
us	-8.47963
mu	-8.48149
▁lucky	-8.48234
▁full	-8.48295
hr	-8.4844
ra	-8.48586
▁because	-8.48636
▁low	-8.48731
▁coin	-8.48733
▁announced	-8.49074
▁8	-8.49132
▁better	-8.49491
▁3.	-8.49508
▁made	-8.49533
today	-8.49589
zec	-8.49757
super	-8.4984
nano	-8.50721
▁bad	-8.50724
digibyte	-8.50736
▁channel	-8.51484
19	-8.51526
▁moving	-8.5165
omg	-8.51785
xtz	-8.51829
▁bitcoin	-8.52058
up	-8.52115
▁change	-8.52316
▁hit	-8.52442
▁wallet	-8.52489
▁thank	-8.52505
▁move	-8.52811
▁team	-8.53328
▁while	-8.53352
nyse	-8.53526
xvg	-8.53941
▁billion	-8.5418
▁friday	-8.54464
▁read	-8.54533
lsi	-8.54583
▁years	-8.54665
▁twitter	-8.54722
ers	-8.54794
▁had	-8.55355
▁results	-8.55416
brk	-8.55644
▁her	-8.55989
or	-8.56051
tech	-8.56103
▁24	-8.5633
pg	-8.56352
▁nice	-8.56415
▁really	-8.56435
nq	-8.57271
▁value	-8.57317
shop	-8.58037
▁dm	-8.58495
▁tokens	-8.58644
▁sign	-8.58899
▁6	-8.59231
an	-8.59379
▁@	-8.598
▁tomorrow	-8.59904
man	-8.59931
▁ready	-8.6004
▁*	-8.60316
findom	-8.60568
❤	-8.60895
▁strong	-8.60924
heta	-8.6159
▁30	-8.61627
▁buying	-8.61923
min	-8.62041
icx	-8.63635
sc	-8.64054
▁vya	-8.64136
▁morning	-8.64282
▁few	-8.64297
▁sales	-8.64387
▁receive	-8.64553
id	-8.65041
im	-8.6506
▁holding	-8.6513
▁put	-8.65685
end	-8.65687
▁month	-8.6606
▁pay	-8.66064
▁run	-8.66308
▁growth	-8.66787
▁through	-8.67003
▁hour	-8.67195
▁binance	-8.67266
pay	-8.68243
▁apple	-8.6848
▁expected	-8.68486
▁say	-8.68884
no	-8.68945
▁higher	-8.69086
sp	-8.6915
ii	-8.69319
good	-8.69325
▁happy	-8.69676
comment	-8.69852
▁play	-8.70061
▁thanks	-8.70239
join	-8.70876
▁following	-8.70901
xx	-8.70935
▁those	-8.71268
???	-8.71635
▁financial	-8.71683
▁already	-8.71985
▁analysts	-8.72053
▁rating	-8.72199
waves	-8.72311
▁being	-8.72327
▁data	-8.72565
▁total	-8.72649
▁account	-8.72916
iota	-8.7303
me	-8.73258
jia	-8.73301
▁$50	-8.7376
▁work	-8.73776
▁miss	-8.7383
▁using	-8.73953
▁model	-8.74005
ethereum	-8.74129
▁biggest	-8.74131
uber	-8.74321
▁doing	-8.74325
▁platform	-8.74429
▁may	-8.74459
▁never	-8.7483
vs	-8.75337
▁two	-8.75486
ite	-8.75825
▁➡	-8.76375
▁coins	-8.76468
▁person	-8.76474
lo	-8.76531
▁indicators	-8.76648
and	-8.76709
▁venmo	-8.76769
▁odds	-8.76858
▁bullish	-8.76972
▁eps	-8.77082
high	-8.7744
....	-8.77848
▁companies	-8.77899
▁under	-8.78125
▁listed	-8.78458
▁set	-8.7849
▁looks	-8.78582
▁future	-8.78689
▁show	-8.78735
▁cap	-8.78925
▁guys	-8.79033
▁investment	-8.7924
▁own	-8.7931
de	-8.79327
sys	-8.79412
▁users	-8.79423
▁chance	-8.79433
▁hold	-8.79444
ig	-8.79451
⃣	-8.79583
▁ever	-8.79668
ant	-8.79689
▁sure	-8.79741
bts	-8.79777
▁find	-8.79862
▁try	-8.79936
▁announce	-8.79962
icle	-8.80058
gm	-8.80176
▁were	-8.80938
free	-8.81073
coin	-8.81462
iost	-8.81676
pep	-8.81823
aps	-8.81841
nio	-8.819
ion	-8.82019
▁=	-8.82151
pm	-8.822
▁weekly	-8.82266
▁$10	-8.82446
ff	-8.82766
▁does	-8.82885
algo	-8.83092
▁12	-8.83109
apha	-8.83122
pa	-8.83388
ex	-8.83633
▁car	-8.83857
▁15	-8.83879
▁friend	-8.83895
▁random	-8.84176
oc	-8.84201
▁w	-8.84332
▁vote	-8.84484
ad	-8.84605
▁address	-8.85054
qcom	-8.85175
▁always	-8.85239
god	-8.85358
ent	-8.85562
!!!!	-8.85615
▁research	-8.85667
▁gets	-8.85688
▁form	-8.85871
▁list	-8.85945
fuel	-8.86315
▁purchase	-8.86323
ta	-8.8634
▁learn	-8.86514
ma	-8.86575
▁stop	-8.86783
ndx	-8.86908
unh	-8.86957
▁around	-8.86991
▁deal	-8.87268
▁same	-8.87565
▁pre	-8.87733
yst	-8.87734
able	-8.87855
▁calls	-8.88392
ry	-8.88472
sbux	-8.88491
▁????	-8.88616
nr	-8.88708
china	-8.88787
30	-8.88809
▁game	-8.89211
▁break	-8.89354
▁name	-8.89836
▁amazon	-8.89891
▁%)	-8.90117
▁energy	-8.90194
▁whole	-8.90211
vix	-8.90468
▁revenue	-8.90611
zmrk	-8.90851
hk	-8.90903
▁something	-8.91017
xem	-8.9105
vechain	-8.91231
▁end	-8.91285
▁available	-8.91523
▁small	-8.91531
▁until	-8.9175
▁green	-8.92004
▁she	-8.92298
▁launch	-8.92325
▁signals	-8.92708
%	-8.92826
▁amazing	-8.92961
▁latest	-8.9309
atom	-8.93144
▁yet	-8.93295
lf	-8.93351
▁pump	-8.93702
abbv	-8.93774
alpp	-8.94101
ax	-8.94144
mo	-8.94631
]	-8.94685
▁selling	-8.94711
trade	-8.94723
11	-8.94856
▁pick	-8.9491
▁>	-8.94942
▁bank	-8.95028
co	-8.95097
kmd	-8.95229
▁believe	-8.95291
pctl	-8.95444
▁sale	-8.9555
▁%	-8.95794
ea	-8.95834
nke	-8.95993
not	-8.96025
▁both	-8.96172
rep	-8.96456
▁$100	-8.96566
la	-8.96877
cannabis	-8.97047
▁bought	-8.97107
▁months	-8.97162
weed	-8.97301
if	-8.97303
bidu	-8.9732
lyft	-8.97346
▁option	-8.97508
sq	-8.97704
time	-8.97738
▁trump	-8.97781
oil	-8.9781
now	-8.98661
):	-8.98938
▁making	-8.99037
▁done	-8.99449
my	-8.99457
▁⭐	-8.99678
▁anyone	-8.9977
▁drop	-8.99771
est	-8.99917
▁⭕	-9.00338
▁followers	-9.00388
▁investors	-9.00389
▁$1	-9.00578
le	-9.00591
2020	-9.00736
hi	-9.00868
sho	-9.0097
▁sold	-9.01087
qtum	-9.01106
▁said	-9.01127
ny	-9.01376
▁little	-9.01515
▁traders	-9.01694
ftm	-9.01957
▁paypal	-9.02052
▁add	-9.02571
poe	-9.02784
▁enjoy	-9.03107
technology	-9.03274
▁celebrate	-9.03279
pr	-9.03315
agn	-9.03485
▁past	-9.03689
▁lot	-9.03691
li	-9.0419
▁po	-9.04332
so	-9.04414
at	-9.0448
▁4.	-9.04724
pz	-9.0473
▁hard	-9.04776
wink	-9.04928
of	-9.05071
▁says	-9.05188
buy	-9.05408
▁details	-9.05559
▁–	-9.05974
▁oppo	-9.06035
▁super	-9.06059
#	-9.06113
finance	-9.06129
▁❤	-9.06303
▁highs	-9.06327
erb	-9.06347
pe	-9.06709
pypl	-9.06772
▁potential	-9.06854
500	-9.06917
slv	-9.06961
ual	-9.07179
▁stay	-9.07236
▁leverage	-9.07359
▁level	-9.07515
cel	-9.07555
chain	-9.07556
▁life	-9.07613
new	-9.07868
mco	-9.07969
▁⏰	-9.08099
ul	-9.08329
▁corp	-9.0834
▁claim	-9.08444
by	-9.08496
=	-9.0859
▁tech	-9.0866
▁watching	-9.08756
▁[	-9.08844
altcoins	-9.08874
cc	-9.08876
▁anything	-9.08904
▁$5	-9.09018
fnma	-9.09035
▁added	-9.09037
bb	-9.09455
cha	-9.09485
ch	-9.0967
ies	-9.09838
usk	-9.10077
▁network	-9.1022
▁trying	-9.10336
▁expect	-9.10513
cl	-9.10707
amrn	-9.11
▁business	-9.11116
▁things	-9.11202
zil	-9.11462
▁far	-9.1152
▁less	-9.1154
▁number	-9.1161
vc	-9.11616
ultimate	-9.1166
snt	-9.11675
bx	-9.118
▁sma	-9.11829
▁10000	-9.11858
▁having	-9.11887
13	-9.11907
▁gold	-9.11952
▁ask	-9.12117
as	-9.12362
).	-9.12578
is	-9.12637
ast	-9.12865
nx	-9.13004
▁capital	-9.13131
|	-9.133
▁left	-9.13322
▁steps	-9.13404
▁increase	-9.13636
▁‘	-9.13685
jd	-9.13687
▁gonna	-9.13912
te	-9.14038
▁lower	-9.14045
▁working	-9.1419
elf	-9.14467
▁won	-9.15042
▁weeks	-9.15136
ng	-9.15513
▁returns	-9.15912
ht	-9.16023
do	-9.16028
shappblackfriday	-9.1603
▁event	-9.16036
▁release	-9.1608
ebay	-9.16086
),	-9.16146
▁pts	-9.16403
out	-9.16506
▁doesn	-9.16569
mt	-9.16623
!?	-9.16641
grnf	-9.16718
ac	-9.16803
▁hey	-9.16843
▁merger	-9.16879
▁major	-9.16884
▁global	-9.16909
sell	-9.16934
▁updates	-9.1708
hexo	-9.17095
nok	-9.17247
▁industry	-9.17442
based	-9.1778
ib	-9.17794
aa	-9.17911
bcd	-9.18
▁feel	-9.18021
▁11	-9.18091
▁prices	-9.18143
▁easy	-9.18191
be	-9.1822
▁september	-9.18304
os	-9.18423
▁necessary	-9.18522
ne	-9.18992
▁half	-9.19058
▁uptrend	-9.19094
adbe	-9.19382
low	-9.19417
bounty	-9.19435
▁hope	-9.19479
▁wait	-9.19563
▁due	-9.19763
24	-9.19824
▁oversold	-9.19838
▁ago	-9.20005
ri	-9.20219
eng	-9.20383
▁shopaholic	-9.20634
▁tip	-9.20697
▁reward	-9.20722
dt	-9.20728
sh	-9.20892
ow	-9.20974
bhc	-9.21114
▁breakout	-9.21195
▁info	-9.21292
▁thing	-9.21353
com	-9.21653
▁$20,000	-9.21842
▁trades	-9.21867
▁leave	-9.22111
nc	-9.22353
▁click	-9.22567
erly	-9.2262
unity	-9.22822
12	-9.23174
her	-9.23231
▁position	-9.23393
mj	-9.23592
▁250	-9.23594
▁needs	-9.23764
ip	-9.23881
▁given	-9.23881
▁january	-9.23901
▁prohibited	-9.23903
▁☑	-9.24219
▁✨	-9.24319
▁monday	-9.24433
▁wants	-9.24444
▁float	-9.24962
17	-9.25033
▁ahead	-9.25194
▁yesterday	-9.25298
▁announces	-9.25393
for	-9.25545
zrx	-9.2571
ner	-9.25846
▁range	-9.25882
ation	-9.25987
▁august	-9.26063
▁lol	-9.26066
▁ends	-9.26312
▁2019.	-9.26656
hc	-9.26725
▁indicator	-9.26914
23	-9.26945
ot	-9.26956
▁him	-9.27034
▁vs	-9.27042
▁risk	-9.27153
storm	-9.27194
alts	-9.27346
50	-9.27416
gvt	-9.27634
▁upcoming	-9.27738
ic	-9.27987
."	-9.28094
▁nothing	-9.28182
▁july	-9.28245
dash	-9.28519
▁early	-9.28566
▁might	-9.28571
▁listing	-9.28791
▁recent	-9.28818
tc	-9.28853
tr	-9.29048
▁zacks	-9.29053
▁100%	-9.29234
▁taking	-9.29307
▁prize	-9.29437
nu	-9.29458
▁oil	-9.29459
▁google	-9.29507
rwd	-9.29516
otc	-9.29686
▁point	-9.29729
amb	-9.29836
▁worst	-9.29904
king	-9.29989
18	-9.30062
▁active	-9.30458
▁against	-9.30491
wan	-9.30527
ive	-9.30718
2019	-9.30916
aphd	-9.31098
▁disney	-9.31311
21	-9.31392
axxa	-9.3152
▁karma	-9.31615
vaylatoken	-9.3167
ge	-9.31674
▁campaign	-9.31748
ark	-9.31807
▁projects	-9.31912
bmy	-9.32043
salt	-9.32049
▁elon	-9.32121
laho	-9.32287
▁fast	-9.32351
ate	-9.32419
▁9	-9.32529
▁bot	-9.32559
▁once	-9.32627
cbd	-9.3264
gas	-9.32681
▁bi	-9.32933
gf	-9.33043
bc	-9.33163
▁place	-9.33252
▁primexbt	-9.33481
▁bottom	-9.33635
dgb	-9.33815
▁old	-9.33984
hmla	-9.34093
ins	-9.34103
▁space	-9.34176
nebl	-9.342
▁massive	-9.34403
se	-9.34496
▁comments	-9.34503
hold	-9.34606
▁weekend	-9.34622
▁currency	-9.34627
▁$500	-9.34856
bnt	-9.34942
random	-9.34984
qnt	-9.35013
lsk	-9.35193
arn	-9.35521
potstocks	-9.3591
▁2000	-9.35926
▁holdings	-9.35953
iep	-9.3602
pivx	-9.36105
▁review	-9.36195
igex	-9.36287
▁return	-9.36428
26	-9.36681
▁between	-9.36732
▁power	-9.36774
▁16	-9.36859
ae	-9.36963
ur	-9.37003
wba	-9.37121
▁currently	-9.37366
xj	-9.37524
▁round	-9.37528
▁analysis	-9.37672
▁media	-9.37787
ap	-9.37818
bk	-9.37884
ncash	-9.37975
doge	-9.38283
▁vol	-9.38285
▁300	-9.38491
▁utc	-9.38608
▁un	-9.38657
▁wanna	-9.38807
daps	-9.38928
axp	-9.38953
▁christmas	-9.39064
abt	-9.39098
un	-9.39099
▁turn	-9.39339
▁premium	-9.39436
▁credit	-9.39484
work	-9.39563
▁+1	-9.39708
▁register	-9.39813
▁tell	-9.40061
▁gain	-9.40116
ment	-9.4018
pt	-9.40295
▁breaking	-9.4031
▁dividend	-9.40339
▁zone	-9.40364
▁insider	-9.40385
ie	-9.4041
▁⚡	-9.4054
▁possible	-9.40595
▁guess	-9.40646
hz	-9.40707
top	-9.40746
▁content	-9.40787
term	-9.40845
roy	-9.41003
▁paid	-9.41028
35	-9.41049
eva	-9.41081
cryptocurrencies	-9.41081
▁dollar	-9.41207
▁private	-9.41273
rd	-9.41292
▁mining	-9.41361
pc	-9.41395
business	-9.414
▁near	-9.414
stockstowatch	-9.4141
▁favorite	-9.41735
▁largest	-9.41739
snm	-9.41802
▁✔	-9.41868
skpo	-9.419
▁5000	-9.4204
biib	-9.42054
▁$50,000.	-9.42423
utx	-9.42522
key	-9.42624
22	-9.42727
silver	-9.42733
mc	-9.4279
▁key	-9.42835
strat	-9.42847
mar	-9.42868
▁10,000	-9.43054
rbnw	-9.43065
amat	-9.43099
nership	-9.43186
▁october	-9.43198
▁visit	-9.43315
▁25	-9.43319
▁term	-9.43477
mus	-9.43673
bit	-9.43693
sma	-9.43737
nuls	-9.43742
▁supply	-9.43759
bsv	-9.43791
▁impo	-9.43821
gn	-9.43861
▁recently	-9.43964
fcx	-9.44006
▁resistance	-9.44152
▁plan	-9.44215
ir	-9.44249
aion	-9.44375
▁profits	-9.44389
uso	-9.44554
▁draw	-9.44578
lk	-9.44732
▁almost	-9.44812
etn	-9.44928
▁signal	-9.44929
▁without	-9.44978
▁maybe	-9.45034
mth	-9.45043
▁line	-9.45096
web	-9.45205
ann	-9.45369
cashapp	-9.45409
zb	-9.45453
▁during	-9.45791
▁competition	-9.45981
altcoin	-9.45985
▁?#	-9.46085
▁november	-9.46086
xy	-9.46125
▁sec	-9.46182
folio	-9.46293
airdrops	-9.46376
bl	-9.46428
wtc	-9.46509
▁scan	-9.46517
▁december	-9.466
▁14	-9.46667
▁social	-9.46732
td	-9.46855
▁makes	-9.4694
▁plus	-9.46948
▁bull	-9.47093
tho	-9.47103
sm	-9.47251
▁conference	-9.47272
avx	-9.47404
▁closed	-9.47525
▁kids	-9.47579
️⃣	-9.47601
▁rates	-9.47793
▁rate	-9.4783
powr	-9.47894
you	-9.47915
ardr	-9.47953
cryptogiveaway	-9.47992
▁$10,000	-9.48053
▁increased	-9.48104
▁information	-9.48225
▁48	-9.48261
▁everything	-9.48325
nwbo	-9.48579
iot	-9.48587
vet	-9.48721
ero	-9.48831
▁fun	-9.48938
14	-9.49013
15	-9.49117
▁such	-9.49133
▁usa	-9.49192
▁didn	-9.49237
▁5.	-9.49487
--	-9.49644
oti	-9.49784
icipate	-9.49823
▁50%	-9.49869
▁changes	-9.49876
exchange	-9.49961
fl	-9.49984
gr	-9.50015
op	-9.50079
privacy	-9.50135
appc	-9.50346
▁options	-9.5035
fast	-9.50403
▁yes	-9.50448
mm	-9.50473
wlo	-9.50489
▁losing	-9.50567
two	-9.50577
▁entry	-9.50702
live	-9.50779
ev	-9.50799
▁large	-9.50829
rut	-9.50859
▁complete	-9.50897
▁enough	-9.5091
npxs	-9.50918
▁interesting	-9.50967
▁record	-9.50968
▁head	-9.50989
▁musk	-9.51028
▁jan	-9.51155
ian	-9.51166
▁0.1	-9.51178
▁block	-9.51381
▁single	-9.51451
▁members	-9.51519
▁spread	-9.51618
▁system	-9.51656
▁contract	-9.51691
lvs	-9.51858
rules	-9.51891
▁technology	-9.51904
▁bearish	-9.51983
▁bonus	-9.52215
▁filed	-9.52221
fcel	-9.52499
ends	-9.5255
▁behind	-9.52554
ners	-9.52626
▁doge	-9.52664
▁case	-9.52731
▁broke	-9.52779
ti	-9.52843
mnk	-9.52861
zen	-9.52978
▁lesson	-9.52983
▁seems	-9.53185
▁monthly	-9.53232
▁order	-9.53244
▁waiting	-9.53258
lets	-9.533
mining	-9.5338
▁production	-9.53477
▁moves	-9.53506
▁official	-9.53509
btg	-9.53513
mi	-9.53578
va	-9.53596
▁son	-9.53745
app	-9.53838
▁products	-9.53846
gd	-9.53903
▁bounce	-9.53955
▁tzc	-9.53975
▁management	-9.54076
▁imo	-9.54168
▁volatility	-9.54177
oop	-9.54189
pi	-9.54277
▁filings	-9.54351
▁raised	-9.54506
year	-9.54658
▁consensus	-9.54885
▁videos	-9.54985
▁service	-9.55084
▁gains	-9.55114
▁times	-9.55151
vsi	-9.55167
rs	-9.55174
▁$20	-9.55341
▁estimates	-9.55361
wings	-9.55446
▁remember	-9.55626
▁brokerages	-9.55646
sta	-9.55744
▁means	-9.55884
▁puts	-9.55998
vi	-9.56111
▁red	-9.56133
▁fed	-9.56261
▁appreciate	-9.56274
xn	-9.56293
bs	-9.56516
▁wake	-9.56534
▁pro	-9.56601
▁52	-9.5667
play	-9.56732
▁public	-9.56768
▁cars	-9.56877
▁fund	-9.56946
▁others	-9.57017
rc	-9.57037
▁family	-9.57076
kcs	-9.57118
▁gap	-9.57126
grs	-9.57137
▁13	-9.57245
xlnx	-9.57278
ei	-9.57282
▁download	-9.57397
▁quick	-9.57403
69	-9.57437
▁de	-9.57564
ol	-9.57637
▁pt	-9.57779
▁used	-9.57887
▁18	-9.58138
▁action	-9.58142
▁1)	-9.58163
▁tonight	-9.58186
▁posted	-9.58204
▁cut	-9.5836
▁job	-9.58486
hx	-9.58531
▁finally	-9.58665
▁simple	-9.58842
ha	-9.58994
pwdy	-9.5903
▁invite	-9.59069
▁cannabis	-9.59114
▁feb	-9.59186
week	-9.59267
▁17	-9.59327
bot	-9.59333
video	-9.59363
▁assets	-9.59371
40	-9.59407
▁continue	-9.59416
▁email	-9.5945
200	-9.5949
paypig	-9.59529
▁dip	-9.59554
▁according	-9.59607
▁wow	-9.59753
▁$2	-9.5997
funn	-9.59997
▁tweets	-9.60065
88	-9.60097
▁fundamentals	-9.60272
bi	-9.60388
lly	-9.60512
coinkit	-9.60516
▁performance	-9.60562
hemp	-9.60647
▁folks	-9.60666
▁donate	-9.6068
▁systems	-9.60777
▁wrong	-9.60839
▁story	-9.60906
65	-9.60918
ay	-9.61104
▁swing	-9.61201
net	-9.61335
has	-9.61445
▁forget	-9.61521
big	-9.61666
▁version	-9.61753
▁listen	-9.61773
▁trust	-9.61801
ct	-9.61815
♻	-9.61818
wallstreet	-9.61818
▁bring	-9.61851
▁home	-9.61868
▁deposit	-9.61891
25	-9.61981
▁flow	-9.61982
▁crazy	-9.62023
▁=>	-9.62036
▁downtrend	-9.6224
▁welcome	-9.6227
ah	-9.62318
coronavirus	-9.62356
hday	-9.62362
trump	-9.62412
list	-9.62435
▁black	-9.62446
▁seen	-9.62523
love	-9.62656
90	-9.62701
▁2)	-9.6273
blb	-9.62737
avgo	-9.62893
usa	-9.62952
▁analyst	-9.63016
▁believer	-9.63071
rillion	-9.63184
spot	-9.6336
▁150	-9.63398
▁demand	-9.63425
edo	-9.63431
▁stake	-9.63437
▁pretty	-9.63448
hal	-9.6347
▁nov	-9.63505
brd	-9.63592
▁actually	-9.63634
▁loss	-9.63792
▁sells	-9.63932
▁names	-9.64003
▁else	-9.64076
lit	-9.64196
last	-9.64237
bull	-9.64267
▁questions	-9.6428
wallet	-9.64325
▁season	-9.64514
elr	-9.64529
▁0	-9.64611
▁($	-9.64773
eem	-9.64836
▁side	-9.64849
▁funds	-9.64856
▁international	-9.64866
abx	-9.64966
▁related	-9.65132
▁debt	-9.65146
▁conve	-9.65241
▁sh	-9.65441
▁three	-9.65461
▁second	-9.65544
owpp	-9.65564
▁beat	-9.65651
ain	-9.65675
shmp	-9.65741
▁payment	-9.65896
27	-9.6593
▁services	-9.65979
sky	-9.66167
▁dec	-9.66204
▁sats	-9.66319
era	-9.6637
▁product	-9.66385
▁website	-9.66562
▁based	-9.66719
▁growing	-9.66845
▁▪	-9.66934
▁digital	-9.66969
ft	-9.66985
lisk	-9.67012
▁lost	-9.67024
▁forward	-9.67061
bu	-9.67068
▁night	-9.6707
▁wall	-9.67221
▁gave	-9.67229
▁falling	-9.67343
satoshi	-9.67385
▁baby	-9.67441
▁state	-9.67516
▁true	-9.6766
over	-9.67775
!!!.	-9.67785
gl	-9.67789
▁fu	-9.67838
▁choice	-9.67843
uvxy	-9.68078
▁happen	-9.6812
▁within	-9.68274
bcpt	-9.68304
ci	-9.68339
▁goes	-9.68545
fi	-9.68639
▁markets	-9.68694
▁late	-9.68801
▁likely	-9.68931
bp	-9.69007
mith	-9.69026
95	-9.69068
▁cost	-9.69087
xle	-9.69336
gen	-9.69347
▁points	-9.69349
ph	-9.69513
▁tuesday	-9.69533
▁mean	-9.69543
▁went	-9.69701
▁later	-9.69842
▁least	-9.69871
▁mind	-9.69935
▁discount	-9.70035
omi	-9.70193
52	-9.70222
▁fees	-9.70228
▁ratio	-9.70354
▁street	-9.70461
ity	-9.70578
▁program	-9.70605
token	-9.70618
▁paying	-9.70639
48	-9.70843
▁corporation	-9.7108
nav	-9.71116
iotx	-9.71152
▁awesome	-9.71177
▁room	-9.71183
▁highest	-9.71199
▁upgraded	-9.71205
▁took	-9.71303
dapps	-9.71314
▁chain	-9.71375
bqx	-9.71605
✅	-9.71614
oo	-9.71636
ist	-9.71863
▁care	-9.7203
>	-9.72037
ogi	-9.72185
ally	-9.72242
46	-9.7227
▁america	-9.72295
▁picked	-9.72324
line	-9.72344
rh	-9.72356
ji	-9.72366
▁test	-9.72552
▁special	-9.72617
ok	-9.72636
acrl	-9.72714
06	-9.72735
rul	-9.72775
▁watchlist	-9.72785
gx	-9.7286
ab	-9.73116
bolt	-9.73253
33	-9.73323
▁winning	-9.73359
▁beginning	-9.73383
▁card	-9.73397
steem	-9.73416
▁dd	-9.73418
▁moon	-9.73454
poly	-9.73465
ico	-9.73505
▁▶	-9.73529
▁shit	-9.73898
▁bill	-9.73925
39	-9.73941
▁income	-9.73952
cash	-9.73969
nk	-9.74015
▁pls	-9.74025
▁filing	-9.7406
▁$500,	-9.74203
▁-1	-9.74204
su	-9.74207
▁building	-9.74217
tronclass	-9.74318
▁ecosystem	-9.74336
▁trend	-9.74338
▁health	-9.74376
ee	-9.74388
▁isn	-9.74406
sha	-9.7466
lb	-9.74671
▁called	-9.74721
game	-9.7482
▁solid	-9.75058
99	-9.75165
mtl	-9.75172
▁2018	-9.75377
▁extra	-9.75417
00	-9.75453
▁cause	-9.75563
box	-9.7567
▁store	-9.75739
schw	-9.75742
lrcx	-9.75743
luv	-9.75763
▁positive	-9.75778
▁bit	-9.75825
rn	-9.75827
▁boost	-9.75929
dix	-9.75987
io	-9.76052
▁found	-9.76193
linkup	-9.76219
▁ce	-9.76224
▁push	-9.76308
▁history	-9.76308
▁1,000	-9.7634
▁together	-9.76459
29	-9.76529
bio	-9.76738
16	-9.76833
rv	-9.76903
si	-9.76946
▁create	-9.76973
▁issues	-9.77016
▁build	-9.77054
wo	-9.77168
dy	-9.77193
▁including	-9.77224
▁retweets	-9.77442
▁microsoft	-9.77496
qk	-9.77547
▁numbers	-9.77569
kr	-9.77651
7%	-9.77747
twitter	-9.77763
▁referral	-9.77849
▁thursday	-9.77912
▁board	-9.78018
▁6.	-9.7815
share	-9.78183
▁talk	-9.78246
05	-9.78466
ura	-9.78479
ew	-9.78505
ino	-9.78616
tl	-9.78798
▁code	-9.78818
▁amount	-9.78963
apple	-9.79059
fdx	-9.79143
life	-9.79162
.00	-9.79288
▁<	-9.79342
rig	-9.79347
cx	-9.79429
▁running	-9.79473
▁fraud	-9.79632
dow	-9.79652
38	-9.79658
▁split	-9.79713
▁$30	-9.79882
ni	-9.79974
futures	-9.8003
▁guidance	-9.8017
fc	-9.80176
▁dow	-9.80285
▁instant	-9.80293
nex	-9.80387
▁rewards	-9.8039
34	-9.80682
di	-9.80767
▁pool	-9.80842
▁become	-9.80966
cn	-9.80985
▁dgb	-9.81079
▁—	-9.8115
▁question	-9.81189
lend	-9.81253
club	-9.81311
▁treasuries	-9.81553
▁rest	-9.81579
▁banks	-9.81611
land	-9.81636
spce	-9.81679
~	-9.81839
bie	-9.8186
ice	-9.81924
▁progress	-9.8195
pl	-9.82011
▁10%	-9.82211
dollar	-9.82235
nrg	-9.82442
42	-9.82452
~!	-9.82484
▁development	-9.82556
rgn	-9.82568
▁gift	-9.82591
▁caps	-9.82673
▁subscribe	-9.82755
fet	-9.82837
▁setup	-9.82897
family	-9.82907
rl	-9.82924
▁staking	-9.82987
▁track	-9.83039
pp	-9.83287
76	-9.83358
ho	-9.83423
rk	-9.83605
▁2020.	-9.83704
this	-9.8372
off	-9.83737
bcn	-9.83854
▁60	-9.83903
47	-9.8391
▁holders	-9.83987
▁levels	-9.84052
96	-9.84063
▁focus	-9.84079
▁minutes	-9.84235
▁cheap	-9.84405
ce	-9.84411
▁fee	-9.84504
con	-9.8456
01	-9.84596
icipants	-9.84608
▁speech	-9.84665
model	-9.84706
▁reason	-9.84735
⬇	-9.84797
▁note	-9.84859
80	-9.8491
▁continues	-9.84971
opti	-9.85043
▁probably	-9.85102
▁fy	-9.85128
fun	-9.8533
▁?????	-9.85404
wynn	-9.85431
sn	-9.85493
▁proof	-9.85503
▁21	-9.85535
▁moved	-9.85551
▁dollars	-9.85563
100	-9.85771
amp	-9.85818
9%	-9.85855
pins	-9.85873
▁source	-9.85971
▁sector	-9.86004
▁released	-9.8603
can	-9.86045
▁avg	-9.86224
▁announcement	-9.86255
rip	-9.8642
ocean	-9.86473
md	-9.86475
gild	-9.86483
less	-9.86582
ppt	-9.86619
▁step	-9.86785
▁(1	-9.86836
▁5,000	-9.87029
▁plans	-9.87197
▁bless	-9.87229
ggsm	-9.87253
▁non	-9.87321
41	-9.87322
▁est	-9.87479
▁updated	-9.87493
rb	-9.87623
ec	-9.87675
▁bob	-9.87715
use	-9.87774
€	-9.87823
rf	-9.87837
erc	-9.87855
myl	-9.87892
▁offer	-9.87948
.”	-9.8795
09	-9.88022
dogecoin	-9.88068
32	-9.88076
▁reach	-9.88153
▁lows	-9.88202
2.5	-9.88271
▁double	-9.88297
▁+2	-9.88342
▁rsi	-9.88356
▁dis	-9.88379
nb	-9.88418
gnt	-9.88476
▁answer	-9.88508
▁attention	-9.88555
▁sentiment	-9.88585
po	-9.88586
yio	-9.8862
cro	-9.88621
▁upside	-9.88636
▁vi	-9.88731
▁dump	-9.8875
olt	-9.88752
▁aug	-9.88797
sdrc	-9.8882
▁3)	-9.8888
▁decentralized	-9.89146
▁oct	-9.89179
▁rally	-9.8921
fles	-9.89272
▁pair	-9.89332
49	-9.89341
▁7.	-9.89344
ey	-9.89525
60	-9.89549
▁mid	-9.8959
eric	-9.89598
maxpain	-9.89614
xlf	-9.89709
68	-9.89835
em	-9.89888
rel	-9.899
bo	-9.89933
▁tax	-9.89953
▁electric	-9.89973
79	-9.90002
▁⁦	-9.90092
59	-9.90162
xo	-9.90169
▁bigger	-9.90179
▁negative	-9.90228
▁asset	-9.90533
per	-9.90539
ga	-9.90634
▁hu	-9.9074
np	-9.9085
▁sent	-9.90923
▁chat	-9.91056
eur	-9.91122
55	-9.91125
▁$25	-9.91321
▁performer	-9.9143
create	-9.91456
receives	-9.9159
▁50-	-9.91612
usdc	-9.91641
done	-9.91648
▁food	-9.91736
ney	-9.91796
▁⏩	-9.91814
▁guide	-9.91865
antm	-9.91953
98	-9.92012
▁told	-9.92026
▁different	-9.92045
▁idea	-9.92055
▁excited	-9.92074
▁access	-9.92117
od	-9.92128
sx	-9.92128
hy	-9.92136
mkr	-9.92143
▁missed	-9.92201
▁phone	-9.92228
58	-9.92231
▁applications	-9.92412
97	-9.9245
▁net	-9.92551
▁$0.	-9.92564
▁online	-9.92588
cb	-9.92607
▁dont	-9.92651
▁rise	-9.92667
ell	-9.92696
▁couple	-9.92873
▁index	-9.93056
▁longer	-9.93096
way	-9.93152
▁max	-9.93155
▁investor	-9.93287
▁pull	-9.93295
66	-9.93327
▁20,000	-9.93362
wm	-9.93388
hlf	-9.93388
ty	-9.93397
▁expiration	-9.93425
▁country	-9.93431
▁multiple	-9.93595
▁lowered	-9.93718
daytrader	-9.93779
khc	-9.93783
07	-9.93825
▁thought	-9.93872
rad	-9.93994
▁pattern	-9.94001
▁exchanges	-9.9404
dd	-9.94053
gate	-9.94054
▁features	-9.94089
▁cross	-9.94092
energy	-9.94152
▁comes	-9.94159
▁dividends	-9.94164
zm	-9.94171
ngine	-9.94214
36	-9.94214
rst	-9.94302
fe	-9.94306
▁bid	-9.9431
▁discovery	-9.94338
▁zero	-9.94494
▁fire	-9.94556
08	-9.94576
study	-9.94583
▁wonder	-9.94855
37	-9.95085
dax	-9.95098
▁squeeze	-9.95112
dex	-9.9512
eol	-9.9529
▁common	-9.95388
wd	-9.95478
▁understand	-9.95492
▁activity	-9.95589
ruck	-9.95628
▁multi	-9.95653
▁fake	-9.95717
oce	-9.95726
▁area	-9.95851
rsr	-9.95902
hodl	-9.96514
▁offering	-9.96554
dapp	-9.96727
▁contracts	-9.96753
tnrgold	-9.9681
▁straight	-9.9681
▁interview	-9.96848
▁hits	-9.96901
▁february	-9.97097
▁prizes	-9.97196
▁war	-9.97219
▁otc	-9.97243
▁minute	-9.97296
▁customers	-9.97375
bet	-9.97381
▁eye	-9.97404
▁oh	-9.97847
loak	-9.97851
om	-9.97853
▁takes	-9.979
ck	-9.97958
cool	-9.97962
grin	-9.97962
}	-9.97995
qsr	-9.98003
▁president	-9.98038
gy	-9.9808
▁date	-9.98135
.....	-9.98239
bittorrent	-9.98255
nxt	-9.98459
ama	-9.9849
▁reply	-9.98493
▁chinese	-9.98874
rlc	-9.98957
▁reached	-9.98983
tt	-9.99066
▁software	-9.99107
da	-9.9914
▁scam	-9.99258
br	-9.99296
▁reverse	-9.99313
tronics	-9.99446
amazon	-9.9963
▁4:	-9.99647
▁resources	-9.99767
gif	-9.99833
▁man	-9.99968
▁shown	-10.0011
au	-10.0025
fo	-10.0035
▁slow	-10.0036
▁success	-10.0036
trc	-10.0048
sto	-10.0058
▁band	-10.0062
▁+/-	-10.0062
godf	-10.0066
▁:)	-10.0066
ptam	-10.0067
▁goal	-10.0074
fr	-10.0081
▁gone	-10.0083
▁catch	-10.0083
elg	-10.0086
pw	-10.0089
▁retail	-10.0106
▁cover	-10.012
▁works	-10.0121
marijuana	-10.0128
something	-10.013
▁thinking	-10.0144
robinhood	-10.0151
93	-10.0152
qalb	-10.0153
▁$150	-10.0162
bis	-10.0172
▁planet	-10.0173
▁talking	-10.0174
43	-10.0178
▁march	-10.0184
mill	-10.0185
azn	-10.0194
▁feeling	-10.0195
▁22	-10.0196
▁deep	-10.0199
▁promote	-10.0199
▁control	-10.0203
▁entire	-10.0206
71	-10.0208
▁fall	-10.0212
▁fully	-10.0223
▁repost	-10.0239
▁simply	-10.0242
kwbt	-10.0242
03	-10.0243
▁main	-10.0252
▁youtube	-10.0272
user	-10.0287
ps	-10.0287
▁accounts	-10.0297
price	-10.03
▁security	-10.0323
▁$300	-10.0325
ads	-10.0326
banktank	-10.0333
plug	-10.0336
nem	-10.0344
51	-10.0344
▁2.0	-10.0345
zcl	-10.0352
back	-10.0352
89	-10.0353
get	-10.0359
▁either	-10.0364
▁stream	-10.0369
▁shows	-10.0373
▁closing	-10.0381
xzc	-10.0382
▁jobs	-10.0383
▁boeing	-10.0384
▁premarket	-10.039
▁load	-10.0398
financial	-10.0399
85	-10.04
investors	-10.0405
▁drops	-10.0409
▁clear	-10.0409
▁bulls	-10.0413
▁futures	-10.0415
loom	-10.0439
labs	-10.0444
▁momentum	-10.0447
▁cbd	-10.0447
▁invest	-10.0458
▁8.	-10.0463
bn	-10.047
elz	-10.0485
▁kind	-10.0487
lulu	-10.0488
litecoin	-10.0488
▁fill	-10.049
▁wish	-10.0497
are	-10.0499
▁$20,000.	-10.0502
lr	-10.0508
94	-10.0509
▁internet	-10.051
slb	-10.0514
▁saying	-10.0524
▁grow	-10.0525
▁??????	-10.0536
▁sharing	-10.0542
▁pop	-10.0549
▁among	-10.0552
▁screenshot	-10.0561
▁gainers	-10.0574
emp	-10.0575
ish	-10.0577
fintech	-10.0583
▁$15	-10.0586
nexo	-10.0589
ance	-10.059
nn	-10.0618
▁contest	-10.0622
sne	-10.0633
▁50,000	-10.0639
▁yourself	-10.0653
shill	-10.0653
og	-10.0655
▁session	-10.0658
cap	-10.0677
apa	-10.0678
date	-10.0679
pos	-10.0692
just	-10.0698
31	-10.0709
smh	-10.071
dump	-10.0714
▁bear	-10.0717
▁lock	-10.0722
hosted	-10.0722
ikto	-10.0725
56	-10.0731
▁distributed	-10.074
ns	-10.0741
▁adoption	-10.0752
▁40	-10.0761
▁bucks	-10.0762
▁white	-10.0765
▁20%	-10.0773
▁general	-10.0775
▁haven	-10.0778
▁plays	-10.0789
▁funding	-10.0789
▁acquisition	-10.079
dec	-10.0794
67	-10.0794
▁mobile	-10.0798
gw	-10.0799
▁bonds	-10.0801
▁wins	-10.0805
yn	-10.0812
▁ma	-10.0815
▁lets	-10.0828
fastest	-10.0833
▁phase	-10.0835
ech	-10.0835
▁quality	-10.0839
ke	-10.0843
▁0.01	-10.0844
▁mainnet	-10.0851
▁held	-10.0855
▁house	-10.0855
▁inside	-10.0856
⚡	-10.0856
mn	-10.0857
▁selected	-10.0871
unrg	-10.0873
block	-10.0876
ling	-10.0887
53	-10.0891
biz	-10.0899
▁sub	-10.0901
04	-10.0906
revolution	-10.0914
age	-10.0915
)|	-10.0922
▁showing	-10.0937
▁29	-10.0939
shak	-10.0946
▁hairy	-10.0966
▁height	-10.0967
dog	-10.0967
ripple	-10.097
▁guy	-10.098
▁--	-10.0985
bmm	-10.0986
pennystocks	-10.0987
▁stand	-10.1003
▁matter	-10.1007
pld	-10.1007
repo	-10.1028
cashapphalloween	-10.1031
▁28	-10.1039
bbt	-10.1057
▁mine	-10.1063
▁instead	-10.1063
giveaways	-10.1068
▁facebook	-10.1068
92	-10.1087
rab	-10.1092
▁moment	-10.1108
▁losers	-10.1109
htr	-10.1114
75	-10.1116
▁10-	-10.1122
▁costs	-10.1124
fed	-10.1128
goddess	-10.1129
▁mention	-10.113
pacv	-10.1133
▁built	-10.1133
▁auto	-10.1144
▁previous	-10.1152
help	-10.1159
▁19	-10.1163
mgo	-10.1179
▁⬆	-10.1183
▁hea	-10.1188
pnc	-10.1194
fit	-10.1196
altseason	-10.1196
▁grandma	-10.1197
car	-10.1199
▁base	-10.1207
64	-10.1215
via	-10.1216
▁traded	-10.1224
▁book	-10.1226
▁reversal	-10.123
pred	-10.1233
atvi	-10.1236
tx	-10.1241
leo	-10.1245
ayx	-10.1247
pix	-10.1247
▁technologies	-10.1261
▁spo	-10.1268
▁girl	-10.1276
▁proud	-10.1288
fire	-10.13
▁strength	-10.1303
▁400	-10.1304
siri	-10.1308
▁ltd	-10.1332
prgo	-10.1337
rio	-10.1343
amtd	-10.1347
▁1-	-10.1347
isrg	-10.1365
down	-10.1369
▁press	-10.1377
oott	-10.1379
▁leading	-10.138
▁rank	-10.1382
copper	-10.1386
▁seeing	-10.1397
▁shareholders	-10.1401
▁strike	-10.1406
▁impact	-10.1425
▁llc	-10.143
▁transaction	-10.1443
▁beats	-10.1446
▁hi	-10.1455
▁-->	-10.1458
▁forecast	-10.1461
odx	-10.1473
▁final	-10.1474
trader	-10.1475
1:	-10.1478
420	-10.1478
ieo	-10.148
6%	-10.1486
real	-10.149
pfms	-10.1503
▁im	-10.1509
gi	-10.1512
▁director	-10.1518
▁streaming	-10.1529
ass	-10.1532
▁extension	-10.1536
▁congrats	-10.1537
jblu	-10.1537
▁ghosted	-10.1537
christmas	-10.1547
eo	-10.155
74	-10.156
▁air	-10.1561
▁lots	-10.1564
▁calling	-10.1566
▁thread	-10.1571
storj	-10.1571
gaming	-10.1574
apr	-10.1585
ara	-10.1587
libe	-10.1591
▁positions	-10.1598
your	-10.16
▁though	-10.1605
▁agreement	-10.1606
ov	-10.1613
act	-10.1618
▁reserve	-10.1619
▁needed	-10.1621
dn	-10.1621
▁present	-10.1623
adx	-10.1629
cryptotwitter	-10.163
ray	-10.1633
son	-10.1637
▁battery	-10.1637
▁perfect	-10.1653
eg	-10.1655
los	-10.166
!??	-10.1663
▁secret	-10.1663
73	-10.1683
▁fans	-10.1689
▁sunday	-10.1695
tu	-10.1695
▁issue	-10.1697
78	-10.1705
bf	-10.171
▁8-	-10.1721
nwhf	-10.1745
▁hide	-10.1749
▁raise	-10.175
ops	-10.1777
shotgun	-10.1781
@	-10.1784
long	-10.1787
▁dma	-10.1791
▁locked	-10.1796
▁yield	-10.1802
$$	-10.1802
▁9.	-10.1805
57	-10.1813
▁save	-10.183
cybe	-10.1835
▁sept	-10.184
▁pivot	-10.184
bby	-10.1845
ocu	-10.185
▁truly	-10.1852
data	-10.1867
forex	-10.1867
▁solar	-10.1869
▁23	-10.1869
70	-10.1871
81	-10.1874
▁spend	-10.1876
auto	-10.1879
agg	-10.1882
sl	-10.1905
????	-10.1909
aal	-10.1921
▁dropping	-10.1924
82	-10.1927
▁ppl	-10.1932
ung	-10.1936
watch	-10.1942
▁happening	-10.1952
ym	-10.1955
▁recommendation	-10.1959
wabi	-10.196
music	-10.1964
▁bills	-10.1967
value	-10.1968
▁1000000	-10.1973
▁adding	-10.1982
▁size	-10.1988
▁fact	-10.1988
02	-10.1989
▁jump	-10.199
pax	-10.2006
sign	-10.2008
▁american	-10.2009
corp	-10.2009
62	-10.201
tion	-10.2015
snp	-10.2015
▁secure	-10.2023
▁31	-10.2026
▁along	-10.2026
mro	-10.204
lin	-10.2048
bullish	-10.2058
rop	-10.2058
pro	-10.2062
▁significant	-10.2065
▁ur	-10.2075
▁tuned	-10.2076
totrade	-10.2082
um	-10.2083
blue	-10.209
ical	-10.2094
84	-10.2099
▁fight	-10.2105
▁stuff	-10.2105
2:	-10.2108
!!!!!	-10.2113
▁distribution	-10.2117
knc	-10.2125
▁trial	-10.2133
▁trouble	-10.2141
tronscan	-10.2141
▁dead	-10.215
ilt	-10.2151
fx	-10.2151
▁class	-10.2152
treos	-10.2158
oxy	-10.2161
▁type	-10.2165
▁25000	-10.2167
▁towards	-10.2172
▁lead	-10.2175
▁fuck	-10.2176
▁medical	-10.2177
commodities	-10.2178
▁balance	-10.2178
▁giveaways	-10.2183
▁mark	-10.2183
star	-10.2188
▁ref	-10.2195
sub	-10.2205
▁canada	-10.2208
▁popular	-10.2208
▁targets	-10.2212
xt	-10.2215
finsub	-10.2215
▁experience	-10.2219
ko	-10.2221
▁groups	-10.2224
▁message	-10.2226
87	-10.2229
vr	-10.223
run	-10.2231
hog	-10.2233
▁picture	-10.2235
▁undervalued	-10.2235
86	-10.224
▁hate	-10.2243
alt	-10.2246
erd	-10.2257
ntrr	-10.2258
▁remain	-10.226
▁hand	-10.2261
downgraded	-10.2264
ous	-10.2269
ether	-10.2276
bitmex	-10.2277
▁deficit	-10.2278
ure	-10.2282
wax	-10.2283
jcp	-10.2283
economy	-10.2286
⚠	-10.2288
▁millions	-10.2295
▁pm	-10.2296
▁weak	-10.23
▁playing	-10.2303
sco	-10.2304
▁turned	-10.232
▁bidask	-10.2326
▁$200	-10.2328
-->	-10.233
catex	-10.233
post	-10.2332
▁ama	-10.2338
▁beyond	-10.234
huge	-10.2341
▁finance	-10.2346
▁able	-10.2348
bdd	-10.235
stockoptions	-10.235
▁€	-10.2354
ubv	-10.2365
▁1/2	-10.2374
▁nearly	-10.2375
pot	-10.2378
ja	-10.2383
▁lose	-10.2385
▁hello	-10.2385
▁problem	-10.2392
our	-10.2393
61	-10.2394
72	-10.2399
▁mo	-10.24
tv	-10.24
ade	-10.24
▁literally	-10.2401
▁chosen	-10.2403
▁third	-10.2406
ting	-10.241
community	-10.2411
▁talks	-10.2416
▁came	-10.2416
nov	-10.2428
aryc	-10.2434
44	-10.2435
eum	-10.2436
▁regard	-10.2439
▁chrome	-10.2439
▁minimum	-10.2443
▁safe	-10.2446
▁subs	-10.245
▁hedge	-10.2459
▁27	-10.246
▁exciting	-10.2477
let	-10.248
rdd	-10.2486
iv	-10.2496
ern	-10.2501
▁roll	-10.2502
▁government	-10.2508
▁provide	-10.2511
tribune	-10.2515
▁keynote	-10.2515
▁imagine	-10.2519
35%	-10.2522
.10	-10.2524
red	-10.2526
54	-10.2534
▁transactions	-10.2539
hl	-10.2541
ible	-10.2543
med	-10.2543
easy	-10.2548
▁equity	-10.2552
wf	-10.2564
▁launched	-10.2565
800	-10.2566
btm	-10.2567
▁⬇	-10.2571
month	-10.2583
ahontas	-10.2591
▁glad	-10.2597
doc	-10.2598
91	-10.2598
kmi	-10.2599
▁sat	-10.2601
♥	-10.2605
▁fan	-10.2609
az	-10.2613
▁randomly	-10.2614
▁sellers	-10.2626
▁federal	-10.2627
ock	-10.263
▁intel	-10.2631
ftse	-10.2632
▁tips	-10.2635
▁grab	-10.2638
▁saw	-10.2646
invest	-10.2647
▁rising	-10.2651
tst	-10.2656
rnx	-10.2657
▁course	-10.266
blk	-10.2664
▁privacy	-10.267
▁drive	-10.2673
▁consider	-10.2676
pb	-10.2682
ness	-10.2682
▁delivery	-10.2684
▁shanghai	-10.2685
▁boom	-10.2687
▁(8	-10.269
▁?1	-10.2696
yla	-10.2716
⬆	-10.2722
lm	-10.273
▁pharmaceuticals	-10.2754
ana	-10.276
xl	-10.2773
ter	-10.2774
fair	-10.2775
▁panic	-10.2776
▁user	-10.2789
bbby	-10.2805
▁leg	-10.2806
▁rn	-10.2809
earn	-10.2813
▁cloud	-10.2814
fox	-10.2821
▁received	-10.2835
▁brand	-10.2841
matic	-10.2843
with	-10.2845
oh	-10.2851
▁rent	-10.2855
▁definitely	-10.2864
▁movement	-10.2864
cai	-10.287
inse	-10.2872
quite	-10.2876
▁host	-10.288
ww	-10.2886
▁agree	-10.2886
lu	-10.2889
▁fly	-10.2892
▁bollinger	-10.2903
▁exceed	-10.2903
▁missing	-10.2908
ld	-10.2913
sr	-10.292
▁di	-10.2925
noc	-10.2925
▁buys	-10.2925
ster	-10.2929
▁site	-10.2943
▁sorry	-10.2945
▁fear	-10.2948
aoa	-10.2955
▁tg	-10.2959
auy	-10.2962
▁process	-10.2967
▁(#	-10.2968
▁breaks	-10.2972
biotech	-10.2973
mft	-10.2978
bt	-10.2989
ful	-10.2995
28	-10.3014
▁personal	-10.3025
giving	-10.3025
▁five	-10.3026
▁flag	-10.3026
defi	-10.3026
▁spam	-10.3029
▁till	-10.3032
▁confirmed	-10.3032
▁face	-10.3033
▁wanted	-10.3046
bank	-10.3047
mr	-10.3049
▁{	-10.3051
▁annual	-10.3058
ibe	-10.3064
leas	-10.3072
77	-10.3075
see	-10.3082
ary	-10.31
0.0	-10.3101
san	-10.3115
flow	-10.3122
▁word	-10.3124
▁cancer	-10.3125
▁trillion	-10.3126
▁rose	-10.3133
yum	-10.3138
▁myself	-10.3144
▁10:00	-10.3144
irbt	-10.3145
▁strategy	-10.3146
▁stage	-10.3154
hpq	-10.3155
▁direct	-10.3163
xlk	-10.3166
ace	-10.3169
▁easily	-10.3184
iq	-10.3186
▁dex	-10.3186
▁marketing	-10.3195
spom	-10.3209
▁brands	-10.3211
wk	-10.3212
▁shareholder	-10.3215
▁comp	-10.3217
goldinusa	-10.3225
▁national	-10.3229
extremely	-10.3231
str	-10.3239
winners	-10.3244
%)	-10.3261
▁everybody	-10.3267
▁self	-10.3268
▁(+	-10.3271
ep	-10.3274
▁shot	-10.3279
▁burn	-10.3284
meme	-10.3287
dr	-10.3292
▁tv	-10.3297
rp	-10.3307
grub	-10.3309
ivi	-10.3311
ely	-10.3315
apt	-10.3316
must	-10.3319
▁limited	-10.3322
▁fine	-10.3324
reward	-10.3324
arknet	-10.3329
▁trending	-10.3329
▁morgan	-10.333
▁everyday	-10.333
unp	-10.3338
▁increases	-10.3339
nh	-10.3345
well	-10.3346
▁100,000	-10.335
air	-10.3352
▁mass	-10.3369
▁rock	-10.3371
▁files	-10.338
▁created	-10.3383
▁expectations	-10.339
eltz	-10.3391
▁contact	-10.3393
old	-10.3395
▁die	-10.3399
▁decided	-10.3401
px	-10.3402
▁drawn	-10.3416
▁penny	-10.3422
zn	-10.343
ka	-10.343
▁period	-10.3432
masternode	-10.3435
▁happened	-10.3457
▁bio	-10.3458
45	-10.3462
▁chase	-10.3463
83	-10.3465
▁ok	-10.347
▁especially	-10.3474
▁similar	-10.3474
▁canadian	-10.3477
▁doubt	-10.3477
▁bag	-10.3479
▁cat	-10.3483
baby	-10.3486
eck	-10.3486
snx	-10.3493
▁fucking	-10.3495
▁thoughts	-10.3497
ommercialization	-10.3509
▁continued	-10.351
▁serious	-10.3511
▁exposure	-10.3516
tomochain	-10.3517
aythe	-10.3518
ake	-10.352
▁ticker	-10.3526
req	-10.3527
▁100000	-10.3527
▁(10	-10.3529
▁city	-10.3539
contest	-10.3546
▁meet	-10.3556
▁therapeutics	-10.3557
▁0.5	-10.3558
▁insane	-10.3559
▁blood	-10.356
▁road	-10.358
ks	-10.3583
▁wednesday	-10.3583
mrn	-10.3587
rillions	-10.3589
wi	-10.3591
shapp	-10.3596
▁gas	-10.3598
perl	-10.3604
emc	-10.3611
▁healthcare	-10.3614
gcr	-10.3616
vo	-10.3617
▁across	-10.362
▁2017	-10.3629
▁include	-10.364
▁>>	-10.364
▁earlier	-10.3643
▁trans	-10.3653
▁discussed	-10.3657
▁->	-10.3658
▁fair	-10.3664
expe	-10.3683
ox	-10.3685
▁beta	-10.3685
pbhg	-10.3686
gwph	-10.3686
dc	-10.3686
▁immediately	-10.3686
▁protocol	-10.3689
ril	-10.37
▁beautiful	-10.37
coinbase	-10.3707
▁wouldn	-10.371
▁leaders	-10.3716
akam	-10.3717
▁swap	-10.372
nept	-10.3722
▁sees	-10.3723
▁rich	-10.3725
▁core	-10.3729
▁reaches	-10.3738
nbev	-10.3738
wb	-10.3755
idt	-10.3762
11%	-10.3767
▁school	-10.3769
kss	-10.3771
4%	-10.3776
jo	-10.3781
▁bullie	-10.3783
ak	-10.3783
more	-10.3807
▁death	-10.3814
len	-10.3814
▁star	-10.3833
▁meeting	-10.3836
▁revenues	-10.3837
▁bet	-10.3839
▁**	-10.3846
▁ideas	-10.3846
▁helps	-10.3882
kucoin	-10.3885
ru	-10.3885
/19	-10.39
▁front	-10.3903
cehy	-10.3903
kync	-10.3903
▁mom	-10.3904
▁pot	-10.3919
network	-10.3921
gto	-10.3929
▁acquire	-10.3929
▁ev	-10.3931
▁handle	-10.3933
▁declining	-10.3946
▁example	-10.3955
hwy	-10.3956
mgm	-10.3957
▁coronavirus	-10.3961
▁buyers	-10.3963
eri	-10.3964
uk	-10.3965
▁closer	-10.3975
vm	-10.3978
fix	-10.3978
▁sun	-10.3988
▁damn	-10.3993
ill	-10.3994
book	-10.3997
▁interested	-10.3999
▁hands	-10.4002
▁copper	-10.4011
yr	-10.4011
che	-10.4023
ube	-10.4023
gtx	-10.4026
scc	-10.4039
ibb	-10.405
google	-10.4052
▁ipo	-10.4061
▁actual	-10.4074
▁machine	-10.4084
base	-10.4102
sgd	-10.4106
gcg	-10.4109
▁securities	-10.4112
will	-10.4114
▁sending	-10.4115
▁testing	-10.4116
dns	-10.413
▁opinion	-10.4135
▁officially	-10.4136
gp	-10.4141
▁750	-10.4146
cor	-10.415
ial	-10.4157
hsy	-10.416
mil	-10.4161
reuters	-10.4168
▁poll	-10.4172
ping	-10.4174
best	-10.4187
hd	-10.4195
▁revs	-10.4198
ran	-10.4203
▁worldwide	-10.4209
kin	-10.421
▁giant	-10.4211
nvs	-10.4213
glazersout	-10.4213
▁hell	-10.4219
marketing	-10.422
▁mega	-10.4222
domme	-10.4229
cnnf	-10.4235
yy	-10.4243
▁releases	-10.4249
▁orders	-10.4255
oceanex	-10.4261
▁+2%	-10.4265
▁firm	-10.4274
▁driving	-10.4282
▁26	-10.4285
rna	-10.4293
sps	-10.4299
▁tend	-10.4299
▁cou	-10.4299
▁divergence	-10.4304
ml	-10.4309
✨	-10.431
▁surprise	-10.4313
▁losses	-10.4318
wa	-10.4325
sales	-10.4328
▁chief	-10.4328
irv	-10.4329
lx	-10.4331
▁appreciated	-10.4344
▁(-	-10.4347
▁hear	-10.4347
ree	-10.4348
▁published	-10.435
bomb	-10.435
▁$75	-10.4351
▁voting	-10.4351
ton	-10.4369
nat	-10.4374
5000	-10.4375
▁instantly	-10.438
▁happens	-10.438
▁da	-10.4381
ydy	-10.439
▁scary	-10.4396
people	-10.4399
mux	-10.4415
find	-10.4418
pu	-10.4428
uup	-10.4436
aus	-10.444
dw	-10.4441
▁wh	-10.4444
▁absolutely	-10.4444
▁economy	-10.4445
▁reality	-10.4446
ard	-10.4455
▁coinbase	-10.4468
etsy	-10.4469
asx	-10.4474
pd	-10.4485
▁pullback	-10.4488
mobile	-10.4492
ker	-10.4498
-1	-10.4505
▁fo	-10.4505
**	-10.4511
▁anti	-10.4511
winner	-10.4511
▁000	-10.4513
.30	-10.4518
patent	-10.4519
rg	-10.4522
▁thin	-10.4529
give	-10.453
▁choose	-10.4534
▁overbought	-10.4535
nkn	-10.4538
▁poor	-10.4538
mme	-10.454
plan	-10.4549
fin	-10.4549
mw	-10.4549
oct	-10.4556
▁sad	-10.4562
▁walm	-10.4566
growth	-10.4567
▁quote	-10.4572
bat	-10.4578
▁tribute	-10.4585
▁movements	-10.4586
beam	-10.4587
rmsl	-10.4588
je	-10.4589
adsv	-10.4593
ldr	-10.4594
▁light	-10.4597
fxi	-10.4604
swks	-10.4605
▁begin	-10.4609
▁loading	-10.461
hu	-10.4614
▁pushing	-10.4616
ine	-10.4618
ated	-10.4622
pton	-10.4623
global	-10.4634
blz	-10.4636
▁ongoing	-10.464
kb	-10.4641
▁monster	-10.4644
▁crash	-10.4647
wc	-10.4647
regn	-10.4655
▁solutions	-10.4656
hyg	-10.4657
lithium	-10.4674
▁altcoin	-10.4678
▁$7	-10.4682
▁outside	-10.4686
▁||	-10.469
hum	-10.4699
300	-10.4707
lander	-10.4719
▁valuation	-10.4722
agi	-10.4729
▁ride	-10.4729
▁ground	-10.4733
hat	-10.4734
boy	-10.4735
tf	-10.4737
▁etf	-10.4742
cu	-10.4746
pick	-10.475
bg	-10.4751
usb	-10.4752
nas	-10.4761
af	-10.4764
black	-10.4765
fct	-10.4767
▁election	-10.4767
embr	-10.4774
lhs	-10.4775
▁1/	-10.4778
▁sep	-10.478
gh	-10.4783
femdom	-10.4788
nmo	-10.479
kick	-10.4791
▁mr	-10.4798
▁reading	-10.4798
▁blue	-10.4804
▁bro	-10.4805
▁eyes	-10.4806
hs	-10.4806
bil	-10.4806
£	-10.4812
ela	-10.4817
▁coverage	-10.4819
cy	-10.4822
mix	-10.4827
oup	-10.4829
▁discuss	-10.4838
▁2%	-10.484
ob	-10.4845
alk	-10.4849
unities	-10.4852
▁payments	-10.4858
team	-10.4862
scr	-10.4865
▁leader	-10.487
pn	-10.4872
py	-10.4874
exp	-10.4875
▁quickly	-10.4878
▁grn	-10.4883
giga	-10.4893
▁opening	-10.4895
times	-10.4903
sy	-10.4905
▁anticipate	-10.4905
17%	-10.4908
▁office	-10.4913
elliottwave	-10.4914
▁conversion	-10.4914
▁⚠	-10.4915
▁merry	-10.492
that	-10.4927
▁upgrades	-10.4935
▁launching	-10.4951
eam	-10.4952
▁cool	-10.4956
▁games	-10.4957
▁pleased	-10.4961
▁incredible	-10.4963
fetish	-10.4963
girl	-10.4964
rsp	-10.4966
feet	-10.4973
▁tags	-10.4975
strong	-10.4976
investment	-10.499
▁movers	-10.4991
inno	-10.4999
shi	-10.5001
ue	-10.5013
▁central	-10.5024
mark	-10.5026
what	-10.5032
bud	-10.5034
▁broken	-10.5039
▁picks	-10.5046
▁notifications	-10.5048
house	-10.5049
masternodes	-10.5057
▁spike	-10.5062
bkng	-10.5064
▁events	-10.5065
▁knows	-10.5069
▁brave	-10.5069
ganf	-10.5075
▁completely	-10.5075
gram	-10.5091
dev	-10.5094
▁-$	-10.51
bhp	-10.5104
reg	-10.5107
▁-------------	-10.5111
▁pass	-10.5129
000	-10.5146
health	-10.5147
green	-10.515
▁tp	-10.5152
mxm	-10.5153
▁25%	-10.5174
cf	-10.5175
▁notes	-10.5178
▁vehicle	-10.518
▁macro	-10.5185
▁incoming	-10.5192
3,	-10.52
evx	-10.52
soundcloud	-10.5209
pri	-10.5218
but	-10.5218
security	-10.5226
-19	-10.5227
▁closes	-10.5227
▁blow	-10.5228
efa	-10.5232
▁heard	-10.5235
tgi	-10.5237
kn	-10.5237
wft	-10.5246
▁congratulations	-10.525
▁bancorp	-10.5259
▁afford	-10.5259
wsj	-10.526
donlin	-10.5261
aud	-10.5268
▁tasks	-10.5268
pgr	-10.5271
hpb	-10.5283
ask	-10.5301
▁cards	-10.5303
abc	-10.5307
exas	-10.5309
▁several	-10.5309
▁unique	-10.531
▁notice	-10.5312
ostk	-10.5319
fang	-10.5319
zs	-10.5321
▁profitable	-10.5322
nna	-10.533
▁issued	-10.5333
▁royalty	-10.5333
▁fri	-10.5335
▁setting	-10.5352
humanatm	-10.5356
▁approval	-10.536
▁peak	-10.5361
▁donations	-10.5362
tas	-10.5365
ennz	-10.5365
▁safety	-10.5365
max	-10.5368
▁workers	-10.5373
yf	-10.5379
mpc	-10.5381
▁pain	-10.5383
mic	-10.5383
ssi	-10.5384
▁gigafactory	-10.5392
ger	-10.5402
friday	-10.5417
▁30-	-10.5427
▁taken	-10.5432
daily	-10.5434
▁solution	-10.5441
meta	-10.5443
▁margin	-10.545
▁economic	-10.5463
▁exactly	-10.5464
▁june	-10.5464
vn	-10.5465
▁hitting	-10.5465
dyor	-10.5471
skx	-10.5475
london	-10.5485
came	-10.5488
▁faster	-10.549
▁member	-10.5493
eu	-10.5495
urlf	-10.5502
▁clean	-10.5509
▁runner	-10.5511
ied	-10.5514
▁tight	-10.5518
▁clients	-10.5519
63	-10.5522
▁1.5	-10.5522
▁directly	-10.5523
▁wave	-10.5523
▁asking	-10.5528
gnc	-10.553
▁outlook	-10.5533
▁claims	-10.5534
ut	-10.5538
lux	-10.5546
5)	-10.5557
▁insurance	-10.5567
ef	-10.5567
▁tried	-10.557
htsc	-10.5573
900	-10.5575
avc	-10.5579
▁holds	-10.5586
ces	-10.5589
▁consumer	-10.5591
▁pairs	-10.5595
▁challenge	-10.5597
▁browser	-10.5598
▁nobody	-10.5607
▁exclusive	-10.5611
▁2-	-10.5616
▁labor	-10.5617
▁kyc	-10.5619
▁earning	-10.5627
▁europe	-10.5627
▁kucoin	-10.5637
▁banking	-10.5641
▁fell	-10.5644
nv	-10.5646
rune	-10.5646
▁ath	-10.5646
games	-10.5652
ble	-10.5652
▁corporate	-10.566
eco	-10.566
side	-10.5664
ence	-10.5664
▁$6	-10.5665
▁feature	-10.5665
▁terrible	-10.5669
head	-10.5669
▁0.002	-10.5669
hiph	-10.5671
how	-10.5675
nerships	-10.5683
▁tipping	-10.5686
▁?1000	-10.5689
jbh	-10.5692
▁gives	-10.5694
▁states	-10.5695
▁original	-10.5698
▁deals	-10.5718
▁throw	-10.5721
▁presentation	-10.5722
▁allows	-10.5724
add	-10.5728
xlu	-10.5748
breaking	-10.5753
rht	-10.5757
▁hemp	-10.576
▁alone	-10.576
▁treatment	-10.5761
first	-10.5762
▁speed	-10.5774
▁section	-10.5775
ott	-10.5777
alb	-10.5778
▁profile	-10.5779
▁expe	-10.5781
[	-10.5781
pkg	-10.5781
stz	-10.5788
▁decline	-10.5793
▁rev	-10.5796
▁despi	-10.5797
0-1000	-10.5799
merger	-10.5805
que	-10.5806
▁ended	-10.5808
thanksgiving	-10.581
▁page	-10.582
▁successful	-10.5822
squeeze	-10.5824
▁prior	-10.5826
▁water	-10.5829
▁600	-10.5838
▁wealth	-10.5845
▁netflix	-10.5846
rate	-10.5846
ybr	-10.5849
ified	-10.5855
▁goddess	-10.586
tw	-10.5866
▁1500	-10.5871
gambling	-10.588
uri	-10.5888
microsoft	-10.5893
pla	-10.5893
▁count	-10.5917
▁letter	-10.5922
group	-10.593
▁1%	-10.5934
▁dumb	-10.5935
▁california	-10.5946
bh	-10.5946
bloomberg	-10.5946
▁4)	-10.5949
nxs	-10.595
▁vip	-10.5956
▁innovation	-10.5958
mon	-10.5964
▁+4	-10.5968
ring	-10.598
26%	-10.5982
▁mc	-10.5985
dg	-10.599
▁ones	-10.5995
ug	-10.5996
▁+3	-10.6006
mrc	-10.6009
meli	-10.6015
ky	-10.6017
decentralized	-10.603
wx	-10.6032
▁afternoon	-10.6041
nxp	-10.6046
ipo	-10.6051
rpt	-10.6053
ao	-10.6057
▁expecting	-10.6065
slr	-10.6074
888	-10.6093
owcp	-10.6096
▁famous	-10.6097
siml	-10.6098
nvax	-10.61
ong	-10.6101
felp	-10.6112
▁words	-10.6115
0%	-10.6116
ds	-10.6117
nz	-10.6124
▁upgrade	-10.6126
upin	-10.6128
▁ladder	-10.613
enph	-10.6131
hes	-10.6144
0|	-10.6145
lg	-10.6151
▁#800	-10.6159
row	-10.6165
▁con	-10.617
▁gem	-10.617
aks	-10.6172
home	-10.6172
check	-10.6181
▁40%	-10.6182
▁result	-10.6192
▁expansion	-10.6205
▁respect	-10.6207
une	-10.6212
▁compared	-10.6215
panw	-10.6216
▁write	-10.6217
xcm	-10.6217
▁wallets	-10.6218
▁withdraw	-10.6219
▁provides	-10.6221
utc	-10.6224
▁design	-10.6227
▁snapchat	-10.623
▁vehicles	-10.6233
▁onlyfans	-10.6241
▁iphone	-10.6245
▁prope	-10.6249
til	-10.6256
▁username	-10.626
▁powerful	-10.6261
pq	-10.6262
▁college	-10.6262
!???	-10.6265
point	-10.6265
▁hype	-10.6286
mfc	-10.6288
▁cuts	-10.6291
▁$8	-10.6291
cnn	-10.6292
phm	-10.6294
dx	-10.6299
gam	-10.6304
▁rocket	-10.6314
lowest	-10.6316
▁fiat	-10.6321
inpx	-10.6321
digital	-10.6329
▁737	-10.633
▁biotech	-10.6336
▁bell	-10.6337
▁cycle	-10.634
▁accumulation	-10.6341
▁30%	-10.6342
▁former	-10.6345
▁johnson	-10.6346
▁5%	-10.6358
evs	-10.636
effo	-10.637
▁law	-10.6371
▁illegal	-10.6371
cannot	-10.6374
ang	-10.6375
▁approved	-10.6377
▁facts	-10.6377
▁+5%	-10.638
nugt	-10.6382
world	-10.6387
xc	-10.6394
0.1	-10.6394
nue	-10.6397
driven	-10.6404
▁additional	-10.6412
phot	-10.6421
▁custom	-10.6421
▁$1,	-10.6425
▁hopium	-10.6428
▁stupid	-10.6428
▁paper	-10.6429
/2019	-10.6454
▁holiday	-10.6459
▁signs	-10.6468
only	-10.6484
kgkg	-10.6484
0.2	-10.6489
▁thru	-10.6496
▁lines	-10.6507
▁200-	-10.651
next	-10.6514
met	-10.6519
▁attempt	-10.6531
stx	-10.6533
▁vid	-10.6533
▁operating	-10.6541
▁wedge	-10.6543
sndd	-10.6545
ust	-10.655
▁dilution	-10.6552
sil	-10.6554
hedg	-10.6556
ors	-10.6557
▁inbox	-10.6561
▁$40	-10.6571
▁vx	-10.6577
▁dick	-10.6579
ley	-10.6579
▁legal	-10.658
▁micro	-10.6582
▁mkt	-10.6582
df	-10.6587
lam	-10.6593
rap	-10.6596
▁student	-10.6597
▁notable	-10.6598
bittrex	-10.6598
▁tipped	-10.6599
xly	-10.66
when	-10.6601
▁rolling	-10.6601
▁accept	-10.6608
▁longs	-10.6608
hms	-10.6609
flex	-10.6611
▁matic	-10.6615
▁filled	-10.6623
xhd	-10.6624
▁six	-10.6625
▁changed	-10.6626
safe	-10.6626
▁players	-10.6631
uaa	-10.6633
▁sleep	-10.6638
par	-10.6641
icipating	-10.6641
▁beast	-10.6643
mmen	-10.6644
▁watched	-10.6647
rxmd	-10.6651
▁predict	-10.6651
call	-10.6651
▁eat	-10.6652
▁decision	-10.6656
▁rather	-10.6656
▁deliveries	-10.6656
+8%	-10.6664
ending	-10.6668
shares	-10.6671
save	-10.6694
any	-10.6695
▁sense	-10.6697
wnr	-10.6697
henc	-10.6698
iab	-10.6699
1,	-10.6703
daly	-10.6703
sec	-10.6704
arb	-10.6706
▁trader	-10.6706
▁billions	-10.6709
tb	-10.6713
▁advantage	-10.6713
▁plz	-10.6718
nj	-10.6719
pst	-10.6722
▁tickets	-10.6724
▁ytd	-10.6725
▁holidays	-10.6727
xin	-10.6733
▁surprised	-10.6735
research	-10.6744
spr	-10.6745
▁blessing	-10.6745
▁raises	-10.6746
ars	-10.6747
den	-10.6749
kt	-10.676
miota	-10.6765
dividend	-10.6767
eb	-10.6767
levi	-10.677
▁countries	-10.6772
swhi	-10.6772
▁factory	-10.6776
inc	-10.6776
▁greater	-10.6777
cashslave	-10.6781
rdx	-10.6781
▁box	-10.6787
ashapp	-10.6787
nbr	-10.6795
▁shopping	-10.6807
3.5	-10.6811
outlook	-10.6812
▁coffee	-10.6813
▁reminder	-10.6824
▁cent	-10.6824
paog	-10.683
▁unemployment	-10.683
hkp	-10.6832
▁yeah	-10.6833
▁recap	-10.6835
▁match	-10.6835
▁warren	-10.6837
currency	-10.6844
▁travel	-10.6846
sdc	-10.6846
bcc	-10.6846
▁ideal	-10.685
▁3%	-10.6852
hf	-10.6855
ptc	-10.6856
cp	-10.6865
euro	-10.687
▁aren	-10.6871
posts	-10.6887
▁dropped	-10.689
staking	-10.6894
again	-10.6908
▁killer	-10.6909
million	-10.6913
▁subscribers	-10.6924
wt	-10.6924
adp	-10.6925
put	-10.6928
▁truck	-10.6942
▁seem	-10.6944
burn	-10.6944
arwr	-10.6948
▁hundred	-10.695
har	-10.6957
-4	-10.6966
▁allow	-10.6976
▁crossed	-10.6977
race	-10.698
▁bags	-10.699
brat	-10.6991
▁speak	-10.6996
▁truth	-10.6997
amt	-10.6998
india	-10.7005
▁10:	-10.7005
socialmedia	-10.7008
ou	-10.7011
▁series	-10.7013
41%	-10.7015
▁yoy	-10.7019
▁confirm	-10.7028
▁exits	-10.7037
▁discord	-10.7064
▁john	-10.7067
▁steady	-10.7067
▁heavy	-10.7069
xxi	-10.7069
isl	-10.7074
▁outperform	-10.7076
▁dream	-10.7079
don	-10.708
weedstocks	-10.708
▁dips	-10.708
inf	-10.7085
▁covered	-10.7094
▁lie	-10.7096
▁difference	-10.7098
▁predictions	-10.7102
▁wars	-10.7106
▁10.	-10.7108
watchlist	-10.7115
fa	-10.7117
monday	-10.712
▁communications	-10.712
please	-10.7122
▁stochastic	-10.7128
▁foundation	-10.713
▁anymore	-10.7133
qui	-10.7134
▁owners	-10.7144
pbio	-10.7152
wh	-10.7156
▁fighting	-10.7158
▁owner	-10.7176
sls	-10.7179
▁industries	-10.7183
insta	-10.7183
jay	-10.7186
▁benefit	-10.7187
▁scalp	-10.7188
▁stories	-10.7188
trend	-10.719
▁scale	-10.7192
▁somebody	-10.7193
forbes	-10.7193
ub	-10.7194
ning	-10.7197
gg	-10.7204
oled	-10.721
pti	-10.7218
▁stores	-10.722
▁surveys	-10.7225
▁misses	-10.7231
]?	-10.7233
commerce	-10.724
▁plc	-10.7241
▁borrow	-10.7249
▁pinned	-10.7249
uuu	-10.7251
▁whatever	-10.7257
social	-10.7259
▁problems	-10.7265
▁protect	-10.7266
▁wasn	-10.7282
▁2019-0	-10.7282
boeing	-10.7283
▁boy	-10.7295
▁drug	-10.7296
aug	-10.7298
▁cases	-10.7298
rcn	-10.7306
▁tu	-10.7307
bay	-10.731
▁methods	-10.7311
cashappchristmas	-10.7312
▁heading	-10.7313
arnc	-10.7314
▁decreased	-10.7322
ford	-10.7322
250	-10.7324
150	-10.7326
▁developers	-10.7326
yt	-10.7337
▁70	-10.7338
ism	-10.7348
▁addition	-10.7363
zena	-10.7363
▁mil	-10.7364
▁expensive	-10.7365
▁summer	-10.7365
▁700	-10.7372
eon	-10.7387
led	-10.7389
rnt	-10.7392
adxs	-10.7406
▁downgrades	-10.7406
rsi	-10.7411
▁worked	-10.7417
za	-10.7417
5,000	-10.7425
ete	-10.7429
mlr	-10.743
▁piece	-10.7436
▁decade	-10.7437
▁justin	-10.7439
nnvc	-10.7439
▁3:	-10.7441
▁changing	-10.7441
snv	-10.7444
zy	-10.7447
ene	-10.7451
▁strategic	-10.7454
own	-10.7462
▁dear	-10.7462
▁coinkit	-10.7464
▁screen	-10.7468
ltr	-10.7473
▁wondering	-10.7473
▁fresh	-10.7477
uck	-10.7479
▁consolidation	-10.7482
ues	-10.7482
▁children	-10.7483
gov	-10.7484
▁????????	-10.7493
▁ratings	-10.7495
sap	-10.7496
ftc	-10.7503
android	-10.7505
▁$79	-10.7512
findomme	-10.7516
grr	-10.7519
ihub	-10.752
▁young	-10.7521
canada	-10.7523
gaz	-10.7534
▁explain	-10.7553
jan	-10.7556
▁storage	-10.7558
great	-10.7559
▁stanley	-10.756
▁combo	-10.756
ber	-10.7562
▁episode	-10.7562
▁decent	-10.7563
tradingview	-10.7565
sat	-10.7565
▁scheduled	-10.7569
▁$12	-10.7569
▁performing	-10.7572
▁asked	-10.7576
ndyn	-10.7577
event	-10.7582
wednesday	-10.7585
edit	-10.7587
▁begins	-10.76
idex	-10.7602
▁#1	-10.7611
lun	-10.7624
▁insight	-10.7624
ium	-10.7626
▁mode	-10.7631
▁failed	-10.7633
?!?	-10.7638
stone	-10.764
ise	-10.764
lqd	-10.7641
sava	-10.7642
▁remains	-10.7642
!)	-10.7645
$1,000	-10.7645
tweet	-10.7658
▁dr	-10.767
ver	-10.7672
issues	-10.7672
investments	-10.7676
▁local	-10.7677
iff	-10.7685
▁critical	-10.7687
▁rewarded	-10.7689
▁spent	-10.7689
qlc	-10.769
▁telling	-10.7693
▁gl	-10.7695
".	-10.7711
dynmt	-10.7713
plc	-10.7719
▁bar	-10.773
▁cu	-10.7736
phone	-10.7739
azz	-10.7742
▁enterprise	-10.7744
builtincrm	-10.7751
open	-10.7754
▁deserve	-10.7757
▁launchpad	-10.7758
▁turning	-10.7759
▁+10%	-10.776
-20	-10.7766
pink	-10.7772
sntv	-10.7774
▁votes	-10.7775
inkw	-10.778
lve	-10.7789
▁ramp	-10.7791
bioa	-10.7793
▁awareness	-10.78
▁keeping	-10.7802
▁vision	-10.7815
rw	-10.7815
dynamite	-10.7815
▁creating	-10.7822
mtch	-10.7827
mx	-10.7828
fd	-10.7832
cloud	-10.7837
▁metals	-10.7839
jjc	-10.7841
600	-10.7842
▁-2.	-10.7845
dice	-10.7845
tra	-10.7846
rng	-10.7848
▁2016	-10.7858
even	-10.7863
▁moab	-10.7864
▁(12	-10.7867
facebook	-10.7871
▁autopilot	-10.7873
??????	-10.7874
mp	-10.7877
▁liquidity	-10.7879
plus	-10.7879
▁helping	-10.7885
▁living	-10.7886
vt	-10.7887
test	-10.7887
▁macd	-10.7888
▁statement	-10.7891
yl	-10.79
arm	-10.792
etp	-10.7921
▁worry	-10.7929
3.0	-10.7929
▁shut	-10.7936
▁opt	-10.7936
▁inflation	-10.7938
eq	-10.7941
dent	-10.7942
▁themselves	-10.7946
bigdata	-10.7947
chromia	-10.7948
hand	-10.795
closes	-10.7951
▁analytics	-10.7953
▁enable	-10.796
xmas	-10.7969
ivo	-10.797
spo	-10.7971
ped	-10.7972
▁hopefully	-10.7976
▁celebrating	-10.7978
xau	-10.7989
▁2:	-10.7999
ye	-10.8001
who	-10.8003
rue	-10.8007
▁transfer	-10.8009
rct	-10.801
▁struggling	-10.8011
▁candle	-10.8026
code	-10.803
lee	-10.8034
—	-10.8037
libra	-10.8041
jur	-10.8052
▁0.0000	-10.8054
▁buzz	-10.8056
▁excellent	-10.8062
pump	-10.807
its	-10.8074
▁caught	-10.8078
▁ownership	-10.8079
nix	-10.808
▁posts	-10.8084
secretly	-10.8084
moon	-10.8085
▁pending	-10.8087
▁flash	-10.8107
▁utility	-10.8108
▁style	-10.8109
▁estimate	-10.8111
platform	-10.8112
ynmt	-10.8119
5%	-10.8127
▁award	-10.8131
chi	-10.8132
▁recession	-10.8135
aapl	-10.8136
▁bitch	-10.8139
▁bouncing	-10.8144
▁jpmorgan	-10.8144
sitting	-10.8146
▁reaction	-10.8147
roon	-10.8149
▁seriously	-10.8152
ever	-10.8153
too	-10.8159
kc	-10.8161
▪	-10.8167
kmb	-10.8172
▁mentioned	-10.8173
update	-10.8181
wpr	-10.8182
▁totally	-10.8186
▁hourly	-10.8187
bottom	-10.8191
▁desperate	-10.8195
central	-10.8195
▁fda	-10.8198
▁joining	-10.8202
ick	-10.8204
▁upper	-10.8205
lake	-10.821
▁richard	-10.8212
wbhf	-10.8212
▁lunch	-10.8214
▁breakdown	-10.8214
▁worse	-10.8216
▁employees	-10.8216
wll	-10.8217
arst	-10.8225
gata	-10.8227
rr	-10.8231
from	-10.8232
mxmg	-10.8236
▁customer	-10.824
▁adds	-10.8243
reaching	-10.8247
0.000	-10.8248
▁enters	-10.8249
▁gu	-10.8253
▁couldn	-10.8254
card	-10.8265
▁united	-10.8265
show	-10.8266
▁signed	-10.8272
ward	-10.8272
▁plant	-10.8276
jnug	-10.8279
erm	-10.8287
jc	-10.829
▁clearly	-10.829
mb	-10.8292
spg	-10.8294
▁virus	-10.8302
▁$250	-10.8306
pf	-10.8306
▁door	-10.831
chainlink	-10.831
▁0.05	-10.8312
▁guides	-10.8312
▁human	-10.832
▁industrial	-10.8325
gene	-10.8326
▁???????	-10.833
▁decide	-10.833
▁increasing	-10.8342
▁normal	-10.8345
▁repeat	-10.8347
▁hoping	-10.8349
▁diamond	-10.835
2000	-10.8352
pura	-10.8354
▁downside	-10.8354
▁sweet	-10.8358
▁books	-10.8358
(4	-10.8363
sg	-10.8363
bmi	-10.8372
▁launches	-10.8387
meet	-10.8391
▁bc	-10.8397
1.2	-10.8401
▁structure	-10.8402
▁verasity	-10.8404
1.5	-10.8414
▁suggest	-10.8417
▁song	-10.8423
abbc	-10.8426
happy	-10.8431
sar	-10.8435
wmb	-10.8439
ien	-10.8442
casino	-10.8444
aem	-10.8449
ndm	-10.846
▁advance	-10.8468
▁pharma	-10.8468
xr	-10.8469
vna	-10.8471
87%	-10.8471
▁stick	-10.8472
slave	-10.8478
hok	-10.8488
okta	-10.849
macd	-10.8492
▁fav	-10.8493
maga	-10.8493
sym	-10.8495
8%	-10.8497
cs	-10.8498
▁$16	-10.85
olx	-10.8503
▁known	-10.8504
▁spot	-10.8506
▁hosting	-10.8515
form	-10.8517
•	-10.8518
-$	-10.8518
▁triple	-10.852
made	-10.8522
▁(2	-10.8522
▁bears	-10.8522
50%	-10.8524
▁often	-10.8525
▁ente	-10.853
▁cents	-10.8539
▁3000	-10.8544
iran	-10.8549
▁finsub	-10.8553
mcewen	-10.8554
sectorselector	-10.8554
▁situation	-10.8554
ari	-10.8561
mfs	-10.8562
ibd	-10.8564
mln	-10.8566
▁effect	-10.857
trezarcoin	-10.857
▁approaching	-10.8571
▁amid	-10.8571
▁executive	-10.8572
▁greatest	-10.858
wave	-10.858
.08	-10.8581
xlv	-10.8582
▁tick	-10.8587
▁chris	-10.8589
▁women	-10.8592
science	-10.8598
▁nicely	-10.8603
krf	-10.8606
▁$0.01	-10.8609
5.0	-10.8609
click	-10.8611
master	-10.8623
▁lawsuit	-10.8624
▁69696969	-10.8624
▁raising	-10.8624
▁putting	-10.8628
▁-6	-10.8629
appl	-10.8632
ki	-10.8641
▁cheaper	-10.8644
gtii	-10.8649
▁itself	-10.8653
▁fud	-10.8658
omni	-10.8665
ainment	-10.867
▁75	-10.8672
morning	-10.8683
▁correct	-10.8683
▁sa	-10.8684
ceo	-10.8687
▁forever	-10.8688
▁800	-10.869
▁lp	-10.8694
▁leaving	-10.8694
skdi	-10.8695
▁;)	-10.8698
▁offers	-10.8702
▁required	-10.8704
▁holy	-10.8706
ating	-10.8712
▁module	-10.8712
▁nudes	-10.8721
lwd	-10.8722
atch	-10.8723
eez	-10.8726
bm	-10.8736
▁education	-10.8749
▁alive	-10.8752
▁sick	-10.8754
fsn	-10.8758
oke	-10.876
▁trip	-10.8764
▁milestone	-10.8765
▁reduction	-10.8765
rockysaas	-10.8765
▁land	-10.8767
▁brings	-10.877
▁boat	-10.878
▁maker	-10.878
▁(6	-10.8783
▁highlights	-10.8787
▁miners	-10.8788
info	-10.8791
120	-10.8792
▁♥	-10.8793
▁hearing	-10.8797
▁bond	-10.88
tip	-10.8805
▁freedom	-10.8805
pbr	-10.8811
▁terrori	-10.8814
ban	-10.8814
oz	-10.8825
▁trigger	-10.8825
▁train	-10.883
▁involved	-10.8837
?????	-10.8838
▁flip	-10.8839
▁corner	-10.8842
▁btw	-10.8844
pac	-10.8844
▁basic	-10.8845
hbar	-10.8845
hoo	-10.8854
▁thanksgiving	-10.8856
▁lack	-10.8859
ship	-10.8862
ibio	-10.8872
.01	-10.8873
hrs	-10.8874
▁senior	-10.8878
ulta	-10.8886
▁ten	-10.8901
▁spoil	-10.8901
hh	-10.8901
bix	-10.8903
▁divide	-10.8904
kl	-10.8906
▁extend	-10.8907
icn	-10.8908
▁5:	-10.8908
5-31	-10.8909
20-	-10.8909
dcl	-10.891
anf	-10.8914
▁equal	-10.8916
▁+3%	-10.8917
lrc	-10.8919
infy	-10.8923
▁gifts	-10.8925
ising	-10.8926
56%	-10.893
▁integration	-10.8931
aur	-10.8936
wti	-10.8938
▁$9	-10.8941
youtube	-10.8943
ted	-10.8947
▁feed	-10.895
tea	-10.8957
?❤	-10.8961
yers	-10.8968
▁direction	-10.8969
▁risks	-10.8971
mas	-10.8977
▁valid	-10.8977
▁boys	-10.8978
listing	-10.8983
philanthropy	-10.8983
icon	-10.8985
oi	-10.8986
▁integrated	-10.8993
▁ju	-10.8995
hele	-10.9001
▁patient	-10.9004
ease	-10.9008
iss	-10.901
av	-10.901
tsx	-10.9014
iac	-10.9017
▁improve	-10.9019
amc	-10.902
▁dapp	-10.9021
ui	-10.9021
order	-10.9022
nft	-10.9023
xbt	-10.9023
hca	-10.9023
ali	-10.9027
▁four	-10.9028
ions	-10.9029
ses	-10.9036
income	-10.9037
▁50000	-10.9039
pped	-10.904
sand	-10.9046
profile	-10.9047
▁tune	-10.9049
oax	-10.905
education	-10.9051
▁outstanding	-10.9054
▁false	-10.9054
▁grand	-10.9054
ppc	-10.9058
▁layer	-10.9059
-15	-10.9061
▁betting	-10.9061
nic	-10.9066
war	-10.9072
▁cold	-10.9076
ope	-10.9077
3.2%	-10.9079
ekt	-10.9081
▁stack	-10.9091
vis	-10.9101
ress	-10.9102
imtl	-10.9109
xel	-10.9114
sv	-10.9121
eca	-10.9122
shw	-10.9127
▁catalysts	-10.9131
ile	-10.9134
▁hasn	-10.9135
▁verified	-10.914
▁80	-10.9145
public	-10.9146
▁threat	-10.9148
disney	-10.915
edu	-10.9152
▁feels	-10.9154
men	-10.9159
five	-10.9159
▁cell	-10.9159
grm	-10.9165
ips	-10.9165
▁oracle	-10.9166
dom	-10.9166
▁mother	-10.9168
▁deliver	-10.9172
mention	-10.9174
▁wild	-10.9181
aq	-10.9183
inter	-10.9184
ized	-10.9186
cad	-10.9191
▁podcast	-10.9192
bd	-10.9192
▁pace	-10.9197
qd	-10.92
tree	-10.9201
betfury	-10.9202
▁conduct	-10.9202
cco	-10.9204
⭐	-10.9204
jwn	-10.9204
hash	-10.9206
...:	-10.9211
rox	-10.9215
profit	-10.922
▁goldman	-10.9222
previously	-10.9227
▁sound	-10.9233
fund	-10.9241
10%	-10.9242
field	-10.9245
▁32	-10.9252
▁approach	-10.9252
▁ph	-10.9252
tomo	-10.9256
vra	-10.9256
stm	-10.926
▁listening	-10.9266
▁2021	-10.927
node	-10.9273
telcoin	-10.9277
▁shipping	-10.9278
▁ball	-10.9278
▁york	-10.9279
▁completed	-10.9282
▁touch	-10.9286
70%	-10.9286
400	-10.9288
lay	-10.9289
▁ka	-10.9292
▁mcap	-10.9294
▁produce	-10.9298
▁accepting	-10.93
they	-10.9306
▁bids	-10.9308
nytime	-10.9308
chok	-10.9313
▁presents	-10.9315
▁tweeted	-10.9316
▁patience	-10.9319
ess	-10.9321
aap	-10.9327
pk	-10.9336
hur	-10.9337
▁$1000	-10.9339
▁investigation	-10.9339
▁reasons	-10.9341
▁relative	-10.9347
▁2006	-10.935
***	-10.935
▁confirmation	-10.9353
locking	-10.9355
▁delay	-10.9356
reac	-10.9359
----------------	-10.936
nce	-10.9362
eurusd	-10.9363
▁fargo	-10.9365
▁fa	-10.9367
rewards	-10.9372
pdiv	-10.9379
lv	-10.938
▁pack	-10.938
▁priced	-10.9383
hours	-10.9384
▁loaded	-10.9386
gsk	-10.9388
▁invested	-10.9389
sch	-10.9392
▁thousands	-10.9394
crm	-10.9396
happ	-10.9401
make	-10.9403
0000	-10.9405
tsh	-10.941
▁realize	-10.9412
▁cisco	-10.9413
fg	-10.9413
▁journey	-10.9427
▁venture	-10.9427
▁cooperation	-10.9428
tradewar	-10.9429
auph	-10.9429
rys	-10.9432
light	-10.9433
nexus	-10.9434
gar	-10.9437
suppo	-10.944
(1	-10.9441
▁prepared	-10.9445
queen	-10.9448
-10	-10.9453
ight	-10.9454
his	-10.9455
48%	-10.9456
▁runs	-10.9456
jx	-10.9462
▁80%	-10.9463
▁attack	-10.9469
▁shared	-10.9475
rdn	-10.948
hear	-10.9484
▁blog	-10.9496
▁initial	-10.9501
▁versus	-10.9504
sngls	-10.9504
▁impressive	-10.9504
▁bernie	-10.9504
▁10000000	-10.9506
▁stable	-10.9507
hmny	-10.9509
▁combined	-10.951
▁lives	-10.9511
▁highly	-10.9511
hill	-10.9512
load	-10.9512
▁ran	-10.9513
450	-10.9514
coinsto	-10.9517
▁paypig	-10.9522
▁11,	-10.9533
▁individual	-10.9534
▁music	-10.9536
acn	-10.9537
ipc	-10.9538
friends	-10.9538
jts	-10.9541
▁devices	-10.9548
1.00	-10.9549
▁officer	-10.9549
▁dice	-10.955
aws	-10.9552
▁center	-10.9554
/$	-10.9555
▁4:00	-10.9564
▁tickers	-10.9576
15%	-10.9578
ris	-10.9579
▁filter	-10.9581
power	-10.9581
▁chairman	-10.9581
▁april	-10.9581
▁lithium	-10.9582
▁roof	-10.9585
$50	-10.9585
burst	-10.9586
uc	-10.9588
▁successfully	-10.9588
▁cfo	-10.959
ken	-10.9591
▁finished	-10.9592
▁tough	-10.9596
▁unusual	-10.9597
▁epic	-10.96
▁cmc	-10.9602
payc	-10.9607
realty	-10.9609
▁device	-10.9613
bii	-10.9617
5.00	-10.9618
▁cup	-10.9624
▁pics	-10.9631
▁3-	-10.9634
-12%	-10.9638
rov	-10.9647
▁alphabet	-10.9648
isro	-10.9656
phil	-10.9656
▁material	-10.9658
azules	-10.9658
bountyhunter	-10.9658
▁comparison	-10.9658
lsd	-10.9661
+8)	-10.9661
▁retest	-10.9661
▁.01	-10.9663
nwl	-10.9667
boom	-10.9668
dm	-10.967
hooch	-10.9671
▁13.	-10.9672
▁battle	-10.9673
▁lately	-10.9677
aeo	-10.9679
▁infrastructure	-10.9679
▁ranking	-10.9685
ccx	-10.969
oval	-10.9693
▁appear	-10.9695
▁treat	-10.9696
fro	-10.9697
mda	-10.9697
50,000	-10.97
▁lil	-10.9706
▁kill	-10.9708
nsr	-10.9711
azo	-10.9714
▁+5	-10.9718
▁blocked	-10.9721
▁european	-10.9733
iphone	-10.9735
▁search	-10.9735
markytshop	-10.9736
marianalithium	-10.9736
mv	-10.9738
▁travis	-10.9739
ame	-10.9741
▁however	-10.9743
▁pps	-10.9744
sny	-10.9747
▁$60	-10.9749
msm	-10.975
aci	-10.9753
▁promise	-10.9754
▁sometimes	-10.9757
29%	-10.9758
▁flat	-10.9767
lcr	-10.9769
2.00	-10.9775
owp	-10.9779
▁9/	-10.9783
▁pic	-10.9794
▁color	-10.9798
memes	-10.9801
fintwit	-10.981
newyork	-10.9815
▁kdj	-10.9815
awta	-10.9816
▁correction	-10.982
arsn	-10.9822
▁generous	-10.9824
▁commercial	-10.9826
camera	-10.9826
coins	-10.9832
anb	-10.9834
▁knew	-10.9837
▁woman	-10.984
▁vaccine	-10.9841
▁$18	-10.9857
ani	-10.9857
adi	-10.9865
▁bo	-10.9865
hris	-10.987
▁0.016	-10.988
▁del	-10.9881
32%	-10.9885
rmd	-10.9885
▁ass	-10.9891
soi	-10.9894
itub	-10.9897
phbi	-10.991
rock	-10.9917
▁du	-10.9922
1.0	-10.9922
tokens	-10.9924
paypal	-10.9933
cdc	-10.9933
ktx	-10.9938
mid	-10.9946
pool	-10.9947
after	-10.9948
woh	-10.9957
pts	-10.9962
▁german	-10.9963
▁iger	-10.9968
▁includes	-10.9969
ek	-10.997
read	-10.9971
bazooka	-10.9974
▁congress	-10.9975
▁institutional	-10.9975
ftws	-10.9975
81%	-10.9976
▁stopped	-10.9976
▁adve	-10.9978
ptah	-10.9978
▁overall	-10.9978
xi	-10.9979
▁manufacturing	-10.9981
▁tired	-10.9981
alarm	-10.9983
▁midday	-10.9984
exla	-10.9985
class	-10.9986
implied	-10.9988
▁allowed	-10.9992
goos	-10.9994
▁curve	-10.9997
▁survey	-10.9998
▁daddy	-10.9998
▁pictures	-11.0003
ler	-11.0005
0.5	-11.0005
rpm	-11.0007
40%	-11.0008
ief	-11.001
▁semi	-11.0026
▁opened	-11.0028
lab	-11.0032
▁ban	-11.0035
1.1	-11.004
▁budget	-11.0055
bzun	-11.0055
▁copy	-11.0059
cat	-11.0061
▁kick	-11.0066
xlp	-11.0067
/10	-11.0071
vote	-11.0072
catt	-11.0074
ntap	-11.0077
accr	-11.0087
▁bed	-11.0089
coti	-11.0091
spect	-11.0092
▁south	-11.0095
▁ho	-11.0095
cast	-11.0096
▁computer	-11.0096
▁criminal	-11.0105
60%	-11.0108
▁crisis	-11.0108
▁legend	-11.0117
▁suggests	-11.0118
farm	-11.0125
▁$$$	-11.0125
espo	-11.0126
bri	-11.0127
arg	-11.013
dna	-11.0136
▁response	-11.0136
▁avoid	-11.0136
lvca	-11.014
enter	-11.0142
equity	-11.0145
east	-11.0148
lub	-11.0148
eat	-11.0149
▁sex	-11.015
▁canopy	-11.015
emb	-11.0151
venmo	-11.0152
▁fixed	-11.0154
▁instagram	-11.0155
ze	-11.0156
▁verification	-11.0163
lc	-11.0166
0.1%	-11.017
subscribe	-11.0173
pags	-11.0177
▁prediction	-11.0181
ava	-11.0181
▁slap	-11.0182
wood	-11.0182
▁secs	-11.0183
▁spending	-11.0186
▁covering	-11.0186
coming	-11.0186
clo	-11.0187
paid	-11.0187
▁cso	-11.0187
lim	-11.0197
▁driver	-11.0197
▁picking	-11.0201
▁52-	-11.021
mf	-11.0214
▁groceries	-11.0218
gme	-11.0218
swarm	-11.0219
▁$15000:	-11.022
▁piper	-11.022
ugaz	-11.0225
elon	-11.0225
bitant	-11.0226
rcl	-11.0228
wp	-11.023
▁walk	-11.0237
poa	-11.0239
▁likes	-11.0239
volatility	-11.024
winning	-11.0243
▁miles	-11.0246
omp	-11.0247
▁willing	-11.0247
21%	-11.0249
<	-11.0255
exor	-11.0259
▁pure	-11.0282
▁platforms	-11.0294
ham	-11.0296
360	-11.0298
▁frame	-11.03
▁capacity	-11.0301
▁floor	-11.0301
▁rare	-11.0303
faang	-11.0303
metoo	-11.0304
american	-11.0305
stne	-11.0309
ven	-11.0311
▁30,000	-11.0311
ans	-11.0313
▁1:	-11.0313
gro	-11.0316
0.4	-11.0317
▁crosses	-11.0319
edg	-11.0321
▁exist	-11.0333
siq	-11.0339
3.00	-11.0344
sbd	-11.0348
bds	-11.0349
1000	-11.0351
avg	-11.0351
▁directors	-11.0351
phb	-11.0353
imo	-11.0356
34%	-11.0359
▁operations	-11.0364
acrg	-11.0367
▁finish	-11.0372
▁$0.00	-11.0372
▁donation	-11.0378
riv	-11.0379
asia	-11.038
poloniex	-11.0384
▁collapse	-11.0384
▁becomes	-11.0384
▁leaderboard	-11.0384
rehab	-11.0385
▁unless	-11.0387
txs	-11.0388
▁broad	-11.039
nlnk	-11.0391
mixed	-11.0395
turn	-11.0397
▁(~$1	-11.0401
frm	-11.0402
mega	-11.0403
▁accepted	-11.0404
unions	-11.0407
gpro	-11.0407
▁entered	-11.0412
ubs	-11.0417
▁jumping	-11.0425
zz	-11.0426
▁cont	-11.0428
▁table	-11.043
solar	-11.0432
freecoins	-11.0434
xlc	-11.0441
ala	-11.0442
millionaire	-11.0442
‘	-11.0444
oll	-11.0444
acad	-11.0445
▁club	-11.0449
▁evening	-11.0454
▁trends	-11.0455
nyc	-11.0457
pan	-11.0459
25%	-11.0459
nvr	-11.0464
▁node	-11.0465
▁rob	-11.0466
circuit	-11.0468
covid	-11.0468
▁bunch	-11.0469
gnpx	-11.047
lic	-11.047
▁wife	-11.0474
▁surge	-11.0475
lgf	-11.0478
inb	-11.0478
rex	-11.0479
ack	-11.0479
▁wells	-11.0483
trans	-11.0485
bonds	-11.0486
tandwithdigibyte	-11.0487
▁powered	-11.0489
▁$600	-11.0496
teslachina	-11.0498
pii	-11.05
flo	-11.05
▁force	-11.05
▁yo	-11.0503
ntr	-11.0503
du	-11.0514
ode	-11.0514
▁-10%	-11.0516
▁buyout	-11.0516
oca	-11.0517
gift	-11.0519
sgt	-11.0529
dis	-11.0529
cola	-11.0535
state	-11.0543
syk	-11.0545
chicago	-11.0553
▁fantastic	-11.0553
▁symbol	-11.0553
▁valuable	-11.0553
buidl	-11.0553
▁planning	-11.0554
wkh	-11.0558
▁visa	-11.0563
▁joke	-11.0564
▁?❤	-11.0566
stablecoin	-11.0568
depa	-11.0569
▁gaming	-11.0573
apo	-11.0574
care	-11.0574
▁30,	-11.0575
112	-11.0577
▁score	-11.0578
srpt	-11.0579
▁prime	-11.0581
▁freez	-11.0589
blt	-11.0597
cusd	-11.06
0.00000	-11.0601
road	-11.0609
▁promo	-11.0614
▁coca	-11.0625
▁wed	-11.0625
▁$5,	-11.0629
▁fou	-11.0635
▁summary	-11.0638
▁police	-11.0639
:00:	-11.064
▁anybody	-11.0642
▁+13%	-11.0642
▁stops	-11.0643
here	-11.0648
▁2019,	-11.0648
▁buffett	-11.065
cho	-11.065
uni	-11.0652
ious	-11.0654
vdg	-11.0654
▁sponsored	-11.0659
wn	-11.0659
orb	-11.0664
▁buyback	-11.0665
▁ios	-11.0673
▁considering	-11.0677
eve	-11.0679
mor	-11.0681
▁fix	-11.0683
▁arknet	-11.0684
cur	-11.0689
▁loan	-11.0692
▁mad	-11.0694
170	-11.0694
gage	-11.0706
qua	-11.0707
loss	-11.0716
▁legit	-11.0718
wing	-11.072
▁opens	-11.072
bmw	-11.072
▁mini	-11.0723
▁meanwhile	-11.0725
zi	-11.0725
fam	-11.0729
.02	-11.0729
sig	-11.073
ez	-11.0731
▁def	-11.0734
huya	-11.0735
▁advice	-11.0735
▁cant	-11.0736
▁texas	-11.0737
boe	-11.0737
▁upon	-11.0748
bitcoincash	-11.0752
▁valued	-11.0763
▁lmao	-11.0765
▁4%	-11.0768
kbc	-11.077
1.4	-11.0771
0.50	-11.0774
content	-11.0778
▁15%	-11.078
▁figure	-11.078
▁dag	-11.0784
1.8	-11.0791
▁patients	-11.0792
source	-11.0792
ylie	-11.0793
▁$10000	-11.0794
▁declare	-11.0795
▁vite	-11.0798
▁livestream	-11.0798
txc	-11.0801
vol	-11.0804
nab	-11.0811
credit	-11.0811
windrops	-11.0812
▁continuation	-11.0812
▁12:00	-11.0812
▁strategies	-11.0812
hang	-11.0813
healthcare	-11.0814
▁coinzo	-11.0814
asml	-11.0816
epd	-11.0818
tsxv	-11.082
▁posting	-11.0823
feye	-11.0828
12500	-11.0828
▁radar	-11.0831
harv	-11.0831
67%	-11.0835
▁estimated	-11.0836
rum	-11.0839
mer	-11.0844
ptw	-11.0849
▁cum	-11.085
trust	-11.0854
nf	-11.0854
▁72	-11.0858
arq	-11.0863
lite	-11.0872
▁none	-11.0874
▁anyway	-11.0875
verb	-11.0877
▁tps	-11.0881
investor	-11.0881
roid	-11.0885
?#	-11.0886
▁terms	-11.0887
▁mac	-11.0888
sentiment	-11.0888
bbw	-11.0889
yo	-11.089
augmentedreality	-11.0899
rhhby	-11.0899
snwv	-11.0899
▁gross	-11.09
int	-11.09
▁math	-11.0901
▁toxic	-11.0901
▁scoop	-11.0902
hair	-11.0904
dapscoin	-11.0907
mission	-11.0908
0.8	-11.0911
▁crack	-11.0916
▁rule	-11.0916
6.5	-11.0917
▁solve	-11.0917
▁exit	-11.0921
▁60%	-11.0925
tnp	-11.0926
▁jv	-11.0934
ery	-11.0941
contract	-11.0956
fundamental	-11.0961
▁smaller	-11.0962
▁shs	-11.0962
2.5%	-11.0963
gix	-11.0964
bitc	-11.0967
les	-11.0969
▁decrease	-11.0971
apl	-11.0972
-#	-11.0975
penny	-11.0977
lw	-11.0978
wl	-11.0979
▁0.001	-11.0981
spa	-11.0986
▁links	-11.0986
▁promising	-11.0988
~$5.3	-11.0988
90%	-11.0988
lbc	-11.0989
rlbf	-11.0989
prod	-11.0992
▁mentions	-11.0992
▁lifetime	-11.0998
saas	-11.0999
▁samsung	-11.1002
der	-11.1007
▁#5	-11.101
{	-11.1011
exm	-11.1011
▁turns	-11.1013
lock	-11.1015
ware	-11.1019
izing	-11.1033
▁file	-11.1034
atus	-11.1036
▁neutral	-11.104
▁jim	-11.1041
▁onto	-11.1044
▁45	-11.1045
▁financials	-11.1045
risk	-11.1047
training	-11.1049
123	-11.105
▁ways	-11.1051
▁serve	-11.1055
range	-11.1055
▁purchases	-11.106
▁standard	-11.1064
afta	-11.1066
ked	-11.1066
ach	-11.1069
▁2019-12-	-11.107
▁attorney	-11.1077
▁succeed	-11.1077
tokyo	-11.1077
yoyo	-11.1077
culture	-11.1078
frc	-11.108
sgmo	-11.108
medical	-11.1081
nvta	-11.1082
bngo	-11.1084
2.6	-11.1085
▁tronlink	-11.1085
▁focused	-11.109
▁67	-11.1091
twitch	-11.1092
▁ads	-11.1092
▁led	-11.1094
▁funny	-11.1096
▁killing	-11.1099
bep	-11.1105
63%	-11.1106
▁scanner	-11.1107
3000	-11.1108
fly	-11.1109
▁2500	-11.1109
▁fsd	-11.111
onlyfans	-11.111
she	-11.1114
⃣️	-11.1118
▁obama	-11.1121
0.5%	-11.1122
▁unit	-11.1126
▁casino	-11.1126
▁perform	-11.1126
▁homeless	-11.1127
lth	-11.113
han	-11.1132
▁install	-11.1134
▁follower	-11.114
efl	-11.1158
▁adj	-11.1159
▁stronger	-11.1165
mcy	-11.1166
▁precious	-11.1167
▁resume	-11.1167
▁sanders	-11.1168
130	-11.1168
▁overnight	-11.1171
vefam	-11.1171
estate	-11.1177
ory	-11.1181
trades	-11.1185
▁reduced	-11.1186
have	-11.1189
kava	-11.1195
walm	-11.1195
safex	-11.1198
▁james	-11.1202
amr	-11.1205
ext	-11.1211
▁-2	-11.1211
erp	-11.1214
▁patents	-11.1225
▁75%	-11.1227
7,000	-11.1229
▁tim	-11.123
▁halloween	-11.1232
0,000	-11.1233
▁represent	-11.1238
▁bust	-11.1244
quant	-11.1248
.90	-11.125
▁-4%	-11.1252
▁easier	-11.1258
bre	-11.1258
▁david	-11.126
▁potus	-11.1264
smoke	-11.1264
0.25	-11.1265
▁humanatm	-11.1265
signals	-11.1269
mitx	-11.1276
worship	-11.1276
▁fat	-11.1279
▁(0.0	-11.1281
traders	-11.1285
graph	-11.1286
▁tele	-11.1288
▁11:	-11.129
food	-11.1293
......	-11.1295
$10	-11.1305
▁//	-11.1308
angel	-11.1308
hong	-11.1314
▁cute	-11.1315
brough	-11.1329
capital	-11.1336
body	-11.134
pow	-11.1344
hea	-11.1348
▁delivered	-11.1348
sunnetwork	-11.135
pen	-11.135
▁334	-11.1351
splif	-11.1351
digi	-11.1353
xon	-11.1353
▁blessed	-11.1354
ubq	-11.1354
resist	-11.1356
▁bubble	-11.1357
▁vids	-11.1357
non	-11.1358
sum	-11.1359
zf	-11.1359
ore	-11.1363
▁saturday	-11.1364
▁developing	-11.1364
ottv	-11.1364
▁slowly	-11.1365
tsla	-11.137
▁sony	-11.1378
ggp	-11.1378
▁hod	-11.1382
right	-11.1384
▁professional	-11.1384
▁anticipat	-11.139
▁-3%	-11.1392
▁em	-11.1392
oss	-11.1406
advisor	-11.1414
ita	-11.1416
▁+9	-11.1416
syy	-11.1436
stth	-11.1437
jpy	-11.1439
▁pink	-11.1442
▁dark	-11.1442
▁imminent	-11.1442
▁proposal	-11.1442
▁plenty	-11.1442
wen	-11.1443
▁status	-11.1444
▁warning	-11.1444
▁6%	-11.1446
▁edge	-11.1447
yeti	-11.1447
▁charge	-11.1451
▁sir	-11.1452
▁forming	-11.1453
▁$0.02	-11.1457
verasity	-11.1457
▁15.	-11.146
privacycoin	-11.1463
▁becoming	-11.1466
enb	-11.1468
▁?✨	-11.1468
▁included	-11.148
38%	-11.148
▁fail	-11.1481
mate	-11.1483
cryptocommunity	-11.1485
btcusd	-11.149
▁models	-11.1491
▁cnbc	-11.1491
pre	-11.1496
▁highlight	-11.1497
▁grade	-11.1499
▁audit	-11.1499
▁harder	-11.1501
666	-11.1501
america	-11.1504
▁indexes	-11.1506
▁jul	-11.1509
ldx	-11.1509
vy	-11.1521
5000:	-11.1526
bear	-11.1526
vya	-11.1526
00%	-11.1528
tips	-11.1533
▁plummet	-11.1536
▁sets	-11.1536
▁okay	-11.1538
abev	-11.1542
rosed	-11.1549
bread	-11.1551
▁dapps	-11.1557
▁followed	-11.1561
iy	-11.1565
rising	-11.1567
js	-11.1568
passive	-11.1571
pwc	-11.1578
vitex	-11.1578
ego	-11.158
pdt	-11.1582
billion	-11.1582
premarket	-11.1588
▁joined	-11.1589
sunday	-11.159
sxp	-11.1592
gap	-11.1595
ier	-11.1601
oho	-11.1602
mdb	-11.1603
▁leadership	-11.1606
credits	-11.1608
▁uk	-11.1621
▁architecture	-11.163
▁informative	-11.163
▁respond	-11.163
qrvo	-11.163
▁pressure	-11.1631
▁90%	-11.1633
gbpusd	-11.1634
hg	-11.1641
rian	-11.1642
hp	-11.1649
▁station	-11.1653
dlt	-11.1654
rally	-11.1656
yuma	-11.1658
3%	-11.1661
iz	-11.1661
▁0.10	-11.1663
▁burned	-11.1664
▁verify	-11.1666
lto	-11.1669
nbt	-11.1669
fda	-11.1672
porn	-11.1677
lh	-11.1678
▁-15%	-11.1681
▁businesses	-11.1683
▁yields	-11.1686
stay	-11.1687
mq	-11.1688
crude	-11.169
nvg	-11.1691
▁golden	-11.17
nda	-11.1702
onn	-11.1704
riot	-11.1706
▁valentine	-11.1708
▁voted	-11.1709
adm	-11.1712
▁statements	-11.1714
▁advanced	-11.1715
uwt	-11.1721
▁auction	-11.1725
interactivevideo	-11.1726
ghsi	-11.1726
▁basically	-11.1726
▁overview	-11.1729
rin	-11.173
▁eager	-11.1736
unce	-11.1736
fcau	-11.1736
vision	-11.1736
nakd	-11.1737
▁27-	-11.1738
4,	-11.1741
▁iran	-11.1742
media	-11.175
etf	-11.1752
vf	-11.1758
▁application	-11.1761
mni	-11.1763
xbi	-11.1769
2%	-11.1771
endp	-11.1771
.07	-11.1773
born	-11.1774
▁buyer	-11.1776
nine	-11.1778
word	-11.1779
bag	-11.178
.33	-11.1786
▁gov	-11.1788
xsp	-11.1789
▁wide	-11.179
145	-11.1791
wday	-11.1797
lowers	-11.1798
▁trezarcoin	-11.1799
▁explode	-11.1805
▁study	-11.1807
▁yr	-11.1814
equities	-11.1815
fact	-11.1816
rick	-11.1817
▁knock	-11.1821
▁barclays	-11.1822
▁although	-11.1822
▁fiscal	-11.1822
brexit	-11.1822
corona	-11.1823
bngi	-11.1823
disruptive	-11.1823
▁reduce	-11.1827
hgg	-11.1827
▁robe	-11.1828
fan	-11.1829
▁spirit	-11.183
rolling	-11.1833
▁waste	-11.1836
leg	-11.1843
155	-11.1845
mac	-11.1846
▁designed	-11.1846
okex	-11.186
▁wk	-11.1861
imp	-11.1867
inn	-11.1869
▁2,000	-11.1875
▁request	-11.188
▁sounds	-11.1884
blo	-11.1884
▁doubled	-11.1884
feat	-11.1886
18%	-11.189
0.00	-11.189
▁verizon	-11.1893
mxc	-11.1895
swing	-11.1896
▁conditions	-11.1896
keeps	-11.1899
eurn	-11.1906
sfor	-11.191
uff	-11.1913
ign	-11.1918
▁transpo	-11.1918
▁difficult	-11.1919
▁jenner	-11.1919
▁segment	-11.1919
▁pricing	-11.1919
otcqb	-11.1919
▁himself	-11.1919
▁xu	-11.1919
▁basis	-11.1919
▁everywhere	-11.1921
▁zoom	-11.1922
break	-11.1922
ledger	-11.1926
igpk	-11.1928
▁mis	-11.1928
irc	-11.193
89%	-11.1932
banks	-11.1935
▁killed	-11.1937
jt	-11.1938
wix	-11.1943
▁policy	-11.1946
▁div	-11.1947
telegram	-11.1951
!!!!!!	-11.1953
▁connect	-11.1953
spring	-11.1954
▁acquired	-11.1956
jobs	-11.1959
hack	-11.1963
▁consumers	-11.1964
+9%	-11.1968
▁seat	-11.1969
olm	-11.1975
sent	-11.1978
xd	-11.1982
▁2018.	-11.1987
▁banano	-11.1988
oty	-11.1992
▁insiders	-11.1993
▁manage	-11.1995
.2%	-11.1996
▁2010	-11.1997
pnn	-11.2001
▁—>	-11.2004
asa	-11.2005
mrna	-11.2006
▁rapid	-11.2012
ten	-11.2015
owboy	-11.2016
convergence	-11.2017
▁anniversary	-11.2017
▁?????????	-11.2018
▁hrs	-11.2022
▁7-	-11.2022
▁kong	-11.2023
▁equities	-11.2023
▁mission	-11.2027
20+	-11.2027
▁$13	-11.2034
emh	-11.2039
▁funded	-11.2042
▁engineer	-11.2045
▁walt	-11.2045
▁spin	-11.2049
than	-11.2052
▁424	-11.2055
bright	-11.2059
▁sheet	-11.2061
▁generation	-11.2066
shy	-11.2068
rade	-11.207
cnbc	-11.2071
pping	-11.2077
ati	-11.2082
125	-11.2083
▁loser	-11.2083
hly	-11.2083
4.8	-11.2091
vw	-11.2093
eev	-11.2098
▁radio	-11.21
▁role	-11.2101
gbtc	-11.2101
gno	-11.2103
some	-11.2103
ud	-11.2112
note	-11.2114
▁absolute	-11.2114
vikram	-11.2116
diplomat	-11.2116
send	-11.2117
vv	-11.2118
▁feet	-11.2119
▁ugly	-11.2119
psa	-11.2123
▁pipeline	-11.2128
abmd	-11.2128
ator	-11.213
▁-4.	-11.213
lar	-11.2131
rck	-11.2132
▁careful	-11.2133
qbio	-11.2133
▁2020,	-11.2135
▁grind	-11.2138
5,000,000	-11.2144
eci	-11.2146
▁mostly	-11.2147
grw	-11.2154
▁ill	-11.2154
roke	-11.2162
▁remaining	-11.2163
fhn	-11.2164
lsh	-11.2167
uo	-11.2167
▁medium	-11.2169
ear	-11.217
official	-11.2172
▁erc	-11.2174
opec	-11.2175
ative	-11.2178
ide	-11.2178
▁unlimited	-11.218
ration	-11.2187
▁saudi	-11.2197
▁achieve	-11.2198
▁introduce	-11.2199
▁manager	-11.2202
atv	-11.2207
count	-11.2209
ffn	-11.221
glob	-11.2211
▁-11%	-11.2212
beat	-11.2215
▁afterhours	-11.2215
utilities	-11.2216
▁genius	-11.2216
▁sachs	-11.2216
2.50	-11.2216
▁expand	-11.2218
zelle	-11.2218
▁intraday	-11.2221
▁falls	-11.2222
allowing	-11.2224
▁text	-11.2233
stockexchange	-11.2237
tradeideas	-11.2238
▁license	-11.2239
30%	-11.2245
uring	-11.2256
▁package	-11.2256
▁chip	-11.2264
▁marijuana	-11.2265
ju	-11.2266
▁patterns	-11.2267
ball	-11.2267
▁inve	-11.2272
▁steam	-11.2272
▁apply	-11.2272
2016	-11.2275
gmt	-11.2276
$1	-11.2277
240	-11.228
▁attacks	-11.2282
333	-11.2285
expo	-11.2286
gbp	-11.2289
▁resource	-11.2299
79%	-11.2301
pzm	-11.2307
grc	-11.2308
▁wheel	-11.2308
ably	-11.231
stem	-11.2313
▁photos	-11.2314
nfl	-11.2315
▁sessions	-11.2315
ugh	-11.2317
uranium	-11.2317
▁jefferies	-11.2317
▁domestic	-11.2317
▁revolution	-11.2317
epstein	-11.2317
▁11.	-11.2317
▁weakness	-11.2318
▁flight	-11.2322
uf	-11.2324
▁brain	-11.2324
ization	-11.2328
bearish	-11.2329
▁tues	-11.2329
▁owns	-11.2333
▁purch	-11.2335
✔	-11.2335
gem	-11.2339
135	-11.234
▁anytime	-11.234
▁existing	-11.234
contracts	-11.2343
asian	-11.2346
▁parabolic	-11.2348
▁6000	-11.2348
govx	-11.2348
catfish	-11.2349
▁crude	-11.2355
avr	-11.2356
6)	-11.2359
▁-3.	-11.2362
43%	-11.2364
packed	-11.2368
bsh	-11.2369
opx	-11.2372
▁london	-11.2373
rac	-11.2375
ami	-11.2377
▁deutsche	-11.2379
▁27,	-11.2381
gpn	-11.2384
oon	-11.2386
▁histo	-11.2393
roll	-11.2395
chem	-11.2395
ese	-11.2396
▁trail	-11.2404
▁pros	-11.2408
▁collect	-11.2408
▁$400	-11.2413
▁knowing	-11.2413
tether	-11.2419
ificial	-11.2419
▁compatible	-11.2419
silica	-11.2419
▁superior	-11.2419
▁countdown	-11.242
wit	-11.242
▁rebound	-11.2421
▁kept	-11.2421
▁playboy	-11.2423
rds	-11.243
▁deposits	-11.2433
▁2014	-11.2437
gre	-11.2439
▁compete	-11.2439
hpe	-11.2443
ane	-11.2444
kaly	-11.2445
80%	-11.2447
▁wonderful	-11.2448
glw	-11.2452
chris	-11.2453
▁teams	-11.2454
▁hunt	-11.2455
ini	-11.2457
▁stats	-11.2458
name	-11.2459
101	-11.246
profits	-11.2462
▁14%	-11.2463
▁learning	-11.2463
71%	-11.2468
apc	-11.2468
ku	-11.2468
three	-11.2471
rcod	-11.2471
▁payday	-11.2472
▁effective	-11.2482
▁child	-11.2484
ecr	-11.2484
▁lies	-11.2492
▁items	-11.2493
4.5	-11.2495
▁vp	-11.2497
found	-11.2497
3.50	-11.2499
jb	-11.2502
▁clip	-11.2504
dream	-11.2511
▁ticket	-11.2513
▁twice	-11.2514
▁weight	-11.2515
▁31,	-11.2516
▁except	-11.2518
▁hospital	-11.2519
▁incentive	-11.2522
dnvgl	-11.2522
decentralization	-11.2522
huobi	-11.2522
keys	-11.2522
stream	-11.2529
jar	-11.2532
▁proven	-11.2532
▁suit	-11.2539
▁mercedes	-11.2543
▁equivalent	-11.2545
ocp	-11.2545
nty	-11.2547
qrl	-11.2547
col	-11.2551
▁image	-11.2553
▁worship	-11.2557
bytes	-11.2563
▁secured	-11.257
▁abuse	-11.2572
rich	-11.2576
faucet	-11.2586
onci	-11.2587
lrd	-11.2589
▁0.000000	-11.2592
wic	-11.2593
▁forecasts	-11.2593
▁yall	-11.2594
▁mood	-11.2596
decred	-11.2601
▁climb	-11.2608
117	-11.2613
700	-11.2614
▁founder	-11.2615
▁02	-11.2617
▁hashtag	-11.2623
hook	-11.2625
hey	-11.2626
▁whistleblower	-11.2626
▁$800	-11.2627
▁dropbox	-11.2632
▁86%	-11.2635
▁task	-11.2636
eql	-11.2636
orz	-11.2638
▁shift	-11.2641
yang	-11.2642
▁2015	-11.2643
▁mic	-11.2645
▁limit	-11.2649
▁makers	-11.2649
bvt	-11.2651
3.9%	-11.2651
cuck	-11.2652
verge	-11.2654
▁tiny	-11.2655
▁jack	-11.2656
cit	-11.2662
▁climate	-11.2662
▁dig	-11.2666
utxo	-11.2666
▁learned	-11.2667
stake	-11.267
▁loans	-11.2671
pdc	-11.2674
▁14.	-11.2676
thoughts	-11.2678
grn	-11.2682
ocos	-11.2692
mine	-11.2694
▁evil	-11.2696
▁777	-11.2697
▁18%	-11.2701
0.0%	-11.2706
▁cons	-11.2709
▁$14	-11.2712
▁brother	-11.2714
samsung	-11.2714
▁caterpillar	-11.2715
arr	-11.2717
4.7%	-11.2719
▁thinks	-11.2721
3.1%	-11.2722
▁7,	-11.2725
▁knowledge	-11.2726
▁daughter	-11.2731
autonomous	-11.2731
▁newsletter	-11.2731
▁edition	-11.2732
manipulation	-11.2734
▁setups	-11.2734
▁usually	-11.2736
▁costco	-11.2738
▁busy	-11.2739
▁+18%	-11.2742
oncs	-11.2742
▁yrs	-11.2745
▁555	-11.2746
seed	-11.2747
loki	-11.275
▁triangle	-11.2752
▁helped	-11.2755
-3	-11.2758
ath	-11.2764
▁contribute	-11.2764
boo	-11.2766
▁owned	-11.2768
once	-11.2769
▁powell	-11.278
▁appears	-11.2792
robb	-11.2795
learn	-11.2796
▁yearly	-11.2801
▁provid	-11.2801
fyi	-11.2802
▁lotto	-11.2802
▁player	-11.281
4.9%	-11.2811
yme	-11.2812
tha	-11.2813
▁headed	-11.2813
bli	-11.2818
▁looked	-11.2821
▁communication	-11.2822
room	-11.2824
▁0.000002	-11.2825
▁sea	-11.283
developer	-11.2831
andi	-11.2832
▁treason	-11.2833
aim	-11.2833
▁perspective	-11.2838
▁announcing	-11.2838
▁cheappies	-11.2838
▁transcript	-11.2838
mrvl	-11.2838
future	-11.2838
▁favourite	-11.2838
▁apparently	-11.2838
▁perhaps	-11.2839
luu	-11.2839
▁otherwise	-11.2842
▁body	-11.2842
etx	-11.2844
dia	-11.2844
mbot	-11.2846
▁korean	-11.2848
yes	-11.2849
recession	-11.2852
▁significantly	-11.2852
▁+16%	-11.2853
mlm	-11.2853
ple	-11.2853
sure	-11.2856
▁triggered	-11.2857
retail	-11.2857
sedg	-11.2858
▁bets	-11.2859
ards	-11.2864
nl	-11.2868
▁monetized	-11.2868
hit	-11.2869
tec	-11.2874
ffc	-11.2875
ogn	-11.288
▁shake	-11.2882
103	-11.2886
180	-11.2888
▁concerns	-11.2893
estc	-11.2896
loc	-11.2898
tzc	-11.2899
▁25000000	-11.29
why	-11.2904
enn	-11.2909
eye	-11.2909
banking	-11.2909
release	-11.291
160	-11.2911
▁(5	-11.2922
registrations	-11.2924
▁discussion	-11.2933
agrx	-11.2934
▁detail	-11.2943
superbowl	-11.2945
▁unveil	-11.2945
▁murder	-11.2945
jnpr	-11.2945
depth	-11.2945
▁royalties	-11.2947
▁recovery	-11.2954
▁0.2	-11.2954
▁useful	-11.2955
peg	-11.2955
water	-11.2957
▁asap	-11.2957
▁confidence	-11.2958
motivation	-11.2958
▁cheers	-11.2964
russia	-11.2965
seele	-11.2972
banano	-11.2973
▁marketplace	-11.2973
▁exploration	-11.2976
stop	-11.2976
buying	-11.2977
▁dust	-11.2978
lamb	-11.298
att	-11.2985
▁collateral	-11.2987
hero	-11.2988
▁shall	-11.2989
---	-11.2991
114	-11.2994
ntes	-11.2996
▁125	-11.2996
etfc	-11.3
pol	-11.3
aco	-11.3
▁larger	-11.3001
apps	-11.3002
prize	-11.3012
intu	-11.3015
52%	-11.3017
▁subscription	-11.3019
!!!??	-11.3027
▁survivor	-11.3029
amg	-11.3034
vibes	-11.3043
7%)	-11.3049
▁developed	-11.305
▁cyber	-11.3052
argentina	-11.3054
stocktwits	-11.3054
aurora	-11.3054
▁ice	-11.3054
▁tagging	-11.3055
▁12-	-11.3055
▁cutting	-11.3056
▁bias	-11.3057
ios	-11.3057
rif	-11.3057
▁race	-11.3058
▁swaps	-11.3059
▁implementing	-11.306
61%	-11.3061
▁wrap	-11.3062
▁pacific	-11.3067
ecommerce	-11.307
teen	-11.308
▁roi	-11.3081
-8	-11.3091
▁complet	-11.3091
▁pays	-11.3091
write	-11.3092
▁florida	-11.3092
ln	-11.3098
▁camp	-11.3105
nev	-11.3109
may	-11.3111
swingtrad	-11.3112
zr	-11.3114
indu	-11.3115
fran	-11.3116
▁70%	-11.3118
▁maya	-11.3125
▁matters	-11.3129
ewz	-11.3139
▁caused	-11.3141
shc	-11.3142
prob	-11.3143
nst	-11.3143
▁pocket	-11.3151
wu	-11.3154
uno	-11.3155
4.00	-11.3157
▁decreasing	-11.3164
▁engulfing	-11.3164
▁evidence	-11.3164
gbyte	-11.3164
▁mastercard	-11.3164
▁silent	-11.3164
tradedeal	-11.3165
craft	-11.3167
▁finding	-11.317
brown	-11.3171
▁alaskan	-11.3174
store	-11.3176
▁revealed	-11.3176
where	-11.3178
gaap	-11.3178
cut	-11.3179
istic	-11.3185
topia	-11.3186
ubt	-11.3198
wou	-11.3198
▁ship	-11.3199
▁ranked	-11.3206
▁weigh	-11.3208
cso	-11.3211
39%	-11.3213
okb	-11.3213
▁accelerate	-11.3215
bar	-11.3219
vin	-11.322
dma	-11.3224
ogod	-11.323
acc	-11.3234
brc	-11.3234
__	-11.3235
▁tank	-11.324
▁gdp	-11.324
mit	-11.324
rsm	-11.3247
31%	-11.3248
4.5%	-11.3249
1%)	-11.3251
▁executives	-11.3251
▁discover	-11.3251
▁records	-11.3251
▁registered	-11.3255
▁acquisitions	-11.3261
tariffs	-11.3262
▁seconds	-11.3263
▁closely	-11.3263
nvo	-11.3268
▁historical	-11.3273
▁explains	-11.3273
▁sw	-11.3274
uco	-11.3274
pulte	-11.3275
gtbif	-11.3275
voteforv	-11.3275
▁warming	-11.3275
▁political	-11.3276
▁indeed	-11.3276
▁foreign	-11.3277
▁continuing	-11.3278
▁russian	-11.3278
hsbc	-11.3278
/27	-11.328
crime	-11.3284
ists	-11.3285
▁sources	-11.3285
mwat	-11.3287
bti	-11.3288
300,000	-11.3288
hua	-11.3288
arena	-11.3289
uh	-11.329
ute	-11.329
mmj	-11.3292
▁blast	-11.3292
probit	-11.3294
try	-11.3296
▁2.0.0	-11.3297
▁mess	-11.3297
▁predicted	-11.33
bpm	-11.3304
ities	-11.3312
▁sooner	-11.3314
1.9%	-11.3316
▁globally	-11.332
▁foot	-11.332
▁bra	-11.3327
ado	-11.3329
▁develop	-11.3333
▁900	-11.3335
spwr	-11.3335
▁scientists	-11.3338
▁cybe	-11.3338
▁natural	-11.3347
princess	-11.3348
▁football	-11.3349
yrs	-11.3353
por	-11.3355
every	-11.336
▁introduction	-11.336
selling	-11.3363
▁reveal	-11.3364
▁ignore	-11.337
pai	-11.3373
▁8,	-11.3373
▁shell	-11.3376
!????	-11.3377
late	-11.3381
zero	-11.3386
▁percent	-11.3387
spacex	-11.3387
▁innovative	-11.3387
▁disclosure	-11.3387
▁textbook	-11.3388
▁jail	-11.3388
83%	-11.3388
brief	-11.3388
dl	-11.3389
▁stress	-11.3389
▁benefits	-11.3389
▁select	-11.339
▁favor	-11.3391
▁$7500	-11.3393
3.4%	-11.3399
▁reiterated	-11.3402
▁+1%	-11.3403
rica	-11.3407
▁ascend	-11.341
pumped	-11.341
delivered	-11.3411
pharma	-11.3412
▁fastest	-11.3412
53%	-11.3414
▁construction	-11.3416
9)	-11.3416
▁grabs	-11.3417
fraud	-11.3418
deal	-11.3418
total	-11.342
▁elephant	-11.3422
internet	-11.3422
-5	-11.3423
bco	-11.3431
coffee	-11.3433
▁eu	-11.3434
74%	-11.3434
ema	-11.3437
▁germany	-11.3439
msi	-11.344
babe	-11.3442
▁burning	-11.3442
klac	-11.3447
220	-11.3448
999	-11.3449
influencer	-11.3452
opt	-11.3455
bell	-11.3459
▁passive	-11.3461
▁android	-11.3462
▁trusted	-11.3464
ainly	-11.3471
▁played	-11.3474
fu	-11.3475
▁9,	-11.3476
uns	-11.3478
▁?✅	-11.3478
yle	-11.348
adr	-11.3481
redo	-11.3481
wire	-11.3483
cra	-11.349
mail	-11.3491
api	-11.3491
▁liquid	-11.3492
▁+7	-11.3493
▁honest	-11.3496
▁bundle	-11.3501
▁facility	-11.3501
cardano	-11.3502
▁prefer	-11.3502
luna	-11.3502
vlp	-11.3502
▁chemo	-11.3503
▁possibl	-11.3504
salesforce	-11.3504
gps	-11.3504
▁granted	-11.3508
brent	-11.3512
msft	-11.3516
▁46%	-11.3518
talk	-11.3519
▁introduced	-11.352
wise	-11.3521
▁plane	-11.3525
0.2%	-11.3526
▁tri	-11.353
27%	-11.353
2,500	-11.3532
ankr	-11.3534
rake	-11.3539
1.50	-11.3547
yx	-11.3548
cure	-11.355
thursday	-11.3551
oracle	-11.3557
stk	-11.3557
fate	-11.3557
0)	-11.3559
mainnet	-11.3561
rq	-11.3562
space	-11.3563
2)	-11.357
launch	-11.3571
option	-11.3571
bru	-11.3572
▁materials	-11.3573
▁rankings	-11.3577
take	-11.3578
?!?!	-11.3586
▁-7%	-11.359
weekly	-11.3593
biv	-11.3594
rude	-11.3596
hepa	-11.3597
▁kid	-11.36
▁attend	-11.3602
550	-11.361
▁obvious	-11.3611
jet	-11.3614
▁determine	-11.3616
▁sideways	-11.3616
medicine	-11.3616
dowjones	-11.3616
▁momo	-11.3616
▁relationship	-11.3617
▁loving	-11.3617
▁shouldn	-11.3618
▁prove	-11.362
▁majority	-11.3621
hn	-11.3629
ontx	-11.3633
▁sit	-11.3633
▁promised	-11.364
▁purpose	-11.3641
qual	-11.3641
logm	-11.3645
▁defense	-11.3649
260	-11.3654
cum	-11.3657
▁25,000	-11.3657
complete	-11.3659
▁trials	-11.3663
bdx	-11.3664
▁mins	-11.3665
pdd	-11.3666
nova	-11.367
elt	-11.3671
▁anticipated	-11.3672
xtra	-11.3673
▁tons	-11.3674
▁retailers	-11.3675
▁patent	-11.3677
rib	-11.368
bta	-11.368
-2	-11.3686
sfet	-11.3688
law	-11.3688
▁jones	-11.3688
igaf	-11.3689
ftt	-11.369
▁act	-11.3691
▁friendly	-11.3696
▁master	-11.3701
,400	-11.3703
comm	-11.3705
marketplace	-11.3708
itw	-11.3708
management	-11.3711
ompq	-11.3713
:45	-11.3714
baz	-11.3716
2.9%	-11.3726
avid	-11.3726
▁catalyst	-11.3726
6.5%	-11.373
colossusxt	-11.3732
stabletoken	-11.3732
▁thrilled	-11.3732
▁wrote	-11.3732
smoking	-11.3732
▁dinner	-11.3733
alef	-11.3734
▁bitrue	-11.3734
full	-11.3735
▁hotel	-11.3735
▁cd	-11.3735
nvcn	-11.3739
wmd	-11.3741
▁lifted	-11.3742
.000.000	-11.3743
ries	-11.3746
tipbot	-11.3749
▁soft	-11.3754
mik	-11.3754
▁2020!	-11.3756
▁90	-11.3759
rdl	-11.3763
wy	-11.3769
bz	-11.3769
/30	-11.377
esp	-11.3773
andrew	-11.3773
+4%	-11.3775
▁addressed	-11.3777
stng	-11.3784
stor	-11.3787
org	-11.3788
▁alt	-11.3793
▁healthy	-11.3796
▁13,	-11.3799
▁engine	-11.3804
▁6-	-11.3805
12%	-11.3807
85%	-11.3808
dolly	-11.3809
3.0%	-11.3813
listed	-11.3815
▁purchased	-11.3821
ail	-11.3821
urb	-11.3822
▁environment	-11.3822
fis	-11.383
submit	-11.383
hub	-11.3836
▁india	-11.3836
gop	-11.3837
wall	-11.3839
ina	-11.3849
▁curious	-11.385
▁reliable	-11.385
cybersecurity	-11.385
arbitrage	-11.385
glass	-11.3851
walletdrain	-11.3854
▁2008	-11.3855
▁bighit	-11.3855
▁employee	-11.3856
tribute	-11.3856
ndaq	-11.386
under	-11.3861
company	-11.3863
▁detailed	-11.3865
6.9%	-11.3868
faucets	-11.3869
pur	-11.387
board	-11.3873
94%	-11.3878
▁wont	-11.3878
▁bars	-11.3883
2,000	-11.3886
▁pumping	-11.3892
bitb	-11.3899
▁investments	-11.3901
cal	-11.3901
▁devs	-11.3903
acst	-11.3903
need	-11.3907
3.7%	-11.3912
▁defend	-11.3919
▁rises	-11.3925
pics	-11.3931
acia	-11.3938
▁dumping	-11.3943
84%	-11.3944
rose	-11.3951
▁schedule	-11.3952
cannabisnews	-11.3957
filings	-11.3961
▁middle	-11.3965
4,000	-11.3966
▁japan	-11.3966
pet	-11.3966
anonymous	-11.3969
charity	-11.3969
▁pathetic	-11.3969
▁duration	-11.3969
pussy	-11.3969
▁eventually	-11.3969
tilray	-11.397
broker	-11.3971
▁stars	-11.3971
bagger	-11.3971
▁crap	-11.3975
▁detected	-11.3975
slut	-11.398
▁suck	-11.3981
ola	-11.3981
▁affect	-11.3983
▁accounting	-11.3984
rmk	-11.3984
▁mines	-11.3985
pin	-11.3988
▁prepare	-11.3989
milv	-11.399
▁scammers	-11.3992
????????????????	-11.3998
▁commission	-11.3999
▁actively	-11.401
version	-11.401
▁square	-11.4012
eal	-11.4013
650	-11.4013
jct	-11.4015
▁heads	-11.4018
▁margins	-11.4023
qe	-11.4025
days	-11.4026
▁lowest	-11.4028
▁sum	-11.4033
freedom	-11.4035
brand	-11.4042
▁addresses	-11.4044
come	-11.4047
▁crossing	-11.4048
▁earned	-11.4049
▁oi	-11.4052
2.0	-11.4055
travel	-11.4057
nhi	-11.4058
hihi	-11.4061
▁0.02	-11.4063
22%	-11.4066
ipi	-11.4068
was	-11.4072
▁invited	-11.4075
▁recommend	-11.4075
rby	-11.4078
▁goodluck	-11.4079
wwe	-11.4088
▁meat	-11.4088
pilot	-11.4089
▁rumor	-11.4089
▁transparent	-11.409
▁plunge	-11.409
▁nasty	-11.409
▁failure	-11.409
itt	-11.4091
▁preview	-11.4091
->	-11.4092
online	-11.4094
▁chill	-11.4096
tn	-11.4102
wed	-11.4102
▁grows	-11.4102
ime	-11.4103
hole	-11.4105
abus	-11.4109
got	-11.4116
▁registration	-11.4119
▁mcdonald	-11.4124
▁reimburse	-11.4131
remove	-11.4135
scam	-11.4137
▁imho	-11.4139
▁path	-11.414
whr	-11.4142
121	-11.4144
maker	-11.4146
prv	-11.415
▁franchise	-11.4153
▁opp	-11.4154
▁echo	-11.4155
away	-11.4155
monero	-11.4157
▁print	-11.4158
▁seeking	-11.4158
▁aka	-11.4158
▁pet	-11.4159
..."	-11.416
▁adopt	-11.4161
km	-11.4161
sgen	-11.4164
positive	-11.4164
adoption	-11.4165
graphic	-11.4171
107	-11.4176
▁crowd	-11.4176
92%	-11.4176
▁ordered	-11.4179
▁thi	-11.4183
pharmaceutical	-11.4185
egt	-11.4188
other	-11.419
ici	-11.4194
there	-11.4196
gnx	-11.4198
▁accumulate	-11.4198
▁tape	-11.4201
▁hmm	-11.4206
drop	-11.4207
kid	-11.4207
▁asynchronous	-11.4211
▁attitude	-11.4211
▁guilty	-11.4211
▁impossible	-11.4211
▁transition	-11.4211
bandprotocol	-11.4211
▁communities	-11.4211
▁clown	-11.4212
target	-11.4213
▁survive	-11.4213
podd	-11.4214
1000%	-11.4214
lowcap	-11.4217
think	-11.4218
lan	-11.4224
▁client	-11.4229
▁competitors	-11.4231
ache	-11.4234
zo	-11.4235
▁tools	-11.4236
fishing	-11.4236
amzn	-11.4237
digit	-11.4238
▁faucet	-11.4238
▁peeps	-11.4238
wrx	-11.4243
▁dive	-11.4243
?"	-11.4259
▁grown	-11.4259
vrab	-11.426
▁photo	-11.4266
▁sticker	-11.427
.97%	-11.4272
▁delta	-11.4272
▁+8	-11.4274
▁tariffs	-11.4281
rew	-11.4281
hard	-11.4282
▁dumped	-11.4282
avi	-11.4286
bdg	-11.4286
ymc	-11.4286
1.7%	-11.4297
▁logic	-11.4298
cock	-11.4299
private	-11.4309
umb	-11.4309
mile	-11.4315
scale	-11.4316
tek	-11.4317
lung	-11.4319
chinese	-11.432
revenue	-11.432
register	-11.4321
▁deserves	-11.4323
▁citi	-11.4329
▁51%	-11.4329
3.6%	-11.4333
▁confident	-11.4333
▁disabled	-11.4335
swift	-11.4335
yelp	-11.4335
organic	-11.4335
▁planned	-11.4335
▁sapra	-11.4336
zng	-11.4336
▁testnet	-11.4339
smallcap	-11.4339
▁propose	-11.4339
emo	-11.4341
▁cowen	-11.4341
▁350	-11.4345
grnh	-11.4348
▁5400	-11.4348
▁thx	-11.4351
▁251	-11.4354
itci	-11.4355
serv	-11.4355
8.5%	-11.4356
▁managed	-11.4356
.54%	-11.4359
bcci	-11.4362
splk	-11.4362
▁blocks	-11.4364
▁trap	-11.4364
boss	-11.4366
▁mouth	-11.4367
holo	-11.4369
▁***	-11.4371
▁promotion	-11.4376
spite	-11.4377
xxx	-11.4381
▁$1.4	-11.4381
pic	-11.4383
mdl	-11.4384
eep	-11.4385
▁ema	-11.439
foot	-11.439
sph	-11.4393
▁retirement	-11.4395
️️	-11.4397
pni	-11.4397
seq	-11.4399
▁$140	-11.4401
adt	-11.4406
4.0%	-11.4406
1.8%	-11.4413
▁-5%	-11.4416
▁20,	-11.443
▁citigroup	-11.443
cj	-11.443
▁billionaire	-11.4432
hmc	-11.4436
/#	-11.4438
▁receiv	-11.444
187	-11.4442
3.5%	-11.4448
sony	-11.4453
gan	-11.4454
mint	-11.4458
var	-11.4458
igg	-11.4459
bitfinex	-11.446
▁subsidiary	-11.446
▁collaboration	-11.446
▁hurry	-11.4461
klip	-11.4462
alaska	-11.4462
6.3%	-11.4464
▁backtest	-11.4467
▁settled	-11.4472
axsm	-11.4473
▁michael	-11.4475
62%	-11.4475
▁passes	-11.4476
international	-11.448
(2	-11.448
▁clinton	-11.4481
▁slack	-11.4482
which	-11.4483
▁upload	-11.4486
nick	-11.4486
▁taxes	-11.4488
▁supposed	-11.4489
5.5%	-11.449
▁joe	-11.4494
▁educational	-11.4495
▁deficits	-11.4497
tem	-11.4501
▁boss	-11.4505
press	-11.4506
▁telecom	-11.4507
ification	-11.4509
heme	-11.4509
▁signup	-11.451
lyt	-11.4521
change	-11.4523
mmex	-11.4523
swt	-11.4525
▁impeachment	-11.4527
▁carbon	-11.4529
▁korea	-11.4532
sti	-11.4532
▁bancshares	-11.4533
4.6	-11.4538
bill	-11.4543
▁(14	-11.4543
▁van	-11.4548
xrb	-11.4549
▁americans	-11.4551
>>>	-11.4553
usual	-11.4555
5.4	-11.4557
▁giants	-11.4558
dusk	-11.4558
bird	-11.4558
200%	-11.456
▁written	-11.456
3,000	-11.4565
▁witness	-11.4566
cse	-11.4569
mur	-11.457
tool	-11.4572
xli	-11.4572
eil	-11.4579
wanted	-11.4581
▁thurs	-11.4584
arc	-11.4586
▁incorporated	-11.4586
▁regret	-11.4586
▁ladies	-11.4586
bound	-11.4587
sprwf	-11.4587
▁4000	-11.4588
▁grateful	-11.4589
7.1%	-11.459
▁membership	-11.4591
quiz	-11.4593
▁underway	-11.4594
benz	-11.4601
sqm	-11.4602
ify	-11.4604
▁wtf	-11.4604
▁12,	-11.4608
▁strongest	-11.4609
▁2-3	-11.461
eog	-11.4613
xst	-11.4617
avya	-11.4617
▁holder	-11.4622
hips	-11.4626
santa	-11.4629
75%	-11.4632
current	-11.4638
▁meme	-11.4638
download	-11.464
▁row	-11.4643
▁honey	-11.4644
▁dude	-11.4648
▁rid	-11.4649
▁entering	-11.4653
suti	-11.4658
tyx	-11.4664
immu	-11.467
xmd	-11.4674
▁forum	-11.4677
▁yen	-11.4678
shift	-11.4678
0.7%	-11.468
-2019	-11.468
ua	-11.4682
▁financing	-11.4684
▁fish	-11.4691
▁pray	-11.4698
vio	-11.4706
.75	-11.4707
page	-11.471
ioc	-11.471
addict	-11.4711
messenger	-11.4714
▁ridiculous	-11.4714
nikkei	-11.4715
▁alternative	-11.4715
▁express	-11.4715
whitepaper	-11.4716
▁hodlers	-11.4716
▁trendline	-11.4718
▁rated	-11.4719
▁sweep	-11.4719
▁mistake	-11.472
▁staffer	-11.4721
▁fomo	-11.4721
▁measure	-11.4722
iii	-11.4724
.70	-11.4724
highcap	-11.4725
▁headline	-11.4726
stuck	-11.4726
wright	-11.4727
▁fin	-11.4728
▁valley	-11.4729
tells	-11.4732
▁55%	-11.4733
ole	-11.4734
▁savings	-11.4735
cream	-11.4736
▁extended	-11.4738
▁skill	-11.4739
▁2012	-11.4742
▁confirms	-11.4742
zel	-11.4743
▁bankruptcy	-11.4743
matt	-11.4748
▁passed	-11.4751
▁timeline	-11.4756
▁declines	-11.4756
bfg	-11.4764
reverse	-11.4769
dag	-11.4775
▁greatly	-11.4777
▁title	-11.478
wst	-11.4783
▁views	-11.4785
?⚡	-11.4788
616	-11.479
float	-11.4796
look	-11.4797
unt	-11.4799
cxi	-11.4799
jr	-11.4802
picks	-11.4808
rare	-11.4812
▁foods	-11.4817
82%	-11.4821
aly	-11.4821
▁pizza	-11.4825
▁intra	-11.4826
jun	-11.4828
penn	-11.483
arious	-11.483
arch	-11.4836
111	-11.484
anss	-11.4842
kirill	-11.4844
▁cruise	-11.4844
lottery	-11.4844
cronos	-11.4844
▁summit	-11.4845
▁improving	-11.4845
nuclear	-11.4845
▁agency	-11.4845
▁entries	-11.4845
▁desk	-11.4846
viral	-11.4846
hydro	-11.4846
▁slightly	-11.4847
natgas	-11.4847
een	-11.4847
altszn	-11.4847
service	-11.4851
▁dai	-11.4853
2.3%	-11.4856
orc	-11.4857
▁emergency	-11.4858
▁independent	-11.4858
.28	-11.4859
vape	-11.486
jeff	-11.4862
hubs	-11.4863
▁beating	-11.4865
aker	-11.4866
aldr	-11.4868
▁constellation	-11.4869
▁wishes	-11.487
abo	-11.4871
▁timing	-11.4876
$100	-11.4876
▁bitmex	-11.4886
▁bridge	-11.4889
awsm	-11.4891
115	-11.4891
xop	-11.4894
▁500000	-11.4894
nole	-11.4895
.78%	-11.4896
alvin	-11.4899
▁judge	-11.4899
wealth	-11.4899
2.8%	-11.49
army	-11.4901
▁ecb	-11.4914
▁units	-11.4915
▁femdom	-11.4917
▁voice	-11.492
▁8%	-11.4921
142	-11.4925
▁bright	-11.4929
dai	-11.4933
altria	-11.4934
fxc	-11.4934
▁(-0.1	-11.4942
▁label	-11.4945
jack	-11.4945
▁aware	-11.4946
▁harm	-11.495
▁spreads	-11.4955
vg	-11.4956
);	-11.4957
intelligence	-11.4957
▁rough	-11.4957
▁thu	-11.4959
strategy	-11.496
▁reminds	-11.4961
rmb	-11.4963
.96%	-11.4964
success	-11.4971
▁15,	-11.4971
biggest	-11.4973
▁reflect	-11.4976
▁gambiste	-11.4976
▁cramer	-11.4976
▁norway	-11.4976
▁scheme	-11.4977
▁hardware	-11.4978
▁deadline	-11.4978
asmb	-11.4979
▁admit	-11.4979
▁haters	-11.498
trp	-11.4982
brave	-11.4982
▁6,	-11.4987
betr	-11.4989
▁require	-11.499
▁admin	-11.4992
▁mtg	-11.4993
▁!!????	-11.4995
▁-13%	-11.4999
230	-11.5
▁personally	-11.5002
▁49%	-11.5003
holding	-11.5004
▁8500	-11.5007
small	-11.5008
200,000,000	-11.5011
▁horizon	-11.5013
▁dreams	-11.5014
vite	-11.5015
8.00	-11.502
bur	-11.5022
bps	-11.5022
▁500,000	-11.5023
nom	-11.5029
then	-11.5032
keep	-11.5034
loop	-11.5035
ology	-11.504
itae	-11.5041
nering	-11.5043
▁surges	-11.5045
wco	-11.5045
6%)	-11.5047
shale	-11.5047
eli	-11.5055
lci	-11.5064
▁spa	-11.5066
hyp	-11.507
nor	-11.5071
aig	-11.5072
cth	-11.5073
cw	-11.5076
▁switch	-11.5079
▁cook	-11.508
▁messages	-11.508
▁tnr	-11.5081
ddie	-11.5085
▁dms	-11.5088
▁(-0.3	-11.5089
ethos	-11.509
▁submit	-11.5091
poli	-11.51
rads	-11.5102
▁exact	-11.5106
▁maintain	-11.5107
distribute	-11.5108
xtreme	-11.5108
switzerland	-11.5109
▁suisse	-11.5109
▁begun	-11.5109
vwap	-11.5111
crudeoil	-11.5112
▁owning	-11.5115
▁cuz	-11.512
cep	-11.5121
▁motor	-11.5125
▁intelligence	-11.5128
fomc	-11.5128
1.3%	-11.5129
3)	-11.513
myst	-11.5131
shock	-11.5132
▁sites	-11.5133
paypigs	-11.5136
▁reiterate	-11.5136
▁treasury	-11.5137
▁expands	-11.5139
▁loves	-11.514
ntnx	-11.5145
potn	-11.5146
▁demo	-11.5147
ics	-11.5151
ollar	-11.5154
▁ki	-11.5161
ind	-11.5167
▁(3	-11.5167
.06%	-11.5168
▁.02	-11.5168
lph	-11.5177
ups	-11.5189
label	-11.5189
▁tested	-11.5194
redit	-11.5206
▁pig	-11.521
luc	-11.5211
▁destroy	-11.5214
mpr	-11.5219
▁west	-11.522
ric	-11.5227
▁backing	-11.5228
9.00	-11.5228
rail	-11.5228
▁bmo	-11.5229
taylor	-11.5231
micro	-11.5232
▁lovely	-11.5232
bas	-11.5233
7.50	-11.5233
▁$35	-11.5235
egap	-11.5238
military	-11.5244
▁bonnie	-11.5244
⚡⚡⚡⚡	-11.5244
ithuf	-11.5244
bldp	-11.5245
hybrid	-11.5245
▁damage	-11.5245
frozen	-11.5246
thanks	-11.5247
,"	-11.5252
6.4%	-11.5252
pants	-11.5256
ski	-11.5262
surg	-11.5262
▁credits	-11.5267
▁150,000	-11.527
▁sprint	-11.5271
▁5-	-11.5272
bpth	-11.5274
▁produced	-11.5275
hv	-11.5277
▁soul	-11.5278
gain	-11.5279
rain	-11.5282
nec	-11.5282
6.00	-11.5282
hma	-11.5283
▁tautachrome	-11.5286
▁mental	-11.529
swap	-11.5292
▁kinda	-11.5296
paso	-11.5297
alny	-11.5298
slots	-11.53
sqqq	-11.5302
▁tue	-11.5305
driving	-11.531
volume	-11.5311
val	-11.5311
▁flying	-11.5311
cancer	-11.5311
▁fork	-11.5312
metals	-11.5312
bbr	-11.5313
▁xmas	-11.5319
hrw	-11.5319
dick	-11.5321
fold	-11.5324
uz	-11.5325
▁$17	-11.5328
marie	-11.5329
▁magic	-11.5334
▁integrations	-11.534
addy	-11.5348
▁kik	-11.535
▁tap	-11.5351
2.9	-11.5351
scammer	-11.5357
▁transparency	-11.5359
▁14,	-11.5359
edr	-11.536
▁dealing	-11.5362
din	-11.5369
▁sponsor	-11.5371
▁typical	-11.5376
fn	-11.5377
smallcaps	-11.538
▁conservative	-11.5381
▁hidden	-11.5381
▁scenario	-11.5381
▁husband	-11.5381
cashcow	-11.5382
panshi	-11.5382
clyde	-11.5382
bonz	-11.5383
▁profitability	-11.5383
+86%	-11.5384
▁buckle	-11.5384
▁anywhere	-11.5386
▁dem	-11.5388
mdco	-11.5388
▁developments	-11.5389
▁debit	-11.539
hor	-11.539
bchabc	-11.539
▁remind	-11.5391
▁shame	-11.5394
mpq	-11.5394
65%	-11.5395
??✨	-11.54
▁alot	-11.5404
andy	-11.5404
▁concept	-11.5405
▁whales	-11.541
stmp	-11.5412
ryo	-11.5414
▁pickup	-11.5421
2.1%	-11.5432
▁rivals	-11.5434
▁dad	-11.5438
▁century	-11.5438
divi	-11.5439
myo	-11.5442
▁career	-11.5442
colx	-11.5442
▁trash	-11.5445
dam	-11.5448
und	-11.5448
▁sleeping	-11.5449
-9	-11.5451
▁cuba	-11.5451
1.1%	-11.5452
pall	-11.5455
want	-11.5461
▁bday	-11.5461
never	-11.5463
myd	-11.5463
▁individuals	-11.5464
▁counts	-11.5466
dlx	-11.5473
lady	-11.5473
▁san	-11.5473
kkr	-11.5477
rating	-11.5477
germany	-11.5477
▁(-1	-11.5477
▁uses	-11.5479
▁val	-11.5479
▁tracking	-11.548
hop	-11.5485
▁2020?	-11.5485
▁cos	-11.5485
▁bloomberg	-11.5485
europe	-11.5486
▁crush	-11.5491
friend	-11.5493
▁drain	-11.5497
stamp	-11.55
1%	-11.5501
ram	-11.5502
said	-11.5502
▁alex	-11.5506
streaming	-11.5507
▁temp	-11.5512
▁chop	-11.5516
platinum	-11.552
▁gerpang	-11.552
computing	-11.552
taycan	-11.552
▁competitive	-11.552
ponzi	-11.552
deflationary	-11.552
metaverse	-11.552
flarewallet	-11.5521
▁midnight	-11.5521
▁suntrust	-11.5521
▁activis	-11.5521
anchor	-11.5521
ised	-11.5522
▁regulatory	-11.5523
▁dangerous	-11.5524
secure	-11.5525
bezos	-11.5526
▁premier	-11.5526
▁surpassed	-11.5527
steel	-11.5528
uthr	-11.5528
▁quit	-11.5535
fmcc	-11.5536
▁candidate	-11.5537
▁tool	-11.5546
▁pumps	-11.5547
▁spare	-11.5556
▁brokers	-11.5557
marijuanastock	-11.5558
bac	-11.556
▁dragon	-11.556
▁crown	-11.556
▁jumps	-11.5562
▁declined	-11.5565
rell	-11.5566
adv	-11.5575
1.5%	-11.5576
▁thankful	-11.5576
uct	-11.5584
eros	-11.5584
340	-11.5595
rzo	-11.5596
chat	-11.5599
▁talked	-11.5601
season	-11.5601
▁emerging	-11.5606
sam	-11.5607
nm	-11.561
▁0.06	-11.5615
wal	-11.5615
.60	-11.5616
kan	-11.5617
▁firms	-11.5619
▁drag	-11.562
▁retweeting	-11.5622
dk	-11.5622
economic	-11.5623
sjm	-11.5625
(5	-11.5631
nan	-11.5635
▁whose	-11.5644
.49	-11.5645
1.0%	-11.5647
▁honor	-11.5648
banco	-11.5653
sidents	-11.5657
diabetes	-11.5661
▁miracle	-11.5661
▁identified	-11.5661
gnition	-11.5661
league	-11.5661
▁24/7	-11.5661
▁sample	-11.5661
▁nonsense	-11.5661
▁ultra	-11.5662
footfetish	-11.5662
▁completion	-11.5663
cashpig	-11.5663
brew	-11.5664
▁---	-11.5664
▁chesapeake	-11.5666
nktr	-11.5667
▁town	-11.5667
premium	-11.5667
lnk	-11.5668
resources	-11.5669
▁8300	-11.567
level	-11.5671
▁galaxy	-11.5676
▁currencies	-11.5679
aylor	-11.5679
▁dtc	-11.5681
summon	-11.5683
ubi	-11.5689
▁integrate	-11.569
▁bullrun	-11.5694
▁theory	-11.5695
espn	-11.5695
nlg	-11.5698
▁facing	-11.5701
zni	-11.5702
fusion	-11.5702
sponsors	-11.5704
▁pos	-11.5705
▁aggressive	-11.5705
▁seed	-11.5705
ziop	-11.5707
tronlink	-11.5711
▁-27%	-11.5714
▁rain	-11.5717
nder	-11.5724
als	-11.5726
exist	-11.5727
▁gang	-11.5728
▁#❤	-11.5729
▁motherf	-11.5731
3%)	-11.5733
▁saved	-11.5737
▁forgot	-11.5737
rku	-11.5738
grow	-11.5738
mex	-11.5739
225	-11.5741
syf	-11.5744
erj	-11.5744
▁citizens	-11.5749
orn	-11.5755
tslaq	-11.5756
▁13%	-11.5757
0.11	-11.5757
print	-11.5758
▁recover	-11.5764
mcoa	-11.5765
2.20	-11.5769
hless	-11.5778
xmg	-11.5779
0.18	-11.578
▁metal	-11.5781
▁vice	-11.5781
▁18,	-11.5783
mod	-11.5784
affiliate	-11.5787
▁generate	-11.5787
ollym	-11.5788
▁$1.5	-11.5791
lies	-11.5793
▁sexy	-11.5796
.24%	-11.5798
pays	-11.58
▁$1.00	-11.5801
▁behavior	-11.5804
▁incredibly	-11.5804
washington	-11.5804
icymi	-11.5804
ftxp	-11.5804
kshb	-11.5804
dapsfam	-11.5805
▁prevent	-11.5805
mindset	-11.5805
cross	-11.5805
▁bashers	-11.5805
suggestions	-11.5806
▁israel	-11.5806
airdrophunter	-11.5806
▁11:00	-11.5807
veri	-11.5807
southern	-11.5807
▁saas	-11.5807
▁broadcast	-11.5808
▁contrast	-11.5809
▁batteries	-11.5809
▁honestly	-11.581
▁recall	-11.5811
▁hotels	-11.5812
▁dates	-11.5814
▁pin	-11.5814
▁donating	-11.5814
▁gear	-11.5815
.28%	-11.5816
▁%23	-11.582
1.2%	-11.582
▁formation	-11.5821
mso	-11.5824
▁associate	-11.5825
uneq	-11.5828
grid	-11.5831
▁awarded	-11.5832
▁noise	-11.5833
miss	-11.5836
▁2013	-11.5838
▁improved	-11.5839
147	-11.5841
4.8%	-11.5841
apro	-11.5841
▁marketcap	-11.5843
edly	-11.5845
lthm	-11.5846
berg	-11.5849
bxk	-11.5849
history	-11.585
moab	-11.5851
▁alibaba	-11.5857
trending	-11.5858
yh	-11.5858
▁gun	-11.5863
▁cleared	-11.5866
deco	-11.5867
stt	-11.5871
nak	-11.5872
aph	-11.5879
.57%	-11.5881
▁standing	-11.5882
▁signing	-11.5884
amba	-11.5885
▁llp	-11.5885
▁promises	-11.5886
ano	-11.5886
▁wipe	-11.5891
▁officers	-11.5893
nne	-11.5893
promo	-11.59
▁(-0.2	-11.5903
draw	-11.5906
cover	-11.5912
ibi	-11.5914
haven	-11.5915
ect	-11.5916
350	-11.5918
semi	-11.5919
ches	-11.5919
nny	-11.5924
gal	-11.5924
pass	-11.5925
tters	-11.5929
▁acts	-11.5932
▁200,000	-11.5936
▁reits	-11.5937
.44	-11.594
▁default	-11.594
erry	-11.5942
nax	-11.5945
▁kit	-11.5947
▁recognize	-11.5948
▁accumulating	-11.5949
▁consecutive	-11.5949
chiliz	-11.5949
▁initiative	-11.5949
ebonydomme	-11.5949
benson	-11.5949
▁nigga	-11.5949
nsfw	-11.5951
humanity	-11.5952
▁execution	-11.5952
▁speaks	-11.5954
▁feeless	-11.5955
▁franc	-11.5956
vayla	-11.5958
ize	-11.596
▁loved	-11.5961
▁rekt	-11.5962
▁dems	-11.5963
▁semiconductor	-11.5967
paris	-11.5968
pill	-11.5969
opk	-11.597
royal	-11.5975
▁gmt	-11.5981
▁kicked	-11.5981
▁dominate	-11.5982
rbo	-11.5984
eimer	-11.5984
▁alpha	-11.5984
33%	-11.5984
▁indicate	-11.5985
▁uncle	-11.5986
services	-11.5986
▁37	-11.5986
▁miner	-11.5988
bitcoinnews	-11.599
20%	-11.5991
breakfast	-11.5992
corrupted	-11.5995
vic	-11.5995
▁$700	-11.5996
mnst	-11.601
round	-11.6018
▁8/1	-11.6021
8%)	-11.6026
innovation	-11.6026
▁efficient	-11.6027
▁16,	-11.6027
▁.05	-11.6032
➡	-11.6036
“	-11.6038
gui	-11.604
aj	-11.6043
bee	-11.6044
▁toward	-11.605
ida	-11.6057
▁headlines	-11.6067
▁tributes	-11.6073
ldc	-11.6078
365	-11.6079
▁alaska	-11.6079
nodes	-11.6082
nmr	-11.6085
flash	-11.6085
spec	-11.6085
▁-8.	-11.609
▁positioned	-11.6091
▁decades	-11.6092
4.3%	-11.6092
holdings	-11.6096
coinmarketcap	-11.6096
mentalhealth	-11.6096
▁legacy	-11.6096
oppenh	-11.6096
▁shooting	-11.6096
▁assistance	-11.6096
▁haha	-11.6096
ele	-11.6096
wireless	-11.6097
▁deployment	-11.6097
▁compensation	-11.6097
▁smooth	-11.6097
▁trick	-11.6098
ignis	-11.6098
addiction	-11.6098
nuke	-11.61
▁priv	-11.6102
▁[$	-11.6103
guard	-11.6103
▁unusually	-11.6106
brid	-11.611
▁?????????????	-11.611
▁connected	-11.6118
yfs	-11.6118
▁institutions	-11.6121
disaster	-11.6127
lgd	-11.6133
paas	-11.6134
idy	-11.6137
▁jp	-11.614
nls	-11.6141
ose	-11.6142
▁inventory	-11.6142
72%	-11.6143
ainty	-11.6145
▁+6	-11.6151
six	-11.6152
5000000	-11.6155
phi	-11.6158
hbi	-11.6159
instar	-11.616
prb	-11.6162
zla	-11.6163
size	-11.6165
▁pulled	-11.6166
wsn	-11.6168
▁20000	-11.6169
williams	-11.6173
spin	-11.6178
165	-11.6184
▁drilling	-11.6184
▁fam	-11.6185
▁soar	-11.6186
▁19,	-11.6189
bla	-11.619
127	-11.6191
▁union	-11.6192
▁25,	-11.6194
▁engagement	-11.6195
ldv	-11.6201
rge	-11.6203
icles	-11.6204
rnva	-11.6205
▁19.	-11.6207
▁indicat	-11.6212
▁36	-11.6212
▁heat	-11.6218
▁comcast	-11.622
15.04	-11.6221
virus	-11.6221
competition	-11.6224
!!?	-11.6224
–	-11.6224
6,000	-11.6227
anti	-11.6227
radar	-11.6227
hq	-11.6228
etfs	-11.6228
pyx	-11.6232
▁changer	-11.6233
actor	-11.6234
nite	-11.6235
▁-7	-11.6235
▁ability	-11.6238
cryptoexchange	-11.6239
▁lease	-11.6242
nuff	-11.6243
huawei	-11.6245
▁heavily	-11.6245
ptoy	-11.6245
▁chapter	-11.6245
▁afraid	-11.6245
▁hillary	-11.6245
▁flood	-11.6245
▁chicken	-11.6246
disneyplus	-11.6246
unicorn	-11.6246
realestate	-11.6246
▁indices	-11.6247
herry	-11.6248
vaping	-11.6248
▁debut	-11.6248
▁activated	-11.6249
▁backed	-11.625
bimi	-11.6251
▁chasing	-11.6255
▁exhibits	-11.6257
software	-11.6258
▁scared	-11.626
booty	-11.6262
roughly	-11.6262
plnt	-11.6265
▁inverse	-11.6268
▁location	-11.6273
uzi	-11.6276
ago	-11.6287
little	-11.6288
▁nodes	-11.629
▁cable	-11.6293
5.2%	-11.6296
bsx	-11.6303
jpm	-11.6305
▁biopharma	-11.6306
jdst	-11.6315
ori	-11.6316
grp	-11.6317
▁leads	-11.6318
zt	-11.6322
▁gems	-11.6326
ension	-11.6326
systems	-11.6328
tss	-11.633
edn	-11.6332
???????????	-11.6339
sup	-11.6347
position	-11.6355
divs	-11.6357
lovers	-11.6358
naf	-11.6362
cac	-11.6384
1,000	-11.6385
▁✨?	-11.6385
▁tea	-11.6387
▁candles	-11.6389
!!!!???	-11.6391
pek	-11.6395
▁queen	-11.6396
▁airlines	-11.6396
columbia	-11.6397
stakecube	-11.6397
tradetalks	-11.6397
▁featuring	-11.6397
▁commence	-11.6397
▁buddy	-11.6397
cctip	-11.6399
▁smell	-11.6401
mono	-11.6401
▁display	-11.6401
mdr	-11.6401
ehth	-11.6402
▁eligible	-11.6403
carboncredit	-11.6405
▁dcgd	-11.6408
▁gaining	-11.6413
▁parking	-11.6413
treason	-11.6414
moneyflow	-11.6415
7.6%	-11.642
dging	-11.6421
mreo	-11.6424
▁greedy	-11.6425
donate	-11.6425
64%	-11.6426
awi	-11.6428
▁explained	-11.6429
nxpi	-11.6431
▁therapy	-11.6434
▁trim	-11.6434
yor	-11.6434
850	-11.6437
asy	-11.6441
▁usage	-11.6442
foxa	-11.6442
▁targeting	-11.6446
sats	-11.6447
sina	-11.6447
mlp	-11.645
fect	-11.645
eac	-11.6451
▁specific	-11.6454
ndi	-11.6455
▁probe	-11.6458
fest	-11.6459
eff	-11.6462
agged	-11.6468
▁prepar	-11.647
drain	-11.6472
!"	-11.6472
microcaps	-11.6474
▁longest	-11.6474
anet	-11.6477
93%	-11.6481
ave	-11.6482
vu	-11.6482
bj	-11.6483
log	-11.6488
150%	-11.6489
▁"#	-11.6489
5.9%	-11.649
▁55	-11.649
vd	-11.6492
▁understanding	-11.6492
▁160	-11.6493
4.1%	-11.6496
rump	-11.6496
▁slide	-11.6497
llit	-11.6499
▁daimler	-11.6499
▁tour	-11.6499
▁compar	-11.6507
electric	-11.6509
predicts	-11.651
.37%	-11.6511
nothing	-11.6513
rdus	-11.6513
hai	-11.6514
▁reso	-11.6518
creator	-11.6524
fuck	-11.6524
gis	-11.6525
aro	-11.6526
dmme	-11.653
▁extreme	-11.653
reli	-11.6531
night	-11.6533
ought	-11.6535
rem	-11.6537
▁hammer	-11.6537
........	-11.6539
dividends	-11.6542
▁nail	-11.6542
panda	-11.6545
ebony	-11.655
inclusion	-11.6551
▁appointment	-11.6551
psychology	-11.6551
▁surface	-11.6551
▁faith	-11.6551
tuesday	-11.6551
bwtf	-11.6551
urgent	-11.6551
mexico	-11.6552
gadget	-11.6552
▁2000000	-11.6553
▁dry	-11.6554
▁humans	-11.6555
barely	-11.6555
▁titan	-11.6555
▁met	-11.6556
casinocoin	-11.6557
▁obviously	-11.6557
▁dan	-11.6557
tell	-11.6557
▁widely	-11.6559
skype	-11.6559
sale	-11.656
lng	-11.6561
▁spots	-11.6561
▁compound	-11.6561
▁sister	-11.6562
▁cities	-11.6562
eyeg	-11.6563
▁physical	-11.6564
atx	-11.6567
▁solo	-11.657
▁(~$9	-11.657
photo	-11.6572
7.5%	-11.6573
1/4	-11.6574
psx	-11.6574
election	-11.6575
▁began	-11.6576
▁achieved	-11.6576
▁thesis	-11.6577
▁patented	-11.6577
crowdfund	-11.6579
wish	-11.658
pivots	-11.6583
each	-11.6583
▁qtr	-11.6583
▁satoshis	-11.6585
dly	-11.6587
cheer	-11.6587
cost	-11.6592
▁performances	-11.6593
0:	-11.6593
feb	-11.6598
paper	-11.6599
0.14	-11.66
▁1.0	-11.6603
ream	-11.6605
▁57%	-11.6605
▁fade	-11.6605
1.25	-11.6605
▁timeframes	-11.6606
gigafactory	-11.6607
swav	-11.6609
instant	-11.6614
kmx	-11.662
▁verb	-11.6621
▁initiate	-11.6621
united	-11.6623
while	-11.6625
korea	-11.6629
/8	-11.6634
pie	-11.6634
fully	-11.6637
▁girls	-11.6639
▁.001	-11.664
continu	-11.6641
kat	-11.6641
alised	-11.6641
▁1-2	-11.6643
4.4%	-11.6654
squad	-11.6654
▁stepp	-11.6654
146	-11.666
cph	-11.6661
true	-11.6661
pal	-11.6668
▁9:	-11.6668
▁africa	-11.6669
grade	-11.6672
kim	-11.6677
teau	-11.668
▁calculated	-11.6681
mgi	-11.6684
raw	-11.6685
bsd	-11.6685
▁drill	-11.669
▁approve	-11.669
▁vitex	-11.6692
8,000	-11.6692
stockpicks	-11.6696
▁fib	-11.6701
hmn	-11.6706
automotive	-11.6707
chipotle	-11.6707
dapsiscoming	-11.6707
▁jaffray	-11.6707
▁transplant	-11.6707
▁senator	-11.6707
bitcorn	-11.6707
callistonetwork	-11.6707
▁atleast	-11.6707
script	-11.6708
antitrust	-11.6709
▁checking	-11.6709
▁ebitda	-11.671
▁backlog	-11.6711
▁advisory	-11.6711
▁rapidly	-11.6715
boys	-11.6715
▁approx	-11.6716
▁reaffirmed	-11.6717
horse	-11.6718
liq	-11.6721
did	-11.6721
aft	-11.6722
▁newest	-11.6724
steemit	-11.6725
sse	-11.6726
▁bln	-11.6731
▁50$	-11.6731
▁royal	-11.6732
gsx	-11.6732
paul	-11.6733
nwc	-11.6733
▁54%	-11.6736
▁47%	-11.6741
icipant	-11.6742
▁hulu	-11.6742
aex	-11.6743
democrats	-11.6744
▁checkout	-11.6744
prop	-11.6745
ivv	-11.6746
▁hole	-11.6746
ssss	-11.6747
reo	-11.6753
xall	-11.6758
ifs	-11.676
▁lying	-11.6763
▁discussing	-11.6765
?~	-11.6767
▁yellow	-11.6769
hall	-11.6771
▁deck	-11.6773
▁17,	-11.6777
▁drink	-11.678
.04%	-11.6781
▁140	-11.6781
lqm	-11.6788
▁provider	-11.6789
city	-11.679
▁??????????	-11.6791
mck	-11.6792
pets	-11.6796
rmf	-11.6798
nbl	-11.68
▁mike	-11.6803
mue	-11.6807
netflix	-11.6807
▁webinar	-11.6808
snmn	-11.6808
close	-11.6813
beta	-11.6813
boot	-11.6816
▁21,	-11.6818
9%)	-11.6819
zer	-11.6819
▁18.	-11.6821
yler	-11.6821
nudes	-11.6827
▁steal	-11.683
hype	-11.6831
▁bus	-11.6831
cme	-11.6835
document	-11.6836
7.8%	-11.6839
view	-11.6844
ool	-11.6847
0.9%	-11.6858
awn	-11.6859
ional	-11.686
▁bye	-11.6862
▁refer	-11.6862
▁loyal	-11.6865
▁retrace	-11.6865
.99%	-11.6865
compliance	-11.6866
▁horrifying	-11.6866
▁structural	-11.6866
deribot	-11.6866
fantasy	-11.6866
robotics	-11.6866
▁located	-11.6866
▁complex	-11.6866
▁pennies	-11.6866
toyota	-11.6866
▁bowl	-11.6866
.07%	-11.6867
▁traditional	-11.6867
unknown	-11.6867
▁established	-11.6868
▁fellow	-11.6869
rshn	-11.6869
▁depot	-11.687
gosh	-11.6871
144	-11.6871
zar	-11.6871
▁areas	-11.6872
▁101-	-11.6878
fsd	-11.6882
amfe	-11.6882
▁river	-11.6883
leon	-11.6883
▁placed	-11.6884
▁minor	-11.6885
▁scalability	-11.6886
,000,000	-11.6888
aims	-11.6889
▁upset	-11.6889
136	-11.6892
border	-11.6893
▁engineering	-11.6894
ssof	-11.6898
ece	-11.6898
blu	-11.6899
3.3%	-11.69
opper	-11.69
▁roadmap	-11.69
uplist	-11.6902
330	-11.6902
▁condition	-11.6903
nie	-11.6904
▁county	-11.6905
▁chips	-11.6906
asset	-11.6908
▁requests	-11.6908
▁advisors	-11.6911
▁beginner	-11.6915
▁evp	-11.6918
-----	-11.692
▁journal	-11.6923
gyp	-11.6924
wmc	-11.6925
▁lift	-11.6927
ding	-11.6929
▁bots	-11.6933
btcp	-11.6935
▁processing	-11.6938
▁(~$1.	-11.6939
▁1-100	-11.6939
nice	-11.6941
/16	-11.6942
canna	-11.6943
drone	-11.6944
100,000	-11.6945
▁aid	-11.6945
▁scott	-11.6946
fomo	-11.6951
▁compare	-11.6953
,#	-11.6955
ivb	-11.6956
boycott	-11.6959
▁creative	-11.6959
markt	-11.696
van	-11.6961
fred	-11.6964
gz	-11.6967
▁react	-11.6973
▁retweeted	-11.6977
brl	-11.6981
2.2%	-11.6981
▁(-0.0	-11.6985
sint	-11.6986
▁shine	-11.699
▁advise	-11.6994
isa	-11.7001
advice	-11.7007
analytics	-11.701
legit	-11.701
safety	-11.7013
▁turkey	-11.7014
▁29,	-11.7015
▁fashion	-11.7017
▁australia	-11.7017
▁gates	-11.7018
dont	-11.7018
▁??#	-11.7018
▁hol	-11.7019
▁geo	-11.702
fti	-11.702
▁algorithm	-11.7021
thc	-11.7022
▁traffic	-11.7025
▁execut	-11.7026
▁taliyah	-11.7027
▁activities	-11.7027
▁interface	-11.7027
▁jersey	-11.7027
▁operator	-11.7027
▁struggle	-11.7027
▁volatile	-11.7027
blackboxstocks	-11.7027
▁charles	-11.7027
hrvsf	-11.7027
icattentiontoken	-11.7027
▁$1700)	-11.7027
alliance	-11.7027
▁division	-11.7028
▁quietly	-11.703
ozsc	-11.7031
▁drugs	-11.7032
▁protection	-11.7032
aka	-11.7032
▁overweight	-11.7032
ptn	-11.7034
▁ty	-11.7034
bw	-11.7036
tru	-11.7037
trm	-11.7039
poker	-11.704
tce	-11.704
lii	-11.7041
urr	-11.7041
▁fears	-11.7041
phun	-11.7042
▁amounts	-11.7043
pack	-11.7045
7.00	-11.7046
intv	-11.7047
▁restaurant	-11.7049
▁expose	-11.7051
ben	-11.7051
lls	-11.7053
rkda	-11.7055
lmc	-11.7056
▁dog	-11.7059
▁derivatives	-11.7065
▁bout	-11.7069
zcash	-11.7071
sage	-11.7071
▁glazers	-11.7071
▁ubs	-11.7072
5.6%	-11.7075
▁rocky	-11.7077
connection	-11.7077
move	-11.7078
lyb	-11.7081
200+	-11.7082
mfg	-11.7084
2.1	-11.7084
xxii	-11.7086
▁stellar	-11.7087
deep	-11.7088
104	-11.7089
▁sustainable	-11.7089
ther	-11.7092
awk	-11.7097
shipping	-11.7098
▁instructions	-11.7103
▁upward	-11.7106
tor	-11.7108
iconic	-11.7111
indi	-11.7113
pah	-11.7113
ials	-11.7115
0.8%	-11.7115
ppg	-11.712
0,000,000	-11.7124
$$$	-11.713
abm	-11.7132
honey	-11.7137
eler	-11.714
▁skin	-11.7147
▁tomo	-11.7147
▁age	-11.715
▁unfo	-11.7151
gxc	-11.7151
▁26,	-11.7157
arrr	-11.7164
regulation	-11.7165
competitor	-11.7165
.44%	-11.7165
ned	-11.7165
20000000	-11.7166
▁peace	-11.7167
mcs	-11.7169
product	-11.717
mont	-11.717
▁settle	-11.7171
▁retire	-11.7173
▁$70	-11.7175
▁cow	-11.7175
publish	-11.7177
140	-11.7177
▁unlock	-11.7178
235	-11.7178
▁classic	-11.7179
ered	-11.7181
▁-5.	-11.7183
nvidia	-11.7191
▁functions	-11.7191
▁juicy	-11.7191
language	-11.7191
tothemoon	-11.7191
vietnam	-11.7191
▁celebration	-11.7191
halving	-11.7191
mtc	-11.7191
▁prison	-11.7191
quantum	-11.7192
▁log	-11.7192
swir	-11.7192
spotify	-11.7192
▁calvinbensonn	-11.7193
ftsv	-11.7193
gteh	-11.7194
▁(+1	-11.7194
sftby	-11.7194
▁stolen	-11.7195
6.1%	-11.7196
hbor	-11.7197
▁88%	-11.7199
▁faces	-11.7202
▁goodnight	-11.7202
contribution	-11.7202
arex	-11.7203
▁lord	-11.7205
▁places	-11.7206
▁etfs	-11.7208
oas	-11.721
▁yep	-11.7211
iming	-11.7215
9.5	-11.722
▁explorer	-11.722
▁proper	-11.722
109	-11.7222
▁capex	-11.7224
case	-11.7224
aux	-11.7231
▁factor	-11.7235
10.00	-11.7237
vax	-11.7241
▁automated	-11.7241
▁george	-11.7241
▁disrupt	-11.7243
ison	-11.7243
blog	-11.7246
hunt	-11.7246
▁considered	-11.7247
▁notification	-11.7247
5.7%	-11.725
rbp	-11.7251
atp	-11.7251
▁sciences	-11.7253
▁justice	-11.7253
▁halt	-11.7255
▁tit	-11.726
118	-11.7261
157	-11.7263
eurs	-11.7271
four	-11.7273
sharing	-11.7274
▁troy	-11.7275
215	-11.7276
elect	-11.7279
licensed	-11.7282
▁dish	-11.7283
1.20	-11.7286
unit	-11.7291
dark	-11.7294
0.01	-11.7296
reply	-11.73
.95%	-11.7301
168	-11.7303
sex	-11.7304
▁2/	-11.7313
fmc	-11.7317
mpi	-11.7317
1.6%	-11.7321
teacher	-11.7322
▁packs	-11.7323
▁scores	-11.7323
▁nor	-11.7323
▁4,	-11.7325
▁explore	-11.7325
isee	-11.7325
eh	-11.7326
ello	-11.7326
▁$45	-11.7332
saving	-11.7332
faf	-11.7334
band	-11.7335
ria	-11.7339
modely	-11.7341
▁park	-11.7347
▁interactive	-11.7347
sid	-11.7347
▁shitcoin	-11.7349
surveillance	-11.7357
venezuela	-11.7357
▁definitive	-11.7357
censorship	-11.7357
▁scaling	-11.7358
oncology	-11.7358
obln	-11.7358
▁preferred	-11.7358
humiliation	-11.7358
▁repair	-11.7359
▁pitch	-11.7359
btfs	-11.7359
arabia	-11.736
▁finra	-11.7362
soc	-11.7362
bfch	-11.7363
wor	-11.7366
▁crop	-11.7366
java	-11.7366
▁sink	-11.7369
▁atm	-11.7373
aby	-11.7376
autopilot	-11.7376
▁calm	-11.7378
▁berkshire	-11.7379
▁elliott	-11.7379
mkts	-11.738
collection	-11.7383
xrx	-11.7384
endo	-11.7387
▁shout	-11.7394
▁lending	-11.7394
▁revolutionary	-11.7394
acrgf	-11.7396
bntx	-11.7396
▁scare	-11.7398
rry	-11.7402
▁mayor	-11.7403
eps	-11.7403
▁bush	-11.7405
▁buck	-11.7409
sem	-11.7409
mtn	-11.7412
llex	-11.7412
2.4%	-11.7412
▁operation	-11.7415
ough	-11.7415
utter	-11.7416
997	-11.7417
▁dana	-11.7417
parent	-11.7417
sun	-11.7422
▁34	-11.7426
▁10$	-11.7427
neutral	-11.7427
patience	-11.743
shoo	-11.743
▁movie	-11.7431
▁3,000	-11.7434
11.4%	-11.7436
women	-11.744
▁virgin	-11.7441
znn	-11.7445
▁filling	-11.7457
july	-11.7457
tum	-11.746
quan	-11.746
fat	-11.7461
▁atomic	-11.7463
using	-11.7467
137	-11.7468
▁:(	-11.747
▁????????????	-11.747
▁180	-11.7471
ntla	-11.7472
▁nuts	-11.7477
▁audiences	-11.7479
▁laws	-11.7481
'19	-11.7483
lion	-11.7483
mps	-11.7487
$1000	-11.7492
spl	-11.7497
>>	-11.7503
▁steve	-11.7508
xrc	-11.7508
▁reit	-11.7509
▁deploy	-11.7513
lnd	-11.7513
4%)	-11.7515
▁refund	-11.7522
impeach	-11.7526
edge	-11.7526
pure	-11.7526
_____________	-11.7527
github	-11.7527
narrative	-11.7527
starbucks	-11.7527
▁accuracy	-11.7527
▁possibility	-11.7527
▁writing	-11.7527
phantasma	-11.7527
empire	-11.7527
▁probability	-11.7527
liberal	-11.7527
▁uncensored	-11.7527
▁laptop	-11.7527
▁costello	-11.7528
▁settlement	-11.7528
▁percentage	-11.7528
▁duke	-11.7528
laz	-11.7529
▁arrow	-11.7529
kirk	-11.753
▁+14%	-11.753
=$	-11.7531
▁operate	-11.7532
▁junk	-11.7533
gappers	-11.7534
▁+28%	-11.7535
helping	-11.7536
direct	-11.7537
sold	-11.7538
▁sugar	-11.7539
▁42%	-11.7539
▁08	-11.7539
7.3%	-11.7539
▁correctly	-11.754
pqe	-11.754
.23%	-11.7541
fsly	-11.7542
▁arrived	-11.7543
biph	-11.7543
.62%	-11.7544
utk	-11.7544
0.09	-11.7545
1)	-11.7547
oe	-11.7548
▁initiated	-11.755
▁sneak	-11.755
bydoll	-11.7552
▁1,000,000	-11.7557
▁expanding	-11.7557
▁whi	-11.7559
rim	-11.756
▁map	-11.756
207	-11.7561
asianfindom	-11.7562
rrr	-11.7564
otcmarkets	-11.7574
tokensale	-11.7575
▁audience	-11.7575
▁0.07	-11.7576
meetup	-11.7577
▁depend	-11.7577
▁bottoms	-11.7577
ching	-11.7582
305	-11.7585
golo	-11.7586
6900	-11.7591
aths	-11.7593
▁junior	-11.7596
amification	-11.7608
▁dev	-11.7612
.13%	-11.7614
▁didnt	-11.7615
▁buybacks	-11.7615
▁$0.04	-11.7619
▁nation	-11.762
▁trendy	-11.762
▁pages	-11.7622
▁22,	-11.7624
▁provided	-11.7624
tomox	-11.7626
/31	-11.7628
rist	-11.7629
stellar	-11.7635
▁bmw	-11.7636
▁angel	-11.7637
sin	-11.7637
rsn	-11.7638
0.01%	-11.7639
error	-11.7639
telecom	-11.764
enjin	-11.7641
▁networks	-11.7642
weight	-11.7649
▁pour	-11.7652
general	-11.7653
▁0.03	-11.7653
eee	-11.7662
▁coal	-11.7662
hubb	-11.7663
beverage	-11.7673
▁-17%	-11.7677
motors	-11.7682
-$1	-11.7682
▁dire	-11.7682
▁7)	-11.7685
clean	-11.7691
▁skills	-11.7691
stood	-11.7698
73%	-11.7698
adventure	-11.7699
singapore	-11.7699
python	-11.7699
sugardaddy	-11.7699
▁flipped	-11.77
▁attractive	-11.77
▁breath	-11.77
▁farmers	-11.77
▁feedback	-11.77
sissy	-11.7701
unately	-11.7702
videogames	-11.7702
▁drama	-11.7703
brazil	-11.7704
sgmd	-11.7705
dmo	-11.7707
9.8%	-11.7707
avm	-11.771
hig	-11.7711
talent	-11.7712
srne	-11.7713
harlie	-11.7713
▁scams	-11.7714
▁merchants	-11.7716
hlt	-11.7717
▁withdrawal	-11.7722
▁crushing	-11.7722
▁mainstream	-11.7723
▁cbs	-11.7724
waited	-11.7726
▁printing	-11.7729
5.3%	-11.773
controlled	-11.7732
mph	-11.7734
won	-11.7738
▁await	-11.7738
moral	-11.774
▁003	-11.7741
▁smile	-11.7746
yad	-11.7747
bgf	-11.7747
▁hopes	-11.7749
ubmit	-11.7753
emini	-11.7757
logical	-11.7759
ency	-11.7761
7.9%	-11.7763
▁tel	-11.7765
wbtc	-11.7765
▁server	-11.7769
evr	-11.777
▁$0.05	-11.7772
▁influence	-11.7775
.42%	-11.7776
-18	-11.7779
thank	-11.7785
uhn	-11.7785
tax	-11.7787
▁16%	-11.7789
▁drivers	-11.779
rbz	-11.7799
xz	-11.78
lone	-11.7809
ecl	-11.7816
bloc	-11.7818
reit	-11.7818
followers	-11.7821
bdr	-11.7826
▁porsche	-11.7829
▁10.000	-11.783
cmc	-11.7831
▁named	-11.7831
25$	-11.7832
mcf	-11.7835
stacking	-11.7836
▁idk	-11.7839
lea	-11.7842
212	-11.7845
weeks	-11.7851
▁outbreak	-11.7851
pop	-11.7855
politics	-11.7861
▁carry	-11.7861
▁region	-11.7862
007	-11.7867
▁replace	-11.7868
ewm	-11.787
challenge	-11.787
▁indian	-11.7871
ception	-11.7871
dtx	-11.7872
digerati	-11.7875
▁cointelegraph	-11.7875
studio	-11.7875
▁dominance	-11.7875
jwca	-11.7875
▁approximately	-11.7875
▁wedbush	-11.7875
promofriday	-11.7875
adult	-11.7875
governance	-11.7875
▁disgusting	-11.7875
▁besides	-11.7876
▁brag	-11.7877
adobe	-11.7877
project	-11.7877
arbitra	-11.7878
bznt	-11.788
medif	-11.7881
vmt	-11.7881
398	-11.7881
ukraine	-11.7885
▁drawing	-11.7885
daytrade	-11.7886
▁clue	-11.7886
▁findomme	-11.7888
▁chevron	-11.7898
▁beauty	-11.7898
iti	-11.79
▁200000	-11.7903
unb	-11.7905
boi	-11.7913
lj	-11.7915
10000	-11.7922
▁publicly	-11.7923
▁winter	-11.7924
▁regular	-11.7925
▁streets	-11.7926
opia	-11.7926
ftn	-11.7926
▁overvalued	-11.7929
▁(-0.5	-11.7938
ntec	-11.7942
rup	-11.7944
▁luxury	-11.7946
switch	-11.7954
alone	-11.7965
▁fires	-11.7966
ggb	-11.7966
system	-11.7969
avy	-11.7969
icipation	-11.7969
yyy	-11.7972
51%	-11.7973
dor	-11.7974
▁caus	-11.7976
▁0.0001	-11.7976
.01%	-11.7977
ledge	-11.7977
▁rights	-11.7984
2021	-11.7985
▁shoes	-11.7986
bos	-11.799
bold	-11.7997
▁estate	-11.7997
dgx	-11.8
halo	-11.8
9/11	-11.8
zu	-11.8002
▁28,	-11.8005
gxx	-11.8007
▁stands	-11.8009
irm	-11.8013
bob	-11.8014
▁(+0.1	-11.8015
pir	-11.8016
▁arks	-11.8018
action	-11.8019
▁chains	-11.802
▁meant	-11.8023
town	-11.803
hou	-11.803
aaaa	-11.8035
▁arrive	-11.8038
peer	-11.8041
ically	-11.8041
99%	-11.8043
gtn	-11.8045
▁apps	-11.8048
enta	-11.8052
changbin	-11.8053
rakuten	-11.8053
▁encourage	-11.8053
▁excuse	-11.8053
▁narrow	-11.8053
▁committed	-11.8053
linux	-11.8053
monetary	-11.8053
cobalt	-11.8054
▁citex	-11.8054
btfd	-11.8055
sellingnudes	-11.8055
trac	-11.8055
▁viewers	-11.8055
pfpt	-11.8056
▁weird	-11.8056
▁historic	-11.8056
▁spell	-11.8056
▁blind	-11.8057
▁flippers	-11.8058
powe	-11.8058
▁ruin	-11.8059
rcm	-11.8059
▁ryan	-11.8061
vp	-11.8062
▁boring	-11.8063
rave	-11.8063
sndl	-11.8064
5%)	-11.8064
.88%	-11.8065
mctc	-11.8065
▁topic	-11.8066
aqst	-11.8068
,”	-11.8073
rise	-11.8074
desire	-11.8076
prizes	-11.8079
timize	-11.8079
brighter	-11.808
xlb	-11.8082
▁joint	-11.8083
these	-11.8083
▁climbing	-11.8084
▁-6%	-11.8087
▁formula	-11.8088
oils	-11.8088
▁prints	-11.809
▁pile	-11.8091
quo	-11.8091
▁referrals	-11.8092
secret	-11.8095
harle	-11.8096
going	-11.8098
0.6%	-11.8099
communications	-11.8101
spread	-11.8102
485	-11.8107
kill	-11.8107
amber	-11.8109
.......	-11.8112
pound	-11.8114
sexy	-11.8118
▁noticed	-11.8124
soft	-11.8132
2.6%	-11.8132
hun	-11.8133
▁txt	-11.8136
incy	-11.8138
cdn	-11.8147
▁37%	-11.8153
lever	-11.8161
hbo	-11.8166
gamers	-11.8166
▁financially	-11.8169
▁(-0.4	-11.8171
lotto	-11.8175
▁corrupt	-11.8176
nly	-11.8178
▁enabl	-11.8179
20,000	-11.8179
▁550	-11.8182
▁110	-11.8187
/07	-11.8188
▁opinions	-11.8188
▁trips	-11.819
regulators	-11.8193
bto	-11.8193
aaa	-11.8194
▁cells	-11.8198
ooo	-11.82
▁locations	-11.8202
elle	-11.8202
▁12%	-11.8203
4.2%	-11.8203
▁cry	-11.8205
▁announcements	-11.8207
.98%	-11.8208
omar	-11.8209
supply	-11.8213
kw	-11.8223
estimate	-11.8224
▁flowing	-11.8228
payment	-11.8232
establish	-11.8232
rust	-11.8233
monetiz	-11.8233
sens	-11.8235
conspiracy	-11.8235
pakistan	-11.8235
▁counsel	-11.8235
▁dedicate	-11.8235
▁supreme	-11.8235
▁tremendous	-11.8235
marriott	-11.8235
▁circulating	-11.8235
pbyi	-11.8235
lvmh	-11.8236
▁acceleration	-11.8236
▁domino	-11.8236
consistent	-11.8237
mdmp	-11.8237
loyalty	-11.8237
▁priority	-11.8237
reddit	-11.8237
▁liking	-11.8238
dragonchain	-11.8239
▁hindu	-11.824
▁soros	-11.8241
gaxy	-11.8241
▁clinical	-11.8242
lrsv	-11.8245
electron	-11.8247
▁somewhere	-11.8247
▁45%	-11.8253
▁generated	-11.8257
ohr	-11.8258
achn	-11.8259
▁hence	-11.826
▁longe	-11.826
▁publishers	-11.8261
disclosed	-11.8261
fill	-11.8262
▁bang	-11.8264
119	-11.8265
ggy	-11.8266
▁$0.03	-11.8274
very	-11.8278
ctl	-11.8279
▁30000	-11.8281
takeoff	-11.8283
xlr	-11.8285
practic	-11.8294
256	-11.8296
138	-11.8297
▁gfm	-11.8298
trick	-11.8304
bola	-11.8306
▁hike	-11.8307
findomgoddes	-11.8308
apls	-11.8312
conference	-11.8313
0.32	-11.8314
human	-11.8315
osmos	-11.8315
▁breach	-11.8315
kink	-11.8317
▁standards	-11.8317
llxf	-11.832
vpr	-11.832
▁coo	-11.8322
impeachment	-11.8323
royalty	-11.8333
prime	-11.8334
aint	-11.8336
sticker	-11.8336
tle	-11.8337
moving	-11.8339
4000	-11.8341
▁rot	-11.8341
msg	-11.8342
uam	-11.8343
epaz	-11.8345
▁owe	-11.8347
aging	-11.835
▁$1,000.	-11.8352
lev	-11.8353
mode	-11.8355
▁+10	-11.8356
idha	-11.836
ony	-11.8361
player	-11.8363
amn	-11.8372
▁character	-11.8381
iswh	-11.8383
slate	-11.8383
shell	-11.8386
2.7%	-11.8386
▁38%	-11.8388
▁laugh	-11.839
apx	-11.8394
▁$11.	-11.8395
0%?	-11.8395
134	-11.8396
dee	-11.8397
rsk	-11.8398
▁disappoint	-11.8399
shld	-11.8399
0.76	-11.84
publisher	-11.8402
ape	-11.8403
backed	-11.8413
omm	-11.8419
▁occur	-11.842
mcafee	-11.842
opioid	-11.842
▁beneficia	-11.842
▁propaganda	-11.842
▁petroleum	-11.842
▁pioneer	-11.842
▁scalable	-11.842
whisper	-11.842
▁creation	-11.842
nowplaying	-11.842
▁snapshot	-11.8421
▁reference	-11.8421
messaging	-11.8421
domination	-11.8421
iix	-11.8422
▁riley	-11.8423
▁warned	-11.8423
miami	-11.8423
▁restricted	-11.8423
▁11/1	-11.8425
phr	-11.8425
▁removed	-11.8426
install	-11.8426
▁wick	-11.8427
▁empower	-11.8428
rub	-11.8428
horny	-11.8428
kitty	-11.8429
vault	-11.8429
rystal	-11.8434
-01	-11.8434
▁homes	-11.8437
▁strain	-11.8445
warranty	-11.8445
▁deny	-11.8446
▁perfectly	-11.8447
▁documents	-11.8451
▁creators	-11.8452
▁verus	-11.8452
oes	-11.8454
wework	-11.8456
gtw	-11.8458
nash	-11.8458
burl	-11.8461
6.6%	-11.8462
▁realized	-11.8468
liv	-11.8469
▁directional	-11.847
ftch	-11.847
~~	-11.8471
spi	-11.8475
▁$80	-11.848
▁forced	-11.8481
mineral	-11.8483
102	-11.8483
fish	-11.8484
▁ring	-11.8485
tee	-11.8488
ipad	-11.8491
wly	-11.8493
rest	-11.8493
teslamodel	-11.8495
▁cares	-11.85
refer	-11.85
▁agreed	-11.85
dollym	-11.8503
girls	-11.8505
.49%	-11.8505
ambs	-11.8511
▁payout	-11.8516
▁$23	-11.8517
orm	-11.8527
wow	-11.8531
oid	-11.8547
easter	-11.8549
orly	-11.8549
▁woke	-11.855
▁.04	-11.8554
126	-11.8554
wind	-11.8555
chc	-11.8555
squi	-11.8556
uncle	-11.8557
enx	-11.8559
185	-11.8566
alpha	-11.8566
instagram	-11.8567
▁gainer	-11.8569
yield	-11.857
through	-11.8572
guy	-11.8575
ecosystem	-11.8576
cei	-11.8576
national	-11.8578
dac	-11.8582
▁1/3	-11.8592
freak	-11.8593
fail	-11.8594
148	-11.8594
learning	-11.8598
yur	-11.8601
▁conversation	-11.8609
▁garbage	-11.8609
▁politicians	-11.8609
traitor	-11.8609
female	-11.8609
electronics	-11.8609
permian	-11.8609
otcqx	-11.8609
▁consolidated	-11.8609
kdce	-11.8609
▁housing	-11.8609
▁animation	-11.861
▁speculation	-11.861
vechainthor	-11.861
▁rumors	-11.8611
einstein	-11.8612
▁father	-11.8612
6.6	-11.8615
6.8%	-11.8616
▁6400	-11.8616
▁appeal	-11.8617
▁clock	-11.8617
lusive	-11.8617
hanna	-11.8621
0.17	-11.8626
hem	-11.8626
fakenews	-11.8626
nws	-11.8626
nation	-11.8628
▁44%	-11.8631
adia	-11.8634
▁0.3	-11.8634
▁spins	-11.8637
ebook	-11.8638
197	-11.864
6.7%	-11.8641
▁eod	-11.8642
bnd	-11.8642
9.5%	-11.8649
btd	-11.8652
gri	-11.8653
▁accident	-11.8654
▁images	-11.8658
chf	-11.8659
▁10)	-11.8666
▁loses	-11.8668
terrorist	-11.8671
▁featured	-11.8672
▁fool	-11.8673
dain	-11.8674
tanker	-11.8675
guaranteed	-11.868
ride	-11.868
lex	-11.8683
force	-11.8685
tlt	-11.8687
eix	-11.8688
aleaf	-11.8689
ova	-11.8702
▁mars	-11.8703
iana	-11.8704
▁surely	-11.8718
001	-11.8719
ouch	-11.8722
375	-11.8723
(10	-11.8724
▁expenses	-11.8727
raco	-11.873
daddy	-11.8737
catching	-11.8739
coast	-11.8741
iced	-11.8742
▁bod	-11.8743
nfts	-11.8744
cbt	-11.8749
egc	-11.8754
▁wind	-11.8755
▁meds	-11.8755
strike	-11.8757
0.36	-11.8761
/26	-11.8765
exec	-11.8768
gang	-11.8774
zip	-11.8778
▁candidates	-11.8778
▁cv	-11.8785
▁reaffirm	-11.8788
acm	-11.8794
▁cult	-11.8796
final	-11.8797
▁adam	-11.88
indices	-11.8801
barrickgold	-11.8801
spiderman	-11.8801
▁worried	-11.8801
▁worries	-11.8801
▁garden	-11.8801
▁railway	-11.8801
▁maximum	-11.8802
dispute	-11.8802
▁accurate	-11.8802
▁racist	-11.8802
capture	-11.8802
▁argument	-11.8802
cloakcoin	-11.8803
tailor	-11.8803
extra	-11.8803
/28	-11.8804
▁assume	-11.8805
▁kpop	-11.8805
▁bump	-11.8805
japan	-11.8806
▁thomas	-11.8806
html	-11.8807
mxim	-11.8808
▁contra	-11.8809
lrx	-11.881
▁scans	-11.8812
upid	-11.8813
discord	-11.8813
▁flaw	-11.8814
burger	-11.8814
nickel	-11.8816
federal	-11.8816
battery	-11.8816
matters	-11.8818
xhb	-11.8819
death	-11.8819
mat	-11.8823
hour	-11.8825
frag	-11.8826
technologies	-11.883
▁breakouts	-11.8831
▁qr	-11.8831
fli	-11.8831
corporate	-11.8833
plce	-11.8834
confirm	-11.8838
ske	-11.884
▁served	-11.8842
bitmo	-11.8843
divest	-11.8843
▁logo	-11.8844
sellers	-11.8847
▁delivering	-11.8849
diamonds	-11.8851
▁unlike	-11.8855
ously	-11.886
.77%	-11.8863
arpa	-11.8864
ppp	-11.8865
▁130	-11.8867
▁congratulation	-11.8874
▁scene	-11.8874
345	-11.888
149	-11.888
impo	-11.888
path	-11.888
▁conf	-11.8884
315	-11.8885
370	-11.8888
,000	-11.889
6000	-11.8893
▁zones	-11.8895
▁item	-11.8896
▁dance	-11.8897
xcp	-11.89
empr	-11.8905
exel	-11.8908
sib	-11.8912
320	-11.8917
▁lip	-11.8917
cisco	-11.8917
lxrx	-11.8918
▁-3	-11.8924
▁0.6	-11.8934
kno	-11.8934
▁keys	-11.8934
powered	-11.8939
ddy	-11.8951
▁kiss	-11.8955
streamer	-11.8958
rch	-11.8959
radio	-11.8964
▁forces	-11.897
fern	-11.8971
bwa	-11.8972
▁gapp	-11.8973
4.50	-11.8973
rolls	-11.8976
author	-11.8976
▁dat	-11.8982
▁grant	-11.8988
brx	-11.8989
cape	-11.899
witch	-11.8992
▁bash	-11.8994
▁sharp	-11.8994
▁14:	-11.8994
calvinbenson	-11.8995
detroit	-11.8997
neuroscience	-11.8997
whistle	-11.8997
▁equipment	-11.8997
▁families	-11.8997
▁galactic	-11.8997
▁perpetual	-11.8997
▁recurring	-11.8997
12/20/2019	-11.8997
▁committee	-11.8997
▁fremont	-11.8997
wisdom	-11.8997
▁consolidating	-11.8998
rescue	-11.8998
machinelearning	-11.8998
robots	-11.8998
▁disease	-11.8999
adium	-11.9002
▁conce	-11.9002
▁silly	-11.9003
▁brewing	-11.9003
▁blame	-11.9003
▁brian	-11.9005
isn	-11.9005
▁sucks	-11.9005
usdjpy	-11.9006
nca	-11.9008
▁remark	-11.9009
hood	-11.901
kcal	-11.9011
mjne	-11.9012
swear	-11.9014
/09	-11.9016
▁destroyed	-11.9016
beats	-11.9017
.86%	-11.9018
disruption	-11.9018
▁13:	-11.9019
jnk	-11.902
loud	-11.9021
▁blessings	-11.9022
191	-11.9022
lhc	-11.9023
snbr	-11.9024
▁bullshit	-11.9034
779	-11.9034
custom	-11.9035
igng	-11.9036
shit	-11.9039
▁champ	-11.9041
sql	-11.9043
generation	-11.9049
▁(-0.6	-11.9053
smt	-11.9054
cvc	-11.9058
aba	-11.9059
▁24,	-11.9064
development	-11.9065
▶	-11.9068
acor	-11.9069
swn	-11.9069
▁36%	-11.9071
thor	-11.9072
account	-11.9073
▁expense	-11.9073
==	-11.9081
2018	-11.9081
.33%	-11.9085
mlry	-11.9087
byst	-11.9087
job	-11.909
▁2/3	-11.9093
snps	-11.9094
-2020	-11.9096
-16	-11.9097
mdi	-11.9098
▁-7.	-11.9102
??15	-11.9103
($	-11.9103
▁190	-11.9104
bq	-11.9105
eqt	-11.9105
bns	-11.9106
veterans	-11.9108
metric	-11.9112
thestreet	-11.9116
❤❤❤	-11.9116
ability	-11.912
$$$$	-11.9121
ora	-11.9123
mind	-11.914
128	-11.9144
.69%	-11.9149
▁screens	-11.9162
alo	-11.9163
gotten	-11.9165
129	-11.917
screener	-11.9176
ridge	-11.9179
ages	-11.9182
▁combine	-11.9189
5.7	-11.9192
▁sudden	-11.9192
rpc	-11.9194
▁(7	-11.9195
eatingvaluabletx	-11.9197
interoperability	-11.9197
▁administration	-11.9197
▁advancing	-11.9197
▁contango	-11.9197
▁hathaway	-11.9197
▁introducing	-11.9197
▁subject	-11.9197
▁flavor	-11.9197
▁mexican	-11.9197
mmnff	-11.9197
▁charging	-11.9197
bithumbglobal	-11.9197
▁investigate	-11.9197
▁raffle	-11.9198
▁diverse	-11.9198
▁debate	-11.9198
▁enemy	-11.9198
transformation	-11.92
mchp	-11.92
▁evaluat	-11.92
▁greed	-11.9202
▁household	-11.9204
▁cheapies	-11.9207
mined	-11.9208
fiv	-11.9209
telos	-11.9209
claus	-11.9209
▁fleet	-11.9211
▁frank	-11.9215
▁hotte	-11.9215
roth	-11.9217
olli	-11.9219
inv	-11.9219
.14%	-11.9219
▁fallen	-11.9223
$5	-11.923
?2000	-11.9235
▁$148	-11.9236
▁9100	-11.924
pei	-11.9241
▁mask	-11.9242
▁cree	-11.9242
alien	-11.9243
ozk	-11.9249
ees	-11.9252
.16%	-11.9252
agen	-11.9256
.59%	-11.9256
reta	-11.9261
eru	-11.9261
▁newly	-11.9266
afl	-11.9274
phas	-11.9276
▁tire	-11.9278
▁improvements	-11.9282
pain	-11.9285
crex	-11.929
cos	-11.9299
▁william	-11.93
yyyy	-11.9306
oco	-11.9307
68%	-11.9308
rated	-11.9308
aaba	-11.931
5.4%	-11.9312
▁runners	-11.9315
phx	-11.9317
▁bone	-11.932
powell	-11.9321
design	-11.9322
tvt	-11.9323
▁seven	-11.9324
?✨	-11.9328
14)	-11.9332
kay	-11.9336
▁swings	-11.9338
cing	-11.934
traded	-11.9341
25.0	-11.9349
▁gaps	-11.9353
▁listings	-11.9355
gay	-11.9357
story	-11.9358
jm	-11.9359
636	-11.9365
▁risky	-11.9369
imho	-11.9378
28%	-11.9379
100%	-11.9379
7.2	-11.9381
▁bounced	-11.9382
wdp	-11.9383
▁suffer	-11.9384
hcp	-11.9384
rrx	-11.9389
▁pigs	-11.939
ette	-11.9392
▁pieces	-11.9397
▁spoke	-11.9397
bittorrentspeed	-11.9401
legitimate	-11.9401
supercharger	-11.9401
▁attached	-11.9401
▁capitulation	-11.9401
▁society	-11.9401
▁defined	-11.9402
▁drunk	-11.9402
▁suspect	-11.9402
▁solarcity	-11.9402
dropil	-11.9402
▁optimize	-11.9402
▁cvs	-11.9403
▁aramco	-11.9403
cooper	-11.9404
kh	-11.9406
betting	-11.9407
lvgo	-11.9407
▁#10	-11.9408
fosl	-11.9408
jj	-11.9409
nike	-11.9411
▁db	-11.9412
1999	-11.9415
tezos	-11.9419
tty	-11.9419
▁0.04	-11.9423
▁+21%	-11.9423
ntrust	-11.9425
▁peter	-11.9426
▁strengthen	-11.9426
▁recognized	-11.9428
▁nationally	-11.9429
▁metrics	-11.9429
nerv	-11.943
▁parents	-11.9433
5.1%	-11.9434
▁outta	-11.9434
adve	-11.9438
door	-11.9439
bip	-11.9442
77%	-11.9451
cau	-11.9452
ually	-11.9452
fab	-11.9454
▁seek	-11.9454
lpt	-11.9467
ghh	-11.9473
▁bail	-11.9474
insw	-11.9475
ronica	-11.9476
7.7%	-11.9478
▁$31	-11.9478
▁onboard	-11.9478
▁supplier	-11.9486
unfi	-11.9486
▁beach	-11.9487
invit	-11.9488
▁components	-11.9488
hereal	-11.9491
requirements	-11.9493
mhk	-11.9496
mini	-11.9498
lbas	-11.9502
▁hav	-11.9503
bdl	-11.9506
328	-11.9508
vus	-11.9512
active	-11.9512
-11	-11.9513
type	-11.9513
nga	-11.9519
itc	-11.9521
blockchaingame	-11.9522
wolf	-11.9528
▁85	-11.953
eaf	-11.9533
▁(+0.2	-11.9538
hw	-11.9549
mcdonalds	-11.9549
497	-11.9552
▁0.003	-11.9558
▁window	-11.9562
ome	-11.9562
italia	-11.9568
▁??❤	-11.957
▁floater	-11.9572
related	-11.9573
golden	-11.9576
saturday	-11.9578
▁para	-11.9579
friendly	-11.9583
sponsored	-11.9587
quality	-11.9588
esipunk	-11.9593
pte	-11.9594
erve	-11.9597
▁modern	-11.9597
bili	-11.9598
▁stated	-11.9599
▁enterprises	-11.96
▁careers	-11.9607
tattoo	-11.9607
▁values	-11.9607
mmurplz	-11.961
remittance	-11.961
thingstoknow	-11.961
▁raymond	-11.961
diagnostics	-11.961
▁suppress	-11.961
▁sandler	-11.961
▁senate	-11.961
juniormining	-11.961
▁representative	-11.961
▁colorado	-11.961
222	-11.9611
▁shoutout	-11.9611
▁breakthrough	-11.9611
172	-11.9612
▁impressed	-11.9612
consult	-11.9613
sdrl	-11.9613
▁gho	-11.9613
▁popularity	-11.9613
costume	-11.9614
▁eight	-11.9615
ilmn	-11.9616
▁grew	-11.9616
1.19	-11.9616
▁exception	-11.9619
▁philippines	-11.9619
▁6500	-11.9622
champions	-11.9622
730	-11.9622
djia	-11.9622
orange	-11.9622
▁relatively	-11.9624
pcli	-11.9626
▁voters	-11.9629
cti	-11.9631
6.0%	-11.9631
▁discovered	-11.9635
▁meaningful	-11.9635
▁newswatch	-11.9637
▁reviewing	-11.9639
snk	-11.9639
▁rely	-11.964
leaf	-11.9643
fiat	-11.9643
▁✅#	-11.9644
return	-11.9647
▁peers	-11.9649
▁animal	-11.9649
gup	-11.9652
297	-11.9657
eta	-11.9664
5.0%	-11.9666
xet	-11.9669
▁teeth	-11.967
xrh	-11.9671
▁teach	-11.9671
arie	-11.9672
9.4%	-11.9673
xnet	-11.9673
2%)	-11.9674
lege	-11.9678
▁charges	-11.9678
xmx	-11.9683
person	-11.9683
upp	-11.9686
▁meets	-11.969
▁eliminate	-11.9696
tarot	-11.9699
veteran	-11.9701
gfn	-11.9702
1,000,000	-11.9705
▁vacation	-11.9706
▁scn	-11.9706
cell	-11.971
▁elev	-11.9714
ink	-11.9714
num	-11.9715
▁$280	-11.9717
▁2017.	-11.9721
▁2009	-11.9725
remix	-11.9728
▁pushed	-11.9728
▁(+0.0	-11.973
kern	-11.9733
▁windows	-11.9736
▁$5,000!	-11.9738
▁male	-11.9739
fuckin	-11.974
▁guarantee	-11.9744
connect	-11.9744
ecd	-11.9745
▁journalist	-11.9746
mito	-11.9747
lick	-11.9748
together	-11.9749
▁bal	-11.975
gma	-11.9758
174	-11.9759
▁delivers	-11.9761
building	-11.9761
anc	-11.9762
place	-11.977
etz	-11.9773
195	-11.9776
score	-11.9776
index	-11.9779
large	-11.978
▁restaurants	-11.9781
ihl	-11.9783
▁reviewed	-11.9789
mona	-11.9795
hex	-11.9797
▁seller	-11.9806
265	-11.9806
▁<3	-11.9808
targets	-11.981
▁cali	-11.9811
fare	-11.9814
apop	-11.9818
arlo	-11.9818
basin	-11.9823
ghislainemaxwell	-11.9823
klickzie	-11.9823
pinksheet	-11.9823
▁laboratories	-11.9823
▁trulieve	-11.9823
celsius	-11.9823
moscow	-11.9823
augmented	-11.9823
elonmusk	-11.9823
▁2019-11-2	-11.9823
▁jesus	-11.9823
houston	-11.9823
church	-11.9823
darling	-11.9823
▁identify	-11.9823
▁behalf	-11.9823
continental	-11.9824
▁stability	-11.9824
▁spotted	-11.9824
eagle	-11.9824
▁fault	-11.9825
asln	-11.9825
▁command	-11.9825
hiphop	-11.9826
-7	-11.9826
▁decliners	-11.9826
cashmaster	-11.9828
▁leap	-11.9829
abeo	-11.983
ahpi	-11.9831
▁+20%	-11.9837
turkey	-11.9839
victory	-11.984
▁thus	-11.9841
▁whoever	-11.9842
▁$350	-11.9843
▁bitches	-11.9845
0.36%	-11.9847
▁430	-11.9849
podcast	-11.9851
alphabet	-11.9851
commun	-11.9852
▁praying	-11.9852
zilla	-11.9853
25.00	-11.9857
▁kindly	-11.9857
▁mh	-11.986
founder	-11.986
adjusted	-11.9861
giveway	-11.9864
heat	-11.9865
ingtool	-11.9866
ase	-11.9869
vale	-11.9869
nail	-11.987
nete	-11.9874
▁deeper	-11.9875
years	-11.9877
igp	-11.9877
▁cet	-11.9879
]:	-11.9881
sucker	-11.9883
";	-11.989
signal	-11.9892
goat	-11.9893
▁$0.06	-11.9894
▁doin	-11.9896
▁1.000.000	-11.9897
▁fcf	-11.9898
rmh	-11.9901
owned	-11.9903
186	-11.9908
soon	-11.9914
▁scientist	-11.9916
ein	-11.9917
blis	-11.9918
-26%	-11.9921
▁4/	-11.9922
sized	-11.9926
marc	-11.9927
▁answered	-11.9929
8.3%	-11.994
teg	-11.994
▁4-	-11.9947
fight	-11.995
freecoin	-11.9952
317	-11.9957
4.6%	-11.996
performance	-11.9961
soul	-11.9962
hys	-11.9962
terc	-11.9965
3.8%	-11.9969
▁bullsh	-11.9972
networking	-11.9974
▁1$	-11.9975
63-	-11.9978
wag	-11.998
▁shap	-11.9989
▁2/2	-11.999
ksu	-11.9992
2.0%	-11.9999
mack	-12.0001
▁subscriber	-12.0002
▁associates	-12.0008
dynamic	-12.0014
island	-12.0016
▁terr	-12.0022
▁internal	-12.0023
▁nails	-12.0023
▁prof	-12.0023
still	-12.0029
agq	-12.003
iraq	-12.003
ount	-12.003
▁compensat	-12.0039
yaxx	-12.0039
▁stephen	-12.0039
▁$120	-12.0039
▁?100	-12.004
conflict	-12.004
fibonacci	-12.004
gamemanual	-12.004
relational	-12.004
▁2020-02-1	-12.004
▁british	-12.004
▁describe	-12.004
▁dramatically	-12.004
▁explosive	-12.004
▁privilege	-12.004
▁tunnel	-12.004
puzzle	-12.004
▁ordinary	-12.004
▁documentary	-12.004
▁begging	-12.004
▁southwest	-12.004
▁silence	-12.004
iag	-12.004
▁submitted	-12.004
▁cancelled	-12.0041
▁blank	-12.0041
▁centralized	-12.0041
automatically	-12.0041
daif	-12.0042
impress	-12.0042
domain	-12.0043
jmia	-12.0045
0.38	-12.0046
▁circle	-12.0046
webdollar	-12.0048
▁contain	-12.0049
355	-12.0049
▁tommy	-12.005
def	-12.005
btx	-12.0051
▁robotaxis	-12.0052
christian	-12.0052
▁soooo	-12.0054
▁proves	-12.0055
fisv	-12.0056
▁brainer	-12.0056
▁+4.5%	-12.0057
rost	-12.0057
mingi	-12.0058
cbdoil	-12.0058
jets	-12.0061
ender	-12.0065
▁recovering	-12.0067
seas	-12.0068
▁lists	-12.0068
hekel	-12.0069
▁hunters	-12.0069
▁lod	-12.007
▁riding	-12.0071
demand	-12.0072
▁2025	-12.0072
▁discussions	-12.0072
agra	-12.0074
▁regulations	-12.0075
ngt	-12.0076
▁pedo	-12.0078
pgny	-12.0079
qw	-12.0084
▁-28%	-12.0086
8.4%	-12.0086
11.8%	-12.0088
evil	-12.009
▁rush	-12.0092
▁managers	-12.0092
prx	-12.0098
7.2%	-12.0101
▁explaining	-12.0103
steps	-12.0105
xrpcommunity	-12.0105
uslv	-12.0109
lean	-12.0113
▁reset	-12.0116
cup	-12.0117
?”	-12.0124
▁eating	-12.0126
▁$147	-12.0128
▁slip	-12.013
audited	-12.013
srn	-12.0133
petc	-12.0135
everything	-12.0136
everyone	-12.0144
0.00001	-12.0144
▁types	-12.0144
donations	-12.0146
nsl	-12.0149
slg	-12.0151
8.7%	-12.0157
116	-12.0158
fus	-12.0161
▁50000000	-12.0163
appn	-12.0164
rbs	-12.0165
leader	-12.0169
▁hated	-12.017
▁suppliers	-12.0171
meat	-12.0172
▁7600	-12.0173
newyear	-12.0175
inary	-12.0182
south	-12.0183
ready	-12.0185
▁5$	-12.0186
▁chances	-12.0186
▁(-0.7	-12.0187
▁trimm	-12.0193
dji	-12.0195
magic	-12.0196
conn	-12.0197
ewj	-12.0199
▁subscribed	-12.0199
.66%	-12.0203
▁2019-08-2	-12.0206
▁badly	-12.0207
▁assist	-12.0214
▁.002	-12.0217
lsa	-12.0219
ksc	-12.022
raid	-12.0224
▁tie	-12.0226
rsg	-12.0229
tjs	-12.0235
lead	-12.0238
ike	-12.0239
maximiz	-12.0242
▁21-	-12.0243
ausa	-12.0247
91%	-12.0249
handed	-12.0256
▁proceed	-12.0261
▁basket	-12.0262
jeffreyepstein	-12.0262
petroteq	-12.0262
▁category	-12.0262
▁experiment	-12.0262
▁grocery	-12.0262
mandatory	-12.0262
▁seamless	-12.0262
▁biosciences	-12.0262
clothing	-12.0262
▁mutual	-12.0262
▁releasing	-12.0262
▁supplies	-12.0262
nigeria	-12.0262
▁combination	-12.0262
▁replies	-12.0263
employment	-12.0263
▁-9.	-12.0263
kubo	-12.0263
▁promoting	-12.0263
japanese	-12.0263
▁diane	-12.0264
▁installation	-12.0265
davidson	-12.0266
▁titty	-12.0266
▁constantly	-12.0266
tokenization	-12.0268
srdp	-12.0268
▁manipulate	-12.0269
findombrat	-12.0269
cann	-12.0271
juul	-12.0274
▁carrier	-12.0274
eqix	-12.0274
▁died	-12.0274
▁felt	-12.0276
▁hired	-12.0277
olympics	-12.0278
ili	-12.0278
scty	-12.028
nsc	-12.0282
php	-12.0283
socks	-12.0284
allo	-12.0285
▁recommended	-12.0287
visit	-12.0287
pxd	-12.0287
rqb	-12.0289
▁downgrade	-12.0294
train	-12.0296
xhv	-12.0297
blackfriday	-12.0302
chan	-12.0305
▁clips	-12.0307
5.8%	-12.0307
▁students	-12.0307
wdb	-12.0308
lumen	-12.0312
cycle	-12.0314
▁tab	-12.0316
yry	-12.0317
9.0%	-12.0317
ixic	-12.0319
sync	-12.0334
mira	-12.0338
crct	-12.0341
▁yup	-12.0343
▁amgen	-12.0357
286	-12.0373
slp	-12.038
▁wak	-12.0386
nbx	-12.0387
00000	-12.0388
aimt	-12.0388
ente	-12.0388
hei	-12.0395
ody	-12.0395
bean	-12.0398
▁booking	-12.0402
professional	-12.0404
sgp	-12.0404
alibaba	-12.0405
lope	-12.0406
▁grabb	-12.0407
florida	-12.041
climate	-12.041
verification	-12.0414
evin	-12.0414
oom	-12.0414
tipping	-12.042
client	-12.0431
flt	-12.0431
.03%	-12.0433
adap	-12.0435
delivery	-12.0435
vac	-12.0438
▁accus	-12.0439
mkt	-12.0439
rying	-12.0439
yahoo	-12.044
bridge	-12.0443
dav	-12.0445
▁welcomed	-12.0452
▁hmmm	-12.0453
▁discusse	-12.0455
▁blockchains	-12.046
pwr	-12.0462
wpm	-12.0462
▁tests	-12.0463
▁?2	-12.0464
ivol	-12.0465
xbio	-12.0466
rxc	-12.0467
tens	-12.047
sbac	-12.0475
0.4%	-12.0481
255	-12.0487
▁transform	-12.0488
customer	-12.0489
▁0.006	-12.0489
digiassets	-12.0489
hongkong	-12.0489
notherdayanother	-12.0489
▁facilities	-12.0489
▁recharge	-12.0489
▁tuition	-12.0489
irishgirl	-12.0489
wearables	-12.0489
▁french	-12.0489
▁lagging	-12.049
cathay	-12.049
blitz	-12.049
▁presence	-12.049
cripto	-12.049
pvtl	-12.049
▁scandal	-12.049
▁length	-12.049
▁pleasure	-12.049
▁emoji	-12.049
▁protest	-12.049
ghana	-12.049
babies	-12.049
▁signature	-12.0491
jul	-12.0491
▁emerge	-12.0491
▁diversified	-12.0491
▁9:30	-12.0492
▁corruption	-12.0492
▁racket	-12.0492
▁delight	-12.0493
rssf	-12.0493
hhhh	-12.0494
▁western	-12.0494
▁loose	-12.0495
▁accelerating	-12.0495
mdgl	-12.0496
silj	-12.0501
▁concerned	-12.0502
lid	-12.0507
▁halted	-12.0508
nfused	-12.0508
pvg	-12.051
▁formed	-12.0511
▁pockets	-12.0517
▁58%	-12.0517
▁numero	-12.0517
▁soaring	-12.0517
00%+	-12.0518
525	-12.0521
334	-12.0521
▁cashtag	-12.0529
anny	-12.0529
eyes	-12.0529
▁goals	-12.0529
▁touched	-12.053
▁rebrand	-12.0531
bpmf	-12.0532
hick	-12.0532
131	-12.0536
arav	-12.0543
xwp	-12.0543
ideas	-12.0543
▁statistics	-12.0545
▁adapt	-12.0547
▁sdk	-12.0547
scores	-12.0547
▁ove	-12.0548
▁peaked	-12.0551
▁kicking	-12.0558
varian	-12.0558
▁pun	-12.056
▁complaint	-12.0564
byc	-12.0564
325	-12.0565
▁argue	-12.0568
xbit	-12.0572
invite	-12.0574
marketwatch	-12.0575
▁counting	-12.0576
flower	-12.0578
6,000,000	-12.0581
143	-12.0582
fnv	-12.0583
▁anyways	-12.0583
75000	-12.0591
hedgefunds	-12.0592
▁$175	-12.0592
▁experienced	-12.0597
▁thousand	-12.0599
cloak	-12.0602
50.00	-12.0605
▁offered	-12.0609
0.02	-12.061
-8%	-12.0616
hell	-12.0621
cda	-12.0621
founded	-12.0623
▁programs	-12.0624
▁staff	-12.0625
▁brin	-12.0627
uch	-12.063
xpo	-12.0632
ajun	-12.0642
slng	-12.0642
uga	-12.0646
0.44	-12.0647
pending	-12.0647
▁valuations	-12.0651
-16%	-12.0655
▁recorded	-12.0658
10.6%	-12.0662
▁effects	-12.0667
▁tweeting	-12.0671
oko	-12.0672
fans	-12.0672
▁examples	-12.0675
lns	-12.0675
▁linked	-12.0676
0.37	-12.0679
555	-12.0681
▁wil	-12.0681
tian	-12.0688
▁shoulders	-12.0691
▁#100	-12.0692
oor	-12.0693
voting	-12.0693
▁reviews	-12.0693
psi	-12.07
▁industrials	-12.0702
▁curl	-12.0704
▁pmi	-12.0707
▁(500	-12.0709
wife	-12.071
▁suspend	-12.071
orv	-12.071
reserve	-12.071
forecast	-12.0711
insurance	-12.0712
housands	-12.0715
atm	-12.0716
leveraged	-12.0716
▁immediate	-12.0717
attention	-12.0718
▁bankrupt	-12.0722
cryptoldea	-12.0722
graviex	-12.0722
manchester	-12.0722
▁stomach	-12.0722
▁composite	-12.0722
lpppf	-12.0722
▁dunkin	-12.0722
matrix	-12.0722
dominion	-12.0722
universe	-12.0722
▁marshall	-12.0722
▁kidding	-12.0722
▁familiar	-12.0723
▁philip	-12.0723
▁retracement	-12.0723
churn	-12.0723
▁grill	-12.0724
khrn	-12.0724
▁refresh	-12.0724
▁alright	-12.0725
▁hiring	-12.0725
▁surgery	-12.0726
▁awful	-12.0727
▁electricity	-12.0728
brne	-12.073
▁16:00	-12.0731
jh	-12.0733
billions	-12.0733
▁crew	-12.0733
surf	-12.0741
conceal	-12.0743
▁instruments	-12.0743
sunny	-12.075
uoa	-12.0751
13%	-12.0753
ppi	-12.0754
phy	-12.0757
▁beverages	-12.0758
▁95%	-12.0759
sters	-12.0759
ston	-12.0761
-1.6%	-12.0762
hunter	-12.0764
▁button	-12.0767
(#	-12.0768
▁beaten	-12.077
leaked	-12.0772
▁failing	-12.0772
step	-12.0772
livestream	-12.0776
amaz	-12.0777
0%)	-12.0779
ptx	-12.0781
444	-12.0784
ggg	-12.0798
▁59%	-12.0799
cmon	-12.08
▁melt	-12.0802
▁concern	-12.0806
avp	-12.0806
'#	-12.081
robo	-12.0814
apeu	-12.0816
>"	-12.0822
!!??	-12.0825
nmc	-12.0829
gath	-12.0831
ggie	-12.0833
▁brokerage	-12.0837
dmn	-12.084
▁airline	-12.0841
nique	-12.0844
yge	-12.0847
1.07	-12.0851
767	-12.0862
▁resta	-12.0863
0.35	-12.0867
▁scenes	-12.0872
payments	-12.0874
▁-12.	-12.0874
seac	-12.088
diamond	-12.0886
0.55	-12.0887
redd	-12.0887
▁.03	-12.0888
lad	-12.0888
gbd	-12.0889
hacker	-12.089
0.03	-12.089
nvc	-12.0891
pointing	-12.0891
fec	-12.0891
zoo	-12.0898
reimbursement	-12.0899
▁elections	-12.09
west	-12.0901
285	-12.0913
▁spit	-12.0913
text	-12.0919
▁$3,000	-12.092
▁(+0.4	-12.092
legal	-12.0926
▁100+	-12.0926
266	-12.0934
akt	-12.0937
appoints	-12.0947
▁detect	-12.0947
▁chose	-12.0948
ufn	-12.095
969	-12.0951
labu	-12.0953
▁kickex	-12.0958
lbs	-12.0959
yriv	-12.096
maintenance	-12.096
savealife	-12.096
shukla	-12.096
▁encouraging	-12.096
▁english	-12.096
▁regulated	-12.096
autism	-12.096
beijing	-12.096
mistress	-12.096
▁stifel	-12.096
▁-0.04%	-12.096
▁generating	-12.096
▁tumble	-12.096
taiwan	-12.096
stemcell	-12.096
comingsoon	-12.096
boerse	-12.096
aergo	-12.096
woodward	-12.0961
schiff	-12.0961
▁moderate	-12.0961
▁spotlight	-12.0961
▁fuckery	-12.0961
▁practices	-12.0962
paypigwanted	-12.0962
bittube	-12.0963
▁reclaim	-12.0963
▁entity	-12.0964
▁40-50%	-12.0964
jagx	-12.0964
estiny	-12.0966
apd	-12.0967
1.15	-12.0968
orats	-12.0969
▁offshore	-12.0969
1.21	-12.0973
prayers	-12.0974
▁shape	-12.0975
▁lust	-12.0975
▁+12%	-12.0979
7.0%	-12.0979
▁toys	-12.0982
brook	-12.0982
▁dime	-12.0982
jks	-12.0984
▁outcome	-12.0985
▁claimed	-12.0987
ghst	-12.099
rapper	-12.099
arnab	-12.099
lace	-12.0991
spoil	-12.0998
believe	-12.0999
apru	-12.1
shane	-12.1003
comcast	-12.1004
lky	-12.1006
▁novel	-12.1014
truck	-12.1015
freeze	-12.1017
impact	-12.102
setup	-12.102
children	-12.1021
another	-12.1024
▁sotu	-12.1025
raven	-12.1026
▁underestimat	-12.1026
corporation	-12.1028
▁safer	-12.1029
ookiec	-12.1033
saf	-12.1033
evo	-12.1035
▁bbs	-12.1038
evi	-12.104
323	-12.1042
cents	-12.1042
claim	-12.1044
216	-12.1046
sci	-12.1046
▁jumped	-12.1048
white	-12.1048
▁fucked	-12.1051
dub	-12.1056
nko	-12.106
gth	-12.1062
tomoz	-12.1068
▁figures	-12.1068
emining	-12.1078
▁yea	-12.108
rite	-12.1081
▁booming	-12.1082
arri	-12.1084
$$$$$$$$	-12.1085
microcap	-12.1086
lower	-12.1094
dbet	-12.1094
loser	-12.1099
iness	-12.1103
▁revolutioniz	-12.111
▁lied	-12.111
scala	-12.1112
▁leak	-12.1113
7000	-12.1114
▁offices	-12.1115
/01	-12.1119
▁moron	-12.1121
287	-12.1121
esg	-12.1123
italy	-12.1132
▁fired	-12.1132
scor	-12.1133
hate	-12.1136
▁2019(	-12.1138
hern	-12.1138
▁compo	-12.1139
mntr	-12.1141
14,000	-12.1142
dxc	-12.1154
!!!?	-12.1156
ugg	-12.1161
nli	-12.1167
plu	-12.1174
apis	-12.1175
4.1	-12.1178
3$	-12.1179
blc	-12.1181
566	-12.1184
▁calculate	-12.1187
▁mobil	-12.1188
▁mistakes	-12.1193
prom	-12.1193
▁morris	-12.1194
iffany	-12.1197
math	-12.1199
▁skyrocket	-12.1204
peanut	-12.1204
▁alpine	-12.1204
▁association	-12.1204
▁consumption	-12.1204
▁definition	-12.1204
▁diligence	-12.1204
▁exercise	-12.1204
▁licensing	-12.1204
▁victims	-12.1204
▁demonstrate	-12.1204
ntdoy	-12.1204
▁amended	-12.1204
▁merging	-12.1204
▁denver	-12.1204
purple	-12.1204
vlcc	-12.1204
▁opposite	-12.1204
cumulati	-12.1205
▁softbank	-12.1205
area	-12.1205
▁twist	-12.1205
▁lightning	-12.1205
▁enforce	-12.1205
▁translate	-12.1206
▁hiding	-12.1206
▁desktop	-12.1206
▁angry	-12.1206
voyager	-12.1206
▁consolid	-12.1206
aviation	-12.1206
▁wisely	-12.1206
329	-12.1207
▁background	-12.1207
tokenswap	-12.1207
harvest	-12.1208
▁delhi	-12.1209
▁wishlist	-12.121
▁⚡⚡	-12.1211
▁unreal	-12.1212
0.02%	-12.1212
▁reload	-12.1213
▁paycheck	-12.1214
ufo	-12.1214
charged	-12.1215
▁screaming	-12.1215
▁transferr	-12.1215
civic	-12.1216
▁+2.6%	-12.1216
zro	-12.1219
▁-14%	-12.1219
▁dnt	-12.1223
▁reveals	-12.1228
▁tro	-12.123
▁$214	-12.123
nfa	-12.1233
▁cpu	-12.1235
appt	-12.1238
▁(4)	-12.1239
iphi	-12.124
chick	-12.124
ravis	-12.1242
bph	-12.1243
▁brothers	-12.1246
closing	-12.1247
footworship	-12.1248
▁oem	-12.1249
▁technically	-12.1253
▁tbh	-12.1253
$$$$$$	-12.1254
oya	-12.1258
$0.20	-12.1259
liz	-12.1261
▁walking	-12.1261
▁sheets	-12.1268
tph	-12.1269
33%)	-12.1269
▁limits	-12.127
tting	-12.128
▁positioning	-12.128
▁(+0.3	-12.128
▁$1.6	-12.1281
bmo	-12.1289
sunw	-12.129
wpx	-12.1292
ndev	-12.1294
pco	-12.1294
ggle	-12.1305
500$	-12.1311
▁resigns	-12.1311
brands	-12.1311
differ	-12.1313
????????	-12.1318
gsm	-12.1319
▁chg	-12.1319
247	-12.1319
holder	-12.1321
medium	-12.1322
difference	-12.1326
byd	-12.1328
lum	-12.1328
----	-12.1329
bonus	-12.1332
▁finger	-12.1332
maybe	-12.1335
9.9%	-12.1336
bcy	-12.1336
670	-12.1337
motion	-12.134
newyears	-12.1346
fighter	-12.1351
141	-12.136
▁2007	-12.1361
▁centers	-12.1362
plo	-12.1363
▁reserves	-12.1364
▁dare	-12.1367
227	-12.137
sphr	-12.1373
dol	-12.1374
▁meaning	-12.1376
wat	-12.1379
▁dumps	-12.138
rgan	-12.1384
▁bigg	-12.1387
.68%	-12.1387
0.45	-12.1388
wager	-12.1388
580	-12.1389
xts	-12.139
commissions	-12.1392
▁upwards	-12.1393
▁analyz	-12.1394
▁rooms	-12.1395
zion	-12.1395
mmp	-12.1398
anal	-12.1403
▁(-0.9	-12.1411
abet	-12.1416
1.08	-12.1417
---------------	-12.1421
273	-12.143
▁controll	-12.1434
0000000	-12.1434
illa	-12.1439
aniel	-12.1446
cigarette	-12.1454
decentraland	-12.1454
goddessangela	-12.1454
juicylippz	-12.1454
▁description	-12.1454
▁doubling	-12.1454
▁horrible	-12.1454
▁straddle	-12.1454
memphis	-12.1454
▁allocation	-12.1454
renewable	-12.1454
▁inject	-12.1454
▁2019-10-1	-12.1454
▁bitluxury	-12.1454
▁transguy	-12.1455
▁communist	-12.1455
hustle	-12.1455
▁agenda	-12.1455
▁empty	-12.1455
weather	-12.1455
weapon	-12.1455
▁glory	-12.1455
▁bidding	-12.1455
bunny	-12.1455
▁tetra	-12.1455
udoo	-12.1456
▁achievement	-12.1456
afmd	-12.1457
trafficking	-12.1457
▁dispose	-12.1457
▁digest	-12.1457
▁regardless	-12.1457
assworship	-12.1458
shopify	-12.1458
▁trontopia	-12.1458
▁quest	-12.1458
dataprivacy	-12.1459
▁surging	-12.1461
zeit	-12.1462
▁pips	-12.1463
ucle	-12.1463
▁homework	-12.1465
ecn	-12.1466
xoxo	-12.1467
glb	-12.1468
▁0.08	-12.1468
arcade	-12.1471
usecase	-12.1471
stein	-12.1471
lie	-12.1474
▁downward	-12.1474
▁+30%	-12.1477
snn	-12.1477
ella	-12.1479
1998	-12.1485
▁#737	-12.1485
byoc	-12.1487
▁minerals	-12.149
efin	-12.1493
wcg	-12.1495
tokenpay	-12.1496
▁lights	-12.1497
▁stickers	-12.1498
pru	-12.1498
logic	-12.1498
veraging	-12.15
vue	-12.1503
6/19	-12.1504
▁2024	-12.151
trontv	-12.1514
▁1:1	-12.1515
▁speaker	-12.1518
newcom	-12.152
pcs	-12.1522
umz	-12.1522
eek	-12.1524
uti	-12.1525
▁-2.1%	-12.1531
▁letters	-12.1532
osc	-12.1533
dated	-12.1538
etr	-12.1544
producer	-12.1547
▁+18	-12.1548
▁automakers	-12.1548
▁taxpayers	-12.1551
dison	-12.1557
googlepay	-12.1557
9.99	-12.1558
▁actions	-12.1563
gwre	-12.1564
▁24%	-12.1568
doll	-12.1572
toes	-12.1577
▁lawyers	-12.1578
shark	-12.1579
prope	-12.1579
mvp	-12.158
$250	-12.158
▁lawyer	-12.1586
737	-12.1592
cody	-12.1595
▁contains	-12.1597
build	-12.1602
6.50	-12.1605
near	-12.1611
president	-12.1612
rice	-12.1613
tgn	-12.1615
csc	-12.1619
▁payouts	-12.1622
.65%	-12.1623
mgen	-12.1623
!!!!!!!!!	-12.1624
ddd	-12.1625
▁(~$30	-12.1632
agnc	-12.1633
acoin	-12.1634
158	-12.1642
”*	-12.1643
california	-12.1648
pennystock	-12.165
hban	-12.1651
▁daniel	-12.1651
dir	-12.1653
breakout	-12.1655
results	-12.1656
solutions	-12.1658
=1	-12.1658
cmp	-12.1659
limited	-12.1659
proof	-12.166
about	-12.1668
mnpr	-12.1668
▁undo	-12.1669
uge	-12.167
▁algos	-12.167
▁soli	-12.1672
drive	-12.1674
000000	-12.1677
elan	-12.1681
indicated	-12.1685
mnkd	-12.1687
rubi	-12.1688
▁unexpected	-12.169
▁maintains	-12.169
0.65	-12.1693
soles	-12.1697
commit	-12.1705
entrepreneur	-12.1705
▁origin	-12.1706
callisto	-12.171
02/21/2020	-12.171
encrypted	-12.171
▁8100-7900	-12.171
▁brilliant	-12.171
▁browsing	-12.171
▁producing	-12.171
▁squander	-12.171
▁triviata	-12.171
▁variation	-12.171
▁panels	-12.171
▁lyrics	-12.171
identity	-12.171
▁dennis	-12.171
logistics	-12.1711
▁purchasing	-12.1711
▁caution	-12.1711
douglas	-12.1711
▁therefore	-12.1711
▁warehouse	-12.1711
▁invitation	-12.1711
▁landlord	-12.1711
rhett	-12.1711
contentcreator	-12.1711
crowdstrike	-12.1711
▁hints	-12.1711
jewelry	-12.1711
suicide	-12.1711
▁quiet	-12.1712
makeyour	-12.1712
▁submission	-12.1712
▁adress	-12.1712
holochain	-12.1713
▁3/4	-12.1713
▁inevitable	-12.1713
ait	-12.1713
▁relax	-12.1713
▁soars	-12.1713
▁dario	-12.1714
▁refused	-12.1714
psych	-12.1714
▁15:00	-12.1715
andem	-12.1717
ygr	-12.1717
lenetwork	-12.1718
castle	-12.1719
▁menu	-12.172
▁78%	-12.1724
▁moat	-12.1725
▁accused	-12.1725
interactive	-12.1726
▁endless	-12.1728
dollh	-12.1728
selb	-12.1728
halftime	-12.1728
▁concerning	-12.173
▁doors	-12.173
yoga	-12.1731
▁elite	-12.1731
▁($500	-12.1734
▁republicans	-12.1735
▁doesnt	-12.1736
role	-12.1737
emi	-12.1737
▁helpful	-12.1739
▁viable	-12.1743
!❤	-12.1743
awa	-12.1745
346	-12.1745
▁somehow	-12.1747
0.15%	-12.1747
iolet	-12.175
321	-12.1751
him	-12.1754
▁accountable	-12.1754
folder	-12.1755
presenting	-12.1756
$500	-12.1757
ramp	-12.1757
spank	-12.1757
facetime	-12.1757
meter	-12.1758
▁selection	-12.176
yten	-12.1761
blower	-12.1761
▁figured	-12.1762
-40%	-12.1764
ccl	-12.1771
omc	-12.1772
▁chair	-12.178
ivz	-12.1781
▁acting	-12.1783
▁0.7	-12.1785
/29	-12.179
▁smack	-12.1791
25,000	-12.1792
obsv	-12.1795
efo	-12.1798
▁cycles	-12.1801
▁weaker	-12.1803
wage	-12.1804
8/2	-12.181
124	-12.1812
100,000,000	-12.1814
pnw	-12.1815
0.61	-12.1815
▁($600	-12.1822
imax	-12.1824
✨✨	-12.1827
928	-12.1828
gly	-12.1836
▁#15	-12.1838
uv	-12.184
▁gutte	-12.1841
icular	-12.1844
hef	-12.1847
hse	-12.1848
▁instruction	-12.185
oxm	-12.185
563	-12.1851
▁farms	-12.1851
▁(11	-12.1851
▁challenges	-12.1852
▁tent	-12.1857
nfp	-12.1861
ich	-12.1862
hoe	-12.1863
▁maa	-12.1864
poll	-12.1866
?♥	-12.1873
forward	-12.1873
glu	-12.1874
pxs	-12.1875
quotes	-12.1877
osm	-12.1879
slowing	-12.188
ardx	-12.1881
scope	-12.1882
swk	-12.1883
nhl	-12.1883
▁makeup	-12.1886
mufc	-12.1886
▁faa	-12.1887
hive	-12.1888
utt	-12.1892
!!!!??	-12.1895
▁las	-12.19
drones	-12.1909
385	-12.1912
002	-12.1913
rns	-12.1917
esy	-12.1918
▁thermo	-12.1921
eeee	-12.1924
1.70	-12.1925
pepsi	-12.1926
▁drinks	-12.1926
▁wholesale	-12.1929
▁sectors	-12.1931
rstat	-12.1933
interview	-12.1938
▁buffet	-12.1938
gged	-12.1939
acted	-12.194
organization	-12.1948
▁ensure	-12.1951
enable	-12.1952
merchant	-12.1953
ohu	-12.1956
▁1.7	-12.1965
▁poison	-12.1966
australia	-12.1968
▁deaths	-12.1968
ebitda	-12.1969
▁sustain	-12.1972
elli	-12.1972
universal	-12.1974
▁annouce	-12.1974
▁cautious	-12.1974
▁jurisdiction	-12.1974
▁maturity	-12.1974
▁piggies	-12.1974
▁rallied	-12.1974
▁subsidies	-12.1974
▁surround	-12.1974
▁treasure	-12.1974
▁violence	-12.1974
gofundme	-12.1974
▁streak	-12.1974
jamaica	-12.1974
xjeffree	-12.1974
valentinesday	-12.1974
▁clothes	-12.1974
▁genesis	-12.1974
electricvehicle	-12.1974
▁deleted	-12.1974
▁idiots	-12.1974
fridayfeeling	-12.1974
skeptic	-12.1974
▁authority	-12.1974
▁commitment	-12.1974
▁concentrat	-12.1974
▁contender	-12.1974
coldstaking	-12.1974
▁bargain	-12.1974
▁madness	-12.1975
▁tutorial	-12.1975
airpods	-12.1975
rystalko	-12.1975
digitalmarketing	-12.1975
airforce	-12.1976
▁blackrock	-12.1976
entries	-12.1979
▁native	-12.1981
consumer	-12.1981
liquidity	-12.1981
▁properly	-12.1982
storage	-12.1982
1.94	-12.1983
kindness	-12.1983
announcement	-12.1985
▁slapping	-12.1987
analyst	-12.1987
grass	-12.1987
▁tail	-12.1989
should	-12.1989
icpt	-12.1989
validation	-12.199
▁baji	-12.199
lucky	-12.1991
▁hoax	-12.1991
better	-12.1992
▁eoy	-12.1993
▁disappointed	-12.1993
▁flush	-12.1993
▁+22%	-12.1994
expected	-12.1996
▁manufacturer	-12.1996
leave	-12.1996
tradingsignals	-12.1996
▁originally	-12.2
▁188	-12.2001
ume	-12.2003
▁69%	-12.2003
exit	-12.2004
lltf	-12.2004
▁mover	-12.2004
▁warns	-12.2005
▁pivotal	-12.2006
▁manipulated	-12.2006
▁crashes	-12.2007
▁destroying	-12.2008
rinse	-12.2009
baba	-12.2011
also	-12.2014
▁attempts	-12.2018
▁batch	-12.2023
lyy	-12.2025
▁.004	-12.2029
cheating	-12.203
huck	-12.2031
▁realtime	-12.2031
▁2019-08-0	-12.2032
1.01	-12.2036
exr	-12.2037
100$	-12.2039
▁deposition	-12.204
duty	-12.2044
chile	-12.2045
color	-12.2045
blin	-12.2048
asi	-12.2049
1990	-12.2053
valuation	-12.2054
jbl	-12.2058
▁slight	-12.2058
session	-12.2059
oxi	-12.2061
▁enabled	-12.2065
towatch	-12.207
wsm	-12.2073
mommy	-12.2076
▁?3	-12.2077
qan	-12.208
industrial	-12.2084
flyer	-12.2086
▁aside	-12.2094
pcg	-12.2095
protect	-12.2099
logi	-12.2099
▁fails	-12.2105
▁-2%	-12.2108
fsm	-12.2117
bzt	-12.2118
▁tariff	-12.212
161	-12.2122
▁marked	-12.2123
galt	-12.2123
summer	-12.2129
bush	-12.2129
cashback	-12.2133
swc	-12.2143
duct	-12.2145
rolled	-12.2145
oken	-12.215
pct	-12.2157
zk	-12.2158
hut	-12.2161
lane	-12.2163
▁moments	-12.2167
▁surprises	-12.217
arci	-12.2178
gpc	-12.218
▁integrat	-12.2183
von	-12.2185
▁kicks	-12.2188
wgr	-12.2188
▁fulfill	-12.2194
2023	-12.2196
▁adjust	-12.22
positions	-12.2201
▁(100	-12.2204
▁exo	-12.2207
/08	-12.2207
wpg	-12.221
▁(-6	-12.2211
▁(24	-12.2213
▁???❤	-12.2215
bny	-12.223
1.60	-12.2232
manufacturers	-12.2232
saudi	-12.2238
ifrx	-12.224
kera	-12.2242
debt	-12.2242
object	-12.2244
apologize	-12.2244
commodity	-12.2244
futureofwork	-12.2244
tronscanquizweek	-12.2244
▁critics	-12.2244
▁dispensaries	-12.2244
▁fraudulent	-12.2244
▁nhtsa	-12.2244
▁phenomenal	-12.2244
▁territory	-12.2244
▁university	-12.2244
village	-12.2244
pelosi	-12.2244
pundix	-12.2244
aerospace	-12.2244
▁2019-09-2	-12.2244
diesel	-12.2244
asterpiece	-12.2244
sugarbaby	-12.2244
puppy	-12.2244
communicat	-12.2244
▁banned	-12.2244
joseph	-12.2245
▁specifically	-12.2245
ungeon	-12.2246
▁intact	-12.2246
madden	-12.2246
kitten	-12.2247
▁glasses	-12.2247
lgcy	-12.2247
▁bottle	-12.2248
jedi	-12.2248
▁pennyland	-12.2248
dildo	-12.2248
▁validate	-12.2249
whatsapp	-12.2249
aspu	-12.225
▁stopping	-12.2253
▁convinced	-12.2254
▁hanging	-12.2255
apollo	-12.2255
▁safest	-12.2256
refuse	-12.2256
lbtyk	-12.2257
ict	-12.2258
sexual	-12.2259
▁suspended	-12.2259
myft	-12.2262
229	-12.2263
ethplo	-12.2263
etst	-12.2264
▁executed	-12.2266
322	-12.2266
▁"<	-12.2268
2.37	-12.227
oopid	-12.227
▁disappointing	-12.227
▁100.000	-12.2274
▁selloff	-12.2275
▁barr	-12.2278
mesa	-12.2278
isation	-12.2278
▁23/10	-12.2279
sgbx	-12.228
fw	-12.2284
▁dogs	-12.2285
restore	-12.2289
crisp	-12.229
ectus	-12.2292
▁barrel	-12.2294
fcu	-12.2294
sappointed	-12.2301
▁15,000	-12.2306
▁17:00	-12.2306
monitoring	-12.2307
▁wealthy	-12.2309
▁pois	-12.2311
▁awaiting	-12.2311
aggi	-12.2312
outbreak	-12.2314
▁-2.2%	-12.2316
9.7%	-12.2321
halloween	-12.2321
0.19%	-12.2323
283	-12.2325
fresh	-12.2329
needs	-12.2329
deposit	-12.2329
momentum	-12.2331
nmus	-12.2331
double	-12.2331
office	-12.2331
nobody	-12.2332
▁slides	-12.234
warn	-12.2341
721	-12.2344
oda	-12.2346
takers	-12.2347
245	-12.2349
8.9%	-12.2355
dcr	-12.2357
sept	-12.2362
9.50	-12.2363
132	-12.2364
voice	-12.2364
growing	-12.2366
xtc	-12.2367
6.2%	-12.2368
csr	-12.2369
indie	-12.2372
hawk	-12.2374
riah	-12.2375
▁soup	-12.2379
425	-12.238
expr	-12.2381
iley	-12.2382
▁tear	-12.2383
▁allmo	-12.2391
▁ipos	-12.2396
hedgefund	-12.2398
▁aboard	-12.2403
1.38	-12.2407
stine	-12.2407
24-	-12.2412
sense	-12.2417
▁0.15	-12.242
▁fools	-12.2422
347	-12.2423
olv	-12.2428
obi	-12.2435
lime	-12.2439
▁.005	-12.2443
blown	-12.2444
terra	-12.2448
▁3+	-12.2448
▁modules	-12.245
ttm	-12.2458
▁shitcoins	-12.2463
▁retailer	-12.2468
▁manipulat	-12.2471
hng	-12.2475
rsc	-12.2479
crown	-12.2481
4:00	-12.2482
1.4%	-12.2485
bnn	-12.2486
640	-12.2491
angi	-12.2493
tmx	-12.2499
republican	-12.2502
rrori	-12.2505
▁obtain	-12.2508
▁screenshots	-12.2508
joi	-12.2509
lover	-12.2515
clinic	-12.2515
▁constant	-12.2517
5.50	-12.2519
andboxsamaritans	-12.2522
custodianship	-12.2522
decentralised	-12.2522
hollywood	-12.2522
▁10100-10350!	-12.2522
▁absurd	-12.2522
▁canaccord	-12.2522
▁carnival	-12.2522
▁conclusion	-12.2522
▁connectivity	-12.2522
▁cultivation	-12.2522
▁exploit	-12.2522
▁lesbian	-12.2522
▁naughty	-12.2522
▁obligation	-12.2522
plnhf	-12.2522
▁spooky	-12.2522
shield	-12.2522
▁convict	-12.2522
▁vendor	-12.2522
▁vanguard	-12.2522
ontario	-12.2522
dutch	-12.2522
▁bullying	-12.2522
▁2019-09-1	-12.2522
heinz	-12.2522
▁relief	-12.2522
▁coupon	-12.2522
▁pennant	-12.2522
kraft	-12.2523
▁legendary	-12.2523
ugdm	-12.2523
sldb	-12.2523
▁painted	-12.2523
▁minister	-12.2523
arkhunt	-12.2523
▁attract	-12.2523
▁celeb	-12.2524
mobility	-12.2524
▁framework	-12.2525
▁pension	-12.2525
10.3%	-12.2527
rlgy	-12.2527
library	-12.2528
fifo	-12.2528
▁underperform	-12.2529
495	-12.2529
▁operational	-12.2529
▁nut	-12.2529
predictive	-12.253
▁awake	-12.253
hosts	-12.2531
intel	-12.2531
ota	-12.2532
▁hacked	-12.2532
opgn	-12.2535
asck	-12.2535
▁khan	-12.2536
binary	-12.2538
▁merch	-12.2538
▁0.21	-12.2541
▁0.004	-12.2542
bbd	-12.2543
solo	-12.2543
▁momma	-12.2545
▁laughing	-12.2548
gna	-12.255
anime	-12.2551
▁(+0.5	-12.2551
▁merge	-12.2552
lov	-12.2552
brain	-12.2554
geist	-12.2555
▁analyze	-12.2556
$£	-12.2558
tts	-12.2562
demon	-12.2563
cular	-12.2563
▁safely	-12.2564
style	-12.257
▁rental	-12.2573
▁grad	-12.2574
pinks	-12.2575
hfs	-12.2578
egoc	-12.258
tomop	-12.2584
improve	-12.2585
▁streams	-12.2587
racy	-12.2588
laire	-12.2593
▁licenses	-12.2595
astro	-12.2596
kpti	-12.2596
▁drives	-12.2602
560	-12.2605
eled	-12.2606
.45%	-12.2606
$15	-12.2606
awty	-12.2607
pup	-12.2608
▁longterm	-12.2611
fnm	-12.2612
symmetr	-12.2617
proc	-12.2617
▁crossovers	-12.2619
prince	-12.2621
aan	-12.2623
ifl	-12.2627
▁crashing	-12.2628
▁founders	-12.2634
roids	-12.2635
rsx	-12.2635
▁interi	-12.2638
odp	-12.2641
atory	-12.2642
▁enroll	-12.2647
jean	-12.2648
▁0.27	-12.2649
ratio	-12.2649
alice	-12.265
antly	-12.2652
aho	-12.2656
▁2019-08-1	-12.2662
medic	-12.2665
peck	-12.2668
-20%	-12.2671
joe	-12.2672
walk	-12.2673
hloe	-12.2677
2400	-12.2683
(+2	-12.2685
cyb	-12.2685
.76%	-12.2686
orby	-12.2686
shanghai	-12.2687
remember	-12.2689
▁1,5	-12.269
september	-12.269
5/19	-12.2697
interest	-12.2701
phg	-12.2701
▁resign	-12.2703
omer	-12.2704
young	-12.2706
▁13)	-12.2716
endv	-12.2716
▁sued	-12.2717
1.35	-12.2719
peak	-12.2721
isol	-12.2722
needed	-12.2723
▁cae	-12.2725
looking	-12.2726
afd	-12.2728
(12	-12.2728
orr	-12.2732
oooo	-12.2736
▁fuels	-12.2736
▁1100	-12.2744
echo	-12.2744
unch	-12.2748
animals	-12.2754
updated	-12.2758
.91%	-12.2762
▁513.	-12.277
miners	-12.2771
▁cara	-12.2771
crypt	-12.2771
hee	-12.2773
details	-12.2777
gio	-12.2778
440	-12.2779
fas	-12.2781
doctor	-12.2784
shuf	-12.2789
rcel	-12.2792
▁manufacture	-12.2795
curate	-12.2797
▁donated	-12.2798
ookie	-12.2799
▁cheat	-12.28
▁substantial	-12.2802
destructi	-12.2807
ingasharebefore	-12.2807
discipline	-12.2807
ificate	-12.2807
preciousmetal	-12.2807
▁2019/07/2	-12.2807
▁appreciation	-12.2807
▁buffalo	-12.2807
▁capabilities	-12.2807
▁chemicals	-12.2807
▁pentagon	-12.2807
▁policies	-12.2807
▁unprecedented	-12.2807
phishing	-12.2807
▁frnds	-12.2807
cardinal	-12.2807
▁prospective	-12.2808
▁unjustifi	-12.2808
curaleaf	-12.2808
llnw	-12.2808
▁resolve	-12.2808
yacht	-12.2808
▁jason	-12.2808
▁chocolate	-12.2808
bydd	-12.2808
▁gateway	-12.2808
▁naiom	-12.2809
guardian	-12.2809
▁managing	-12.2809
civil	-12.2809
showoff	-12.281
ville	-12.281
▁interaction	-12.281
▁secretary	-12.281
▁chatter	-12.2811
▁presidential	-12.2811
vgi	-12.2812
▁pretend	-12.2812
marvel	-12.2812
▁powerhouse	-12.2813
=$20	-12.2813
memory	-12.2814
▁0.26	-12.2815
▁talented	-12.2816
extraction	-12.2816
ainware	-12.2818
fud	-12.2818
justin	-12.2819
yolo	-12.2819
▁bored	-12.282
dappchain	-12.2822
▁poisoned	-12.2822
▁barron	-12.2828
▁sweat	-12.2829
▁justify	-12.2829
▁deployed	-12.283
thursdaythought	-12.283
▁lockup	-12.2832
▁+39%	-12.2832
▁7700	-12.2834
▁crushed	-12.2835
▁miz	-12.2837
▁crying	-12.284
▁surpass	-12.2841
snss	-12.2842
epic	-12.2844
rgp	-12.2846
oncy	-12.2846
▁execs	-12.2847
▁0.008	-12.2848
▁5-10	-12.2849
duo	-12.2852
treats	-12.2857
▁collecting	-12.2858
tib	-12.2859
▁wasting	-12.2862
▁trucks	-12.2864
▁lmfao	-12.2865
500,000	-12.2866
8.8%	-12.2871
▁troll	-12.2872
cannabisstocks	-12.2872
afo	-12.2875
fxe	-12.2884
▁mgmt	-12.2887
▁bloody	-12.2889
1.37	-12.2889
hos	-12.2893
▁forgotten	-12.2895
ecb	-12.2898
hope	-12.2901
▁1033	-12.2906
koin	-12.2908
hnc	-12.2909
urg	-12.2913
▁warrants	-12.2914
urn	-12.2918
flx	-12.2919
carbon	-12.2925
dao	-12.2926
▁fins	-12.2929
rrc	-12.293
808	-12.2932
777	-12.2933
337	-12.2936
▁-4.1	-12.2937
▁0.000003	-12.2941
▁consol	-12.2943
unfair	-12.2943
bond	-12.2959
lps	-12.296
bnk	-12.2968
razy	-12.2969
gii	-12.2969
▁requirement	-12.2972
▁doug	-12.2973
▁component	-12.2977
▁clearing	-12.2977
daysofco	-12.298
▁improvement	-12.2981
▁strip	-12.2998
▁emotional	-12.3001
icr	-12.3001
169	-12.3008
8/19	-12.3009
▁+24	-12.3009
▁strongly	-12.3012
▁meal	-12.3015
ckin	-12.3015
▁factors	-12.3028
005	-12.3029
desi	-12.3033
▁movies	-12.3037
289	-12.3037
▁implement	-12.304
▁blai	-12.3041
constellation	-12.3045
eks	-12.3046
hov	-12.3048
▁providers	-12.3048
channel	-12.3051
candle	-12.3051
canopy	-12.3051
verified	-12.3053
buzz	-12.3056
???15	-12.3057
785	-12.3058
boxl	-12.3061
clinton	-12.3061
189	-12.3066
aum	-12.3067
▁dragg	-12.3068
.36%	-12.3073
ground	-12.3073
herba	-12.3073
instrument	-12.3075
raise	-12.3076
multi	-12.3085
stack	-12.3086
wld	-12.3089
/23/19	-12.3094
promote	-12.3096
▁excess	-12.3098
▁relations	-12.3099
▁genuine	-12.3101
colombia	-12.3101
fivekeyquestions	-12.3101
guinness	-12.3101
merchandise	-12.3101
oilandgas	-12.3101
phillips	-12.3101
recruit	-12.3101
triumph	-12.3101
volkswagen	-12.3101
▁choosing	-12.3101
▁district	-12.3101
▁explosion	-12.3101
▁implication	-12.3101
▁mechanism	-12.3101
▁mirror	-12.3101
▁recycling	-12.3101
▁twilio	-12.3101
massadoption	-12.3101
10/18/2019	-12.3102
▁arrival	-12.3102
hyundai	-12.3102
▁nickname	-12.3102
falcon	-12.3102
▁nancy	-12.3102
passenger	-12.3102
▁dealership	-12.3102
▁teaser	-12.3102
▁humble	-12.3102
financialfreedom	-12.3103
▁unbelievable	-12.3103
▁bench	-12.3103
oli	-12.3103
ictoria	-12.3104
unbiased	-12.3104
▁keystore	-12.3104
▁protesters	-12.3104
mplx	-12.3104
▁airpo	-12.3105
efir	-12.3106
▁soldier	-12.3107
▁stunning	-12.3107
chronic	-12.3108
butter	-12.3109
▁screwed	-12.3109
manyvids	-12.311
dead	-12.311
tele	-12.311
▁passion	-12.3114
built	-12.3116
vast	-12.3117
byob	-12.3118
▁meantime	-12.3119
freestyle	-12.3121
apy	-12.3123
▁$204	-12.3124
▁doj	-12.3125
▁66%	-12.3125
(3)	-12.3126
asap	-12.3129
▁commentary	-12.3129
bigtech	-12.313
▁maintained	-12.3131
▁tripp	-12.3131
▁(1)	-12.3131
▁steven	-12.3133
bcs	-12.3135
184	-12.3136
idng	-12.3144
burg	-12.3151
1.31	-12.3151
▁treated	-12.3152
bdy	-12.3153
series	-12.3156
vegan	-12.3164
▁rockets	-12.3165
nlc	-12.3165
amani	-12.3166
▁ties	-12.3168
401	-12.3168
basic	-12.3171
ftv	-12.3172
▁-2.6%	-12.3172
278	-12.3173
▁nowhere	-12.3178
grab	-12.3179
▁separate	-12.318
▁seats	-12.3183
tube	-12.3185
stockcha	-12.3188
inous	-12.3189
1.06	-12.3189
▁630	-12.32
970	-12.3204
▁hires	-12.3206
banca	-12.3209
tpay	-12.321
spn	-12.3214
agco	-12.3217
▁$2.8	-12.3219
-28	-12.3221
▁#❤❤❤	-12.3223
177	-12.3224
ypal	-12.3225
lcf	-12.3226
xsn	-12.3226
oooooooooooooo	-12.3226
▁snow	-12.3232
lok	-12.3232
▁1.3	-12.3237
initial	-12.3237
tries	-12.3242
flr	-12.3246
!!!!!!!!	-12.3248
uda	-12.325
coi	-12.3253
▁tall	-12.3256
linger	-12.3258
.009	-12.3261
bilz	-12.3262
lord	-12.3274
+50%	-12.3276
rpd	-12.3288
hrist	-12.3291
11.5%	-12.3293
backup	-12.3294
higher	-12.33
knx	-12.33
rai	-12.3302
yhoo	-12.3306
▁intl	-12.3307
9/10	-12.3315
8.50	-12.3316
▁$105	-12.3317
228	-12.3319
frz	-12.332
construction	-12.3328
299	-12.3334
▁monitor	-12.3335
0.94	-12.3338
swft	-12.3343
▁105	-12.3345
2.23	-12.3346
vib	-12.3346
786	-12.3353
integra	-12.336
lne	-12.3363
itch	-12.3367
▁+16	-12.3367
uuuu	-12.3378
spirit	-12.3379
millennial	-12.3381
evolution	-12.3388
hfc	-12.3392
▁episodes	-12.3392
ragon	-12.3395
▁danger	-12.3397
▁2019-11-0	-12.3402
celer	-12.3402
▁harass	-12.3402
▁durable	-12.3402
authentic	-12.3405
democracy	-12.3405
▁congratulate	-12.3405
▁generator	-12.3405
▁genuity	-12.3405
▁registrant	-12.3405
▁thomson	-12.3405
cellular	-12.3405
!⚡⚡	-12.3405
bakkt	-12.3405
▁scientific	-12.3405
▁competing	-12.3405
▁baird	-12.3405
▁qoq	-12.3405
▁candlestick	-12.3405
▁licence	-12.3405
▁serial	-12.3405
▁fruit	-12.3405
▁efficiency	-12.3405
▁liability	-12.3405
▁intent	-12.3405
sierra	-12.3405
seattle	-12.3405
▁insult	-12.3406
campbell	-12.3406
▁compass	-12.3406
▁vodi	-12.3407
bkln	-12.3407
▁pledge	-12.3408
▁republic	-12.3409
wifi	-12.3409
svxy	-12.341
▁noticeable	-12.3413
▁accomplished	-12.3414
auri	-12.3417
upro	-12.3418
▁needham	-12.342
mxn	-12.3421
▁publication	-12.3421
blockfolio	-12.3421
262	-12.3422
chase	-12.3422
▁spoken	-12.3422
▁billionaires	-12.3423
jaco	-12.3423
▁delisting	-12.3423
▁100000000	-12.3424
▁+2.1%	-12.3424
▁patiently	-12.3427
2.27	-12.343
goodluck	-12.3431
▁nearing	-12.3432
outperform	-12.3432
▁plugg	-12.3432
ooooo	-12.3434
▁purposes	-12.3434
visual	-12.3436
triple	-12.3436
▁atlas	-12.3437
survey	-12.3437
gmb	-12.3438
expensive	-12.3439
chaos	-12.3443
▁memo	-12.3448
pgvi	-12.3449
▁topping	-12.3451
1.05	-12.3452
▁+0.9	-12.3452
cutie	-12.3455
00:00	-12.3456
▁subscriptions	-12.3458
rdgl	-12.346
520	-12.346
ook	-12.3465
saml	-12.3466
idad	-12.3467
cabot	-12.3469
ycc	-12.3472
inside	-12.3474
oise	-12.3475
citing	-12.3475
▁+$1	-12.3477
901	-12.348
clark	-12.348
0.77	-12.3483
educat	-12.3491
mtb	-12.3497
evm	-12.3501
alv	-12.3502
✨✨✨	-12.3506
0.31	-12.3508
drip	-12.3508
slot	-12.3512
2.86	-12.3513
sxc	-12.3514
15)	-12.3514
ollars	-12.3518
▁10/2	-12.3519
azrx	-12.352
wj	-12.352
freebie	-12.3522
limit	-12.3538
2.80	-12.354
10.4%	-12.354
bgl	-12.3541
truth	-12.3543
(15	-12.3543
cocos	-12.3549
mae	-12.3551
aita	-12.3563
anz	-12.3564
whit	-12.3572
blive	-12.3575
339	-12.3582
bno	-12.3587
1.58	-12.3593
78%)	-12.3599
▁-2.9	-12.3605
square	-12.3606
bdo	-12.3623
436	-12.3624
▁+12	-12.3624
sits	-12.3625
dbl	-12.3627
463	-12.3628
▁06:	-12.3628
potstock	-12.363
▁nope	-12.3631
inthe	-12.3633
pirs	-12.3637
43:	-12.3637
urban	-12.365
erge	-12.3658
aqui	-12.3663
newsbreak	-12.3668
▁12)	-12.3668
rhc	-12.367
▁(+3	-12.3671
1.12	-12.3671
lse	-12.3674
0.81	-12.3675
2/10	-12.3681
cybr	-12.3681
ttx	-12.3681
hase	-12.3689
bern	-12.369
acked	-12.3693
bev	-12.3698
690	-12.3703
▁colleg	-12.3706
exponential	-12.3716
iav	-12.3716
compliant	-12.3717
festival	-12.3717
▁gentlemen	-12.3717
▁proprietary	-12.3717
▁subscribing	-12.3717
▁vodafone	-12.3717
▁capitol	-12.3717
heritage	-12.3717
▁engaged	-12.3717
▁fossil	-12.3717
▁insanity	-12.3717
arizona	-12.3717
▁guidelines	-12.3717
▁parabola	-12.3717
▁bruce	-12.3717
essagoddess	-12.3717
maselle	-12.3717
▁abusive	-12.3718
directsales	-12.3718
▁bidaskscore	-12.3718
gil	-12.3718
laughter	-12.3718
▁8:30	-12.3718
▁creamcoin	-12.3718
harvard	-12.3718
infosec	-12.3718
bitch	-12.3718
oak	-12.3718
mariana	-12.3718
▁wearing	-12.3719
▁alongside	-12.3719
rdfn	-12.3719
bravo	-12.372
▁showcase	-12.372
lifestyle	-12.3721
pcn	-12.3721
▁slowdown	-12.3721
democratic	-12.3721
▁bofa	-12.3722
▁subway	-12.3723
▁1,500	-12.3723
▁rejected	-12.3724
▁publishing	-12.3724
▁+2.8	-12.3724
▁.25	-12.3726
▁serving	-12.3727
hiiq	-12.3727
▁+19%	-12.3727
4.06	-12.3729
nicole	-12.3729
sendmoney	-12.373
headqua	-12.373
wallst	-12.3732
▁morningstar	-12.3733
▁reasonable	-12.3735
stoxx	-12.3736
▁5-7	-12.3737
▁bother	-12.3739
▁emissions	-12.374
▁+31%	-12.3742
▁teaching	-12.3744
▁african	-12.3744
▁suffering	-12.3744
lambo	-12.3745
appletv	-12.3745
chk	-12.3747
▁spark	-12.3749
chz	-12.375
1.11	-12.3751
hmo	-12.3752
qure	-12.3753
mtp	-12.3754
▁moody	-12.3755
▁useless	-12.3759
▁goodmorning	-12.3761
▁11)	-12.3761
ngaz	-12.3762
822	-12.3762
▁wain	-12.3763
liga	-12.3763
qtm	-12.3767
grmn	-12.377
0.85	-12.3772
▁exploded	-12.3773
cyt	-12.3773
government	-12.3775
gne	-12.3776
inmd	-12.3778
▁imma	-12.3778
▁declared	-12.3779
union	-12.3785
4.99	-12.3785
wwr	-12.3792
gusd	-12.3794
12,000	-12.3795
▁accordingly	-12.3798
lks	-12.3802
▁sis	-12.3803
mbx	-12.3803
9.6%	-12.3804
apn	-12.3812
▁shower	-12.3814
nugs	-12.3814
payme	-12.3815
bali	-12.3819
9,000	-12.3819
ique	-12.382
▁massively	-12.3822
div	-12.3825
▁-22%	-12.3827
▁1.9	-12.3838
undermining	-12.3839
browser	-12.384
emerging	-12.3841
zom	-12.3841
multiple	-12.3842
deutsche	-12.3842
▁20$	-12.3842
including	-12.3844
focused	-12.3844
stalled	-12.3845
could	-12.3847
0.95	-12.3848
uaw	-12.3849
experience	-12.385
cole	-12.3854
buyback	-12.3858
number	-12.3861
wild	-12.3863
▁dope	-12.3864
emn	-12.3866
krw	-12.3868
ifm	-12.3869
jones	-12.3871
bll	-12.3875
▁fingers	-12.3875
icker	-12.388
▁kel	-12.3882
obama	-12.3884
ranking	-12.3889
▁0.20	-12.3893
avn	-12.3893
99.99	-12.39
davis	-12.3903
rous	-12.3904
alim	-12.3909
▁taxpayer	-12.3915
▁derivative	-12.3916
panic	-12.3919
▁11/2	-12.3921
▁coz	-12.3924
▁rival	-12.3924
bbk	-12.3926
▁cz	-12.3931
▁answering	-12.3932
lbty	-12.3933
src	-12.3935
therapy	-12.3938
kik	-12.3942
▁vul	-12.3943
alu	-12.3945
▁12/2	-12.3951
▁heal	-12.3952
sbr	-12.3952
▁democrat	-12.3958
wide	-12.3963
▁19%	-12.3967
funded	-12.3971
▁complain	-12.3986
mcd	-12.3988
▁expir	-12.399
▁challeng	-12.3991
mls	-12.3995
held	-12.3996
▁argu	-12.3999
asr	-12.4008
vital	-12.401
tivity	-12.4029
sugar	-12.4029
-19%	-12.4031
▁interact	-12.4036
886	-12.4037
wreck	-12.4037
10+	-12.4039
torrent	-12.4039
08/16/2019	-12.404
digifinex	-12.404
hamilton	-12.404
satellite	-12.404
tournament	-12.404
▁1,2,3	-12.404
▁circulation	-12.404
▁neither	-12.404
▁receipt	-12.404
▁reputation	-12.404
▁semester	-12.404
▁utilizing	-12.404
vaylaiens	-12.404
▁frighten	-12.404
▁ignorant	-12.404
11/15/2019	-12.404
kraken	-12.404
maggot	-12.404
▁oregon	-12.404
▁misleading	-12.404
yanggang	-12.404
▁tensions	-12.404
aphria	-12.404
unnamed	-12.404
indonesia	-12.404
▁informed	-12.404
avdl	-12.404
dallas	-12.404
xbrf	-12.4041
giff	-12.4041
licious	-12.4041
▁rotation	-12.4041
blackjack	-12.4042
▁factories	-12.4042
boston	-12.4042
relapse	-12.4042
▁receivable	-12.4043
azure	-12.4044
▁mojo	-12.4044
▁yoda	-12.4045
▁deere	-12.4045
▁4/5	-12.4045
pharmacy	-12.4047
danaher	-12.4047
▁shitty	-12.4048
precision	-12.4049
▁$15,000	-12.4049
810	-12.4049
ldos	-12.405
▁11/14	-12.405
raight	-12.405
▁complie	-12.4052
▁bugs	-12.4054
▁0.28	-12.4054
▁historically	-12.4055
▁angeles	-12.4056
anderson	-12.4056
medtech	-12.4059
▁7900	-12.406
▁prospects	-12.4063
▁lemm	-12.4064
▁guessing	-12.4069
mmmm	-12.4069
rack	-12.407
pixel	-12.407
enhanc	-12.4074
-$2	-12.4077
▁cantor	-12.4081
0.03%	-12.4085
acas	-12.4086
bbc	-12.4086
▁plain	-12.4086
▁pounds	-12.4087
▁masses	-12.4087
▁generally	-12.4093
bpmc	-12.4095
8.0%	-12.4095
▁2022	-12.4097
▁classes	-12.4098
wellness	-12.4098
▁specs	-12.4098
aee	-12.4103
boli	-12.4104
fnn	-12.4106
▁heck	-12.4106
▁streamers	-12.4107
xpe	-12.4107
▁fq	-12.4108
aze	-12.4109
9.3%	-12.4111
cbi	-12.4115
rhoc	-12.4119
gbdc	-12.4119
evok	-12.412
500.00	-12.4125
mmsi	-12.4126
▁tide	-12.4128
▁neg	-12.413
review	-12.4132
▁shoulder	-12.4136
katx	-12.4137
spxu	-12.4138
mitch	-12.4144
720	-12.4147
iwd	-12.415
homas	-12.415
▁133	-12.4153
gwr	-12.4154
nyb	-12.4159
lifting	-12.416
0.05%	-12.4163
120%	-12.4164
fitb	-12.4165
576	-12.4166
0.17%	-12.4167
364	-12.4167
▁pause	-12.417
.55%	-12.417
ilc	-12.4173
pattern	-12.4176
▁suv	-12.4185
2.03	-12.4186
insu	-12.4193
homeless	-12.4198
lana	-12.4206
rie	-12.4206
teo	-12.4208
utm	-12.4219
cmd	-12.4227
▁hilo	-12.4229
stage	-12.4231
567	-12.4238
830	-12.4243
lno	-12.4244
▁2/1	-12.4247
▁automaker	-12.425
known	-12.4255
distribution	-12.4259
▁--------------	-12.4259
blood	-12.426
vaccine	-12.4261
massive	-12.4261
almost	-12.4262
tomorrow	-12.4263
shv	-12.4264
⏰	-12.4268
cheap	-12.427
aqua	-12.4273
243	-12.4278
bdc	-12.4278
deline	-12.4279
▁depends	-12.428
▁??????????????	-12.4282
ansf	-12.4285
teammates	-12.4286
193	-12.4288
▁kings	-12.4292
early	-12.4296
0.000004	-12.4296
277	-12.4298
0.40	-12.4302
trex	-12.4303
runner	-12.4308
oin	-12.4308
vsys	-12.4312
$2.3	-12.4316
hud	-12.4334
3.25	-12.4334
tied	-12.4337
vty	-12.4339
exhibit	-12.4347
berry	-12.4354
▁0.007	-12.4359
▁measures	-12.4359
615	-12.4361
iop	-12.4363
itution	-12.4368
▁customize	-12.4369
volving	-12.4371
gorgeous	-12.4373
ingredients	-12.4373
phoenix	-12.4373
scavenger	-12.4373
supremacy	-12.4373
▁9100-9200	-12.4373
▁enormous	-12.4373
▁experiencing	-12.4373
▁mcclatchy	-12.4373
▁optimism	-12.4373
▁petition	-12.4373
▁prescription	-12.4373
▁scrutiny	-12.4373
01/17/2020	-12.4373
▁dorsey	-12.4373
▁lurking	-12.4373
cleveland	-12.4373
09/20/2019	-12.4373
fifty	-12.4373
avatar	-12.4373
▁nationwide	-12.4373
▁cigna	-12.4373
▁scnpenny	-12.4373
cryptoraves	-12.4373
airbus	-12.4373
▁justinsuntron	-12.4374
▁jonas	-12.4374
▁nikki	-12.4374
clovis	-12.4374
mhhc	-12.4374
▁entities	-12.4374
▁24242424	-12.4374
▁bailout	-12.4375
sprott	-12.4375
cision	-12.4375
barriers	-12.4375
▁sentence	-12.4376
▁handful	-12.4376
▁6950	-12.4376
775	-12.4378
avtr	-12.4378
morph	-12.4378
▁11:30	-12.4378
▁severe	-12.4378
▁kevin	-12.4378
▁$6100	-12.4379
400%	-12.438
heaven	-12.4381
▁mouse	-12.4381
▁suddenly	-12.4381
▁pissed	-12.4383
828	-12.4383
iod	-12.4387
jnj	-12.4388
▁0.0000019	-12.4391
▁+1.6%	-12.4391
▁plate	-12.4392
hyda	-12.4393
▁sidechain	-12.4393
▁specialize	-12.4394
capitalism	-12.4394
▁250000	-12.4395
1.24	-12.4395
▁+2.3%	-12.4396
lpth	-12.4397
flare	-12.4398
▁2/25	-12.44
▁australian	-12.44
dun	-12.4405
▁adopted	-12.441
▁sue	-12.441
▁8100	-12.441
279	-12.441
stealth	-12.4414
▁albe	-12.4416
fhai	-12.4418
▁entirely	-12.4429
dgbat	-12.4431
1/7	-12.4436
outdoor	-12.4437
▁suggested	-12.4438
yog	-12.444
obc	-12.444
street	-12.4441
fwon	-12.4449
___	-12.4449
▁counter	-12.4449
assisted	-12.4451
▁generational	-12.4454
uy	-12.4455
acqui	-12.4455
825	-12.4458
apping	-12.4464
shnd	-12.4468
▁fixing	-12.4473
▁circ	-12.4476
348	-12.4477
▁millionaires	-12.4479
15$	-12.4483
dumdums	-12.4487
apex	-12.449
ebst	-12.4492
▁warrant	-12.4495
accept	-12.4496
▁centre	-12.4497
erra	-12.4499
292	-12.4499
thankyou	-12.4502
▁gdx	-12.4505
▁doji	-12.4507
▁40000	-12.4519
goon	-12.4521
essa	-12.4524
reof	-12.4529
izzy	-12.4538
gogo	-12.4541
▁monies	-12.4541
▁buzzin	-12.4541
975	-12.4542
igi	-12.4546
▁hunting	-12.4546
daysof	-12.4552
vacations	-12.456
/100	-12.4566
2.91%	-12.4575
▁slamm	-12.4576
▁outlets	-12.4581
▁280	-12.4591
waf	-12.4591
▁oppose	-12.4592
heating	-12.4594
▁timeframe	-12.4594
760	-12.4601
www	-12.461
bygirl	-12.461
asur	-12.4611
▁$48.	-12.4613
100.00	-12.4613
▁0.29	-12.4615
0.53	-12.4629
▁$0.23	-12.4631
1.18	-12.4633
singer	-12.4635
btu	-12.4636
process	-12.464
nmm	-12.4643
xbox	-12.4647
hui	-12.4649
icf	-12.4656
currencies	-12.4657
98%	-12.4659
▁tricks	-12.467
gcap	-12.4672
lays	-12.4673
ffnt	-12.4674
eads	-12.4674
insy	-12.4676
787	-12.4677
eeeeee	-12.4679
emergency	-12.4681
▁$1.30!	-12.4681
11/29	-12.4682
gamer	-12.4683
prediction	-12.4686
manufacturing	-12.4688
control	-12.4688
bubble	-12.4689
▁magical	-12.469
message	-12.4691
protocol	-12.4691
john	-12.4691
canadian	-12.4693
creates	-12.4694
welcome	-12.4695
email	-12.4695
sector	-12.4696
simple	-12.4696
▁+15	-12.4696
ieve	-12.4701
directly	-12.4701
vir	-12.4704
audit	-12.4707
▁browse	-12.4708
eeeee	-12.471
178	-12.471
▁employ	-12.4714
589	-12.4716
hul	-12.4716
nsp	-12.4716
0.30%	-12.4716
coingecko	-12.4718
itruevetcarnival	-12.4718
jaguar	-12.4718
urpatch	-12.4718
▁constitution	-12.4718
▁disagree	-12.4718
▁dummies	-12.4718
▁embarrassed	-12.4718
▁explanation	-12.4718
▁glorious	-12.4718
▁imbalance	-12.4718
▁liabilities	-12.4718
▁negotiations	-12.4718
▁optimistic	-12.4718
▁reinstatement	-12.4718
▁turnaround	-12.4718
starwars	-12.4718
▁evicted	-12.4718
▁utilize	-12.4718
▁yuan	-12.4718
seoul	-12.4718
availability	-12.4718
pokemon	-12.4718
▁fraction	-12.4718
sustainability	-12.4718
▁slump	-12.4718
▁functionality	-12.4718
blackouts	-12.4718
wuhan	-12.4718
0-50%	-12.4718
▁honeywell	-12.4719
▁robust	-12.4719
slaqualityissues	-12.4719
▁context	-12.4719
▁flipping	-12.4719
killer	-12.4719
▁+23%	-12.472
▁arrested	-12.472
▁keyword	-12.4721
▁capitalization	-12.4722
▁imply	-12.4722
legalize	-12.4722
▁ounce	-12.4722
▁personality	-12.4723
▁+24%	-12.4724
living	-12.4724
safu	-12.4724
gigl	-12.4725
▁1/17	-12.4725
aronis	-12.4725
sigma	-12.4726
▁missile	-12.4726
0.27%	-12.4727
▁75-100	-12.4727
videomarketing	-12.4727
kush	-12.4727
tenaris	-12.4728
herine	-12.4728
:10.0	-12.4728
▁updating	-12.4729
fonu	-12.4729
inspired	-12.4731
8.99	-12.4734
visa	-12.4735
iowa	-12.4735
rcar	-12.4736
▁indication	-12.4739
haul	-12.4739
▁initially	-12.4742
▁edible	-12.4744
mygn	-12.4745
ssft	-12.4745
svt	-12.4746
▁210	-12.4747
earnmoney	-12.4748
▁bite	-12.4749
bitcointalk	-12.4751
▁cryo	-12.4751
456	-12.4753
▁76%	-12.4754
▁wider	-12.4754
▁lining	-12.4754
▁stealing	-12.4757
▁poorly	-12.4758
arna	-12.4759
walker	-12.4759
▁drinking	-12.4759
leading	-12.476
ffy	-12.4761
837	-12.4764
notional	-12.4765
▁requested	-12.4765
freaking	-12.4767
implemented	-12.4768
steve	-12.477
▁modi	-12.477
gblx	-12.477
skyw	-12.4772
▁exited	-12.4774
▁0.9	-12.4775
ruby	-12.4777
notify	-12.4779
ybe	-12.4785
structure	-12.4786
▁weighting	-12.4788
▁reservations	-12.4791
oilu	-12.4794
wrk	-12.4795
dragon	-12.48
vdr	-12.4801
bki	-12.4802
uxin	-12.4802
▁10/31	-12.4802
357	-12.4804
618	-12.4811
▁09/0	-12.4814
+25%	-12.482
▁0.005	-12.4822
1.32	-12.4824
0.26%	-12.4826
ctr	-12.4826
▁40-	-12.4831
▁parks	-12.4834
hiv	-12.4839
▁fields	-12.4842
▁ironic	-12.4851
▁+19.2	-12.4855
mcm	-12.4855
▁landing	-12.4864
27.5	-12.4864
▁trolls	-12.4868
▁issuer	-12.4869
xrf	-12.4877
▁11.5	-12.4884
▁teva	-12.4886
keg	-12.4893
noia	-12.4899
.05%	-12.4904
aveo	-12.4906
▁forecasting	-12.4907
▁woods	-12.4907
10,000,000	-12.4909
▁175	-12.491
▁bath	-12.4912
0.11%	-12.4918
▁denie	-12.492
xyn	-12.492
ibex	-12.4925
hmy	-12.4927
phase	-12.4927
vids	-12.4934
oooooo	-12.4937
sponsor	-12.4947
▁prep	-12.4947
1.23	-12.4949
▁dell	-12.4952
▁crossover	-12.4959
hvn	-12.4969
gud	-12.497
▁educate	-12.4972
▁196	-12.4975
ira	-12.4977
stex	-12.4979
▁2004	-12.4979
secured	-12.498
0.91	-12.4987
iwi	-12.4992
▁150000	-12.4996
-100	-12.4997
fsi	-12.5009
heels	-12.5011
.035	-12.5013
irgo	-12.5013
1.09	-12.5017
▁7/25	-12.5022
glc	-12.5025
oppo	-12.5028
▁$1.3	-12.5029
▁offset	-12.5032
gco	-12.5032
mpaa	-12.5038
▁charm	-12.5039
morgan	-12.5051
2.04	-12.5052
pfg	-12.5052
nmd	-12.5054
▁expire	-12.5062
philanthrop	-12.5064
404	-12.5065
▁exempt	-12.5066
hsi	-12.5067
aeroponleaf	-12.5075
alzheimer	-12.5075
ambassador	-12.5075
gratitude	-12.5075
lightningnetwork	-12.5075
lunarnewyear	-12.5075
syndicate	-12.5075
zilliqa	-12.5075
▁easiest	-12.5075
▁plagiari	-12.5075
▁steadily	-12.5075
▁traceability	-12.5075
▁tronfoundation	-12.5075
▁unprofitable	-12.5075
▁variable	-12.5075
dominatrix	-12.5075
▁amendment	-12.5075
▁identical	-12.5075
▁inspiration	-12.5075
▁parallel	-12.5075
malware	-12.5075
addysgirl	-12.5075
orlando	-12.5075
▁swipe	-12.5075
flagging	-12.5075
medicare	-12.5075
socios	-12.5076
▁nicola	-12.5076
scottt	-12.5076
▁implementation	-12.5076
▁09/26	-12.5076
▁;-)	-12.5076
▁footage	-12.5076
▁easing	-12.5077
▁lemon	-12.5077
▁tapped	-12.5077
descend	-12.5077
▁mountain	-12.5077
segui	-12.5078
lmpx	-12.5078
▁shipment	-12.5078
1,700	-12.5079
▁clearance	-12.508
commercial	-12.508
▁1/14	-12.5081
▁prelim	-12.5082
testify	-12.5082
▁blowout	-12.5083
▁dmv	-12.5083
comma	-12.5083
▁popping	-12.5083
zgnx	-12.5084
emission	-12.5084
▁unlikely	-12.5084
usmv	-12.5086
astc	-12.5087
ubqu	-12.5088
owr	-12.509
▁elements	-12.5091
ijj	-12.5092
kayla	-12.5092
school	-12.5093
>=	-12.5093
▁cheapest	-12.5093
▁proxy	-12.5095
harris	-12.5095
▁juice	-12.5096
atge	-12.5099
8.1%	-12.5101
▁increasingly	-12.5102
pdac	-12.5102
desipunk	-12.5104
▁millennials	-12.5106
gurl	-12.5107
2.14	-12.5108
▁fixes	-12.5111
▁producers	-12.5117
▁dynamics	-12.5119
▁1.6	-12.512
▁7100	-12.5121
2.02	-12.5122
izz	-12.5123
retch	-12.5124
▁hodling	-12.5125
▁$0.52	-12.5125
▁banner	-12.5129
▁$1500	-12.5129
898	-12.5131
▁switching	-12.5131
africa	-12.5133
▁connections	-12.5134
transparency	-12.5134
record	-12.5135
billionaire	-12.5135
▁sole	-12.5137
geo	-12.5137
paypiggies	-12.5137
devon	-12.5137
▁hail	-12.514
valentine	-12.514
hacking	-12.5142
track	-12.5142
▁arrangements	-12.5146
shareholder	-12.5146
holiday	-12.5147
spgi	-12.5149
october	-12.5151
industry	-12.5151
course	-12.5152
▁digits	-12.5153
[3	-12.5153
▁emotions	-12.5154
▁protected	-12.5158
friendship	-12.5161
▁hire	-12.5166
079	-12.5169
nbc	-12.5172
aisy	-12.5177
verse	-12.5177
▁vibe	-12.5177
zto	-12.5178
▁cust	-12.518
▁wasted	-12.518
▁-1.2%	-12.5184
emma	-12.5186
lift	-12.519
etrade	-12.5191
rkl	-12.5196
▁-3.5%	-12.5198
entry	-12.52
child	-12.5201
368	-12.5204
45.00	-12.5207
ewy	-12.5208
watt	-12.5209
927	-12.521
krys	-12.5213
bcu	-12.5214
jst	-12.522
▁mms	-12.5221
tooth	-12.5228
boycottmu	-12.5229
axu	-12.5232
936	-12.5234
fut	-12.5243
finx	-12.5245
irbl	-12.5247
▁12/31	-12.525
urv	-12.526
pww	-12.5263
1.80	-12.5265
limon	-12.5268
lvh	-12.527
atra	-12.5284
▁wishing	-12.5295
beck	-12.5301
lyle	-12.5305
prospect	-12.5319
870	-12.532
dumdum	-12.532
uspol	-12.5321
marco	-12.5322
howard	-12.5324
cnx	-12.5324
emr	-12.5324
254	-12.5326
monsta	-12.5328
mrj	-12.5331
rizo	-12.5331
nxe	-12.5344
freetoken	-12.5346
▁-0.9	-12.5346
hcat	-12.535
209	-12.5358
510	-12.5362
googl	-12.5368
nee	-12.5372
3.53	-12.538
patient	-12.5385
ika	-12.5393
▁nutr	-12.5393
1.55%	-12.5394
816	-12.5396
▁lap	-12.5397
15.00	-12.5403
txr	-12.5408
▁chri	-12.5418
▁(-1.1	-12.5424
294	-12.5424
offee	-12.5429
oxt	-12.5431
▁midwest	-12.5432
lgx	-12.5433
▁10/21	-12.5434
▁delist	-12.5436
barcelona	-12.5445
defensive	-12.5445
diabetic	-12.5445
fraudformula	-12.5445
fundraising	-12.5445
hatnigga	-12.5445
intelligent	-12.5445
larabellecatlin	-12.5445
▁excitement	-12.5445
▁greeting	-12.5445
▁multiplier	-12.5445
▁neighborhood	-12.5445
▁obsolete	-12.5445
▁recieve	-12.5445
▁responsibility	-12.5445
▁unacceptable	-12.5445
▁violent	-12.5445
cryptonians	-12.5445
fundraiser	-12.5445
▁ignoring	-12.5445
atlanta	-12.5445
▁2019-10-0	-12.5445
▁francisco	-12.5445
vishay	-12.5445
▁marathon	-12.5445
▁salary	-12.5445
shrimp	-12.5445
jamie	-12.5445
▁20-30%	-12.5445
sociopathic	-12.5445
▁cadence	-12.5446
amazonprimeday	-12.5446
▁elevated	-12.5446
streamingwar	-12.5446
▁inherit	-12.5446
apparel	-12.5446
tiktok	-12.5446
▁cheesecake	-12.5446
▁primari	-12.5446
▁choppy	-12.5446
▁blackberry	-12.5446
▁2019-07-1	-12.5446
stonks	-12.5446
▁issuing	-12.5447
▁alleged	-12.5447
▁larry	-12.5447
▁strive	-12.5447
selfdrop	-12.5447
▁persist	-12.5448
▁governor	-12.5448
▁compress	-12.5448
▁craig	-12.5448
▁impression	-12.5448
▁endorse	-12.5449
▁favorable	-12.545
▁enthusiasts	-12.5452
▁linkedin	-12.5452
icularly	-12.5452
marine	-12.5453
▁lazar	-12.5453
▁7050	-12.5453
▁intended	-12.5455
scarl	-12.5455
hiru	-12.5456
▁shocking	-12.5456
2020-01-17	-12.5458
gender	-12.5458
0.89%	-12.5461
▁rips	-12.5461
▁russell	-12.5461
unate	-12.5461
18:00	-12.5462
prpo	-12.5463
rgbp	-12.5466
▁carefully	-12.5466
▁karen	-12.5467
0,0	-12.547
▁intermed	-12.547
362	-12.5471
▁2/28	-12.5471
▁12/12	-12.5477
achv	-12.5477
acg	-12.5478
▁expired	-12.5478
▁$0.15	-12.5478
▁perks	-12.5479
apsi	-12.548
virginia	-12.5482
binancedex	-12.5482
specialty	-12.5483
▁6100	-12.5483
▁organizations	-12.5483
regional	-12.5483
▁tjx	-12.5484
aftm	-12.5487
axnx	-12.5487
▁taco	-12.5488
231	-12.5489
0.70	-12.5489
zsan	-12.549
progressive	-12.5493
▁annually	-12.5493
4.87%	-12.5493
energi	-12.5496
22)	-12.5497
coup	-12.5498
1.00%	-12.55
quad	-12.5502
1.64	-12.5503
coupa	-12.5504
ndsn	-12.5504
▁perma	-12.5507
2.75	-12.5507
nndm	-12.5507
▁maxim	-12.5507
neural	-12.5514
odoo	-12.5519
▁enron	-12.5519
lmn	-12.552
▁-4.6%	-12.552
▁-2.0%	-12.552
spnd	-12.5523
fhl	-12.5528
omz	-12.5532
▁fishe	-12.5533
bou	-12.5535
massac	-12.5536
moneyslave	-12.554
▁-2.4%	-12.5542
▁uplisting	-12.5542
psn	-12.5542
:28	-12.5544
2.36	-12.5544
funding	-12.5551
egift	-12.5552
0.98	-12.5553
9.1%	-12.5553
445	-12.5554
spine	-12.5559
centric	-12.556
earners	-12.5562
▁permits	-12.5563
▁skim	-12.5567
▁-2.3%	-12.5568
163	-12.5573
nitron	-12.5574
-27	-12.5578
blon	-12.5578
▁branded	-12.5582
▁-2.9%	-12.5586
knight	-12.5589
▁-4.5%	-12.5589
muni	-12.5592
40.00	-12.5603
ssnl	-12.5605
phd	-12.561
blessed	-12.5619
▁booked	-12.562
%20	-12.5621
johnson	-12.5622
efficient	-12.5623
major	-12.5627
campaign	-12.5627
celebrate	-12.5627
chief	-12.5634
▁morons	-12.5638
flw	-12.564
▁-0.1%	-12.5641
perfect	-12.5641
shopping	-12.5642
kbr	-12.5642
415	-12.5642
roob	-12.5648
ington	-12.5652
313	-12.5653
▁nest	-12.5656
ature	-12.5657
builder	-12.5658
▁hehe	-12.5661
copa	-12.5661
quoted	-12.5662
bias	-12.5662
lism	-12.5663
awc	-12.5663
▁26/0	-12.5664
those	-12.5675
kep	-12.5677
dhi	-12.568
pete	-12.568
0.57	-12.5682
woof	-12.5683
271	-12.5692
331	-12.5697
+++	-12.5698
image	-12.5707
awd	-12.5728
'000	-12.5728
ddex	-12.5735
clay	-12.5736
dude	-12.5739
545	-12.5739
7.20	-12.5741
juv	-12.5742
▁rational	-12.5748
▁surviv	-12.5756
▁sooo	-12.5778
semiconductor	-12.5782
abit	-12.579
▁$2.2	-12.5791
503	-12.5792
10.7	-12.5797
▁sacrific	-12.5799
indy	-12.5807
258	-12.5812
ince	-12.5814
✅✅	-12.5816
0.67	-12.5819
▁crook	-12.5819
▁stole	-12.5827
rigger	-12.5829
rvy	-12.5829
accommodation	-12.583
calloway	-12.583
destination	-12.583
odyssey	-12.583
▁credibility	-12.583
▁crucial	-12.583
▁hilarious	-12.583
▁observation	-12.583
▁possibilities	-12.583
▁respectively	-12.583
▁sensitive	-12.583
teladoc	-12.583
vintage	-12.583
▁syntheti	-12.583
▁remote	-12.583
▁mineralization	-12.583
▁cresco	-12.583
induced	-12.583
▁digging	-12.583
▁2019-10-2	-12.583
dominant	-12.583
▁favour	-12.583
▁dismiss	-12.583
▁drought	-12.5831
▁impulse	-12.5831
▁bleed	-12.5831
▁coincidence	-12.5831
guitar	-12.5831
▁annualized	-12.5832
january	-12.5832
▁carolina	-12.5832
avlr	-12.5832
stockoftheday	-12.5833
bratty	-12.5834
confidential	-12.5834
disability	-12.5834
▁broadcom	-12.5835
nexogy	-12.5836
inuv	-12.5836
▁secondary	-12.5836
swamp	-12.5837
▁mud	-12.5838
▁steer	-12.5838
efx	-12.5839
hospitality	-12.5839
fantom	-12.584
▁eggs	-12.584
correct	-12.5841
banana	-12.5841
▁rollout	-12.5842
▁referred	-12.5842
▁route	-12.5843
▁cosmetic	-12.5843
▁emphasi	-12.5844
▁typically	-12.5844
5.02%	-12.5845
▁cameco	-12.5845
jimmy	-12.5845
▁reform	-12.5846
wab	-12.5849
▁2/23	-12.5849
tradingstrategy	-12.5853
▁fever	-12.5855
▁+1.3%	-12.5855
tuesdaythought	-12.5856
curated	-12.5856
quibi	-12.586
▁sacrifice	-12.5861
▁ultimately	-12.5864
definedundefined	-12.5867
flir	-12.5867
-$5	-12.5868
▁ross	-12.587
1.36	-12.587
502	-12.5875
527	-12.5876
fhb	-12.5877
▁collected	-12.5881
pstv	-12.5884
▁highlighted	-12.5885
▁accumulated	-12.5886
bryan	-12.5887
asim	-12.5888
avb	-12.5888
0.46%	-12.5889
3]	-12.5889
▁saint	-12.5891
▁skip	-12.5892
▁scream	-12.5893
▁electr	-12.5894
▁ruling	-12.5897
▁survived	-12.5898
▁tbd	-12.5898
midas	-12.5899
▁fwd	-12.5902
▁spoiled	-12.5906
▁-1.7	-12.5907
)))	-12.5907
kyd	-12.5911
1.34	-12.5911
▁lineup	-12.5911
▁knees	-12.5912
▁bankers	-12.5913
3.36	-12.5918
1.26%	-12.5919
▁garn	-12.5919
coors	-12.592
aide	-12.5922
mexc	-12.5922
lou	-12.5922
gthx	-12.5923
3-4	-12.5928
miller	-12.593
2.87	-12.593
primeday	-12.5937
bldr	-12.5941
813	-12.5947
syria	-12.5951
▁grower	-12.5951
▁outperforming	-12.5952
006	-12.5957
75.00	-12.596
$300	-12.596
▁manner	-12.596
▁-1.8%	-12.5962
freetokens	-12.5969
▁100%+	-12.597
ivic	-12.5992
jah	-12.5993
257	-12.6
detail	-12.6007
▁unfollow	-12.6014
ugas	-12.6014
396	-12.6015
acan	-12.6017
wdg	-12.6017
▁rocking	-12.6021
computer	-12.6023
449	-12.6031
1.63	-12.6034
▁kyle	-12.6039
iris	-12.6043
bbi	-12.6044
[...]
