<unk>	0
<s>	0
</s>	0
<pad>	0
<mask>	0
rt	0
AT_USER	0
URL	0
$aal	0
$aapl	0
$abt	0
$agn	0
$amgn	0
$amzn	0
$axp	0
$ba	0
$bac	0
$bmy	0
$c	0
$cat	0
$chk	0
$cmcsa	0
$csco	0
$cvs	0
$cvx	0
$dis	0
$fcx	0
$ge	0
$gild	0
$gs	0
$hd	0
$ibm	0
$intc	0
$jnj	0
$jpm	0
$ko	0
$mcd	0
$mmm	0
$mrk	0
$msft	0
$pfe	0
$trv	0
$utx	0
$vz	0
$wmt	0
$xom	0
▁	-1.17867
▁$	-2.66739
▁#	-3.80635
.	-4.08567
s	-4.31149
,	-4.38536
:	-4.54928
▁the	-4.83748
▁to	-4.874
-	-4.87857
'	-5.0508
¡­	-5.05212
▁in	-5.05692
▁of	-5.13345
▁for	-5.26632
▁on	-5.39821
▁a	-5.44744
▁and	-5.5986
stocks	-5.6806
▁is	-5.71527
▁inc	-5.73669
▁by	-5.81995
▁more	-5.82993
t	-5.91254
▁&	-5.9416
?	-5.948
▁at	-6.00497
▁read	-6.06997
!	-6.15823
▁with	-6.19078
a	-6.26667
▁co	-6.31135
m	-6.33536
fb	-6.34487
spy	-6.37632
▁shares	-6.40851
▁this	-6.43146
▁stock	-6.44055
▁from	-6.44176
d	-6.51445
▁it	-6.52077
ing	-6.52967
...	-6.55309
b	-6.55637
▁company	-6.63173
▁has	-6.63191
f	-6.64394
googl	-6.65327
▁(	-6.6691
¡	-6.67233
▁you	-6.67986
▁buy	-6.69442
▁new	-6.69927
▁are	-6.7127
▁i	-6.72232
▁position	-6.73626
▁be	-6.74817
▁llc	-6.75133
twtr	-6.75709
▁up	-6.7668
▁will	-6.77837
▁̄	-6.78741
/	-6.78761
▁corporation	-6.79532
p	-6.80555
v	-6.81471
▁stake	-6.84225
)	-6.85028
▁management	-6.85482
x	-6.86889
tsla	-6.87481
nflx	-6.87631
▁market	-6.89269
▁today	-6.89983
▁that	-6.90851
▁as	-6.91777
goog	-6.93001
k	-6.96051
trading	-6.96796
▁top	-6.97909
▁out	-7.00445
▁3	-7.01109
ed	-7.01189
&	-7.01979
▁2017	-7.02375
▁earnings	-7.02414
investing	-7.03819
c	-7.05346
▁what	-7.07237
vrx	-7.07635
2	-7.09314
the	-7.0984
▁now	-7.1027
ma	-7.11792
h	-7.12185
▁rating	-7.13749
▁how	-7.14862
pep	-7.15913
▁bank	-7.15935
wfc	-7.16172
amd	-7.16669
▁week	-7.19395
nvda	-7.20059
brk	-7.20233
myl	-7.21027
▁big	-7.21549
▁not	-7.21924
qqq	-7.22154
▁investment	-7.24318
▁have	-7.24387
▁about	-7.24965
▁price	-7.25375
▁here	-7.25942
"	-7.25991
1	-7.26734
▁capital	-7.2674
4	-7.28611
▁why	-7.29044
▁pa	-7.3109
l	-7.31504
n	-7.3197
e	-7.32371
▁but	-7.3284
▁group	-7.33999
▁all	-7.34541
er	-7.36651
earnings	-7.36904
microsoft	-7.3708
ba	-7.38133
i	-7.38621
▁dividend	-7.38715
▁can	-7.39857
▁repo	-7.40074
▁our	-7.40555
▁high	-7.4096
spx	-7.41517
▁its	-7.41534
▁trade	-7.41573
▁cha	-7.41588
▁5	-7.41736
@	-7.43363
▁free	-7.43664
▁american	-7.43887
▁"	-7.4568
apple	-7.46031
▁sho	-7.46318
▁johnson	-7.46416
▁next	-7.4666
dow	-7.47051
iep	-7.47471
▁via	-7.48003
▁we	-7.48007
17	-7.52119
gm	-7.54096
pg	-7.5433
▁my	-7.54767
y	-7.54994
▁companies	-7.55732
▁corp	-7.56269
▁just	-7.56763
▁watch	-7.5743
re	-7.58706
▁over	-7.58938
▁could	-7.59447
snap	-7.59957
▁get	-7.60026
ms	-7.60325
▁million	-7.60609
▁news	-7.60705
▁trump	-7.61095
▁after	-7.61471
▁see	-7.62791
th	-7.63535
▁¡°	-7.63671
▁your	-7.64075
▁long	-7.64142
3	-7.6424
▁sell	-7.66225
in	-7.66376
;	-7.66551
▁growth	-7.66604
▁may	-7.66632
▁like	-7.67369
▁or	-7.68266
¡±	-7.68434
▁us	-7.68783
▁one	-7.6963
mo	-7.70653
▁if	-7.70963
▁research	-7.7111
▁q	-7.719
▁ceo	-7.72004
▁analysis	-7.72679
ai	-7.72988
▁says	-7.73099
▁10	-7.73203
qcom	-7.73749
▁down	-7.74072
▁good	-7.74609
▁an	-7.74615
▁target	-7.75254
dd	-7.755
▁no	-7.757
▁time	-7.76014
o	-7.78125
tgt	-7.78527
▁daily	-7.78696
unh	-7.78874
▁2	-7.79943
▁great	-7.81014
abbv	-7.82084
▁4	-7.82504
▁amazon	-7.8286
▁options	-7.83294
r	-7.8353
dia	-7.83556
▁was	-7.83609
▁trend	-7.83701
hlf	-7.83758
▁dow	-7.83794
▁sells	-7.84116
▁weekly	-7.84207
▁most	-7.84281
nvs	-7.85125
▁should	-7.85794
g	-7.85799
oil	-7.86544
▁sold	-7.87052
low	-7.87069
▁some	-7.87268
▁best	-7.87894
▁verizon	-7.88705
▁call	-7.88845
ly	-7.89377
▁video	-7.89531
▁boeing	-7.89737
▁1	-7.90231
▁volume	-7.90285
▁they	-7.90571
▁disney	-7.90617
▁day	-7.90831
▁financial	-7.90834
▁still	-7.91017
ge	-7.91239
▁mcdonald	-7.9148
▁america	-7.924
▁ale	-7.92472
mg	-7.93166
▁home	-7.93475
rm	-7.93763
▁bought	-7.94357
▁business	-7.94417
ibb	-7.94584
▁bristol	-7.95382
▁investors	-7.95455
▁than	-7.96165
▁sta	-7.97063
▁general	-7.97208
elg	-7.97334
▁chevron	-7.97575
▁exxon	-7.97767
ost	-7.97788
▁into	-7.98608
▁trading	-7.98735
myers	-7.98767
▁so	-7.99175
▁w	-7.99244
▁electric	-7.99421
▁do	-7.99449
sbux	-7.99783
to	-7.99948
▁systems	-8
▁u	-8.00134
▁these	-8.00186
▁deal	-8.00502
options	-8.00679
icnb	-8.01332
▁value	-8.01953
5	-8.02474
ners	-8.03363
▁vs	-8.03647
▁hold	-8.03773
▁analysts	-8.04482
▁share	-8.04899
pharma	-8.0522
▁first	-8.06081
▁asset	-8.06667
▁year	-8.07596
▁advisors	-8.07623
teva	-8.07837
▁gilead	-8.07866
▁po	-8.07897
mu	-8.08054
▁tech	-8.08111
▁intel	-8.08477
▁energy	-8.09148
9	-8.1003
lly	-8.10144
▁buying	-8.10401
▁money	-8.10492
tech	-8.10528
stock	-8.1093
▁back	-8.11498
▁health	-8.11508
▁look	-8.11989
▁depot	-8.12398
▁calls	-8.12664
q	-8.13437
▁update	-8.1361
▁wal	-8.14164
▁billion	-8.14544
pcln	-8.14686
nke	-8.14839
▁when	-8.14924
nyse	-8.15377
▁don	-8.1549
▁strong	-8.15771
▁last	-8.15878
xlf	-8.16392
▁apple	-8.1641
▁>	-8.17037
cola	-8.17319
ual	-8.17698
▁know	-8.17814
op	-8.18153
▁check	-8.18184
▁merck	-8.18325
hro	-8.18425
nasdaq	-8.18577
▁qua	-8.186
▁reiterate	-8.18981
▁squibb	-8.18996
vix	-8.19332
▁airlines	-8.19765
▁caterpillar	-8.19942
azn	-8.20057
▁coca	-8.21279
▁trust	-8.21294
buy	-8.21593
▁review	-8.21702
▁banks	-8.21744
▁cisco	-8.21807
cisco	-8.21894
folio	-8.22004
▁also	-8.22503
]	-8.22738
▁express	-8.22904
▁bullish	-8.22991
_	-8.23229
eled	-8.23708
w	-8.23788
djia	-8.2386
▁going	-8.24747
stockmarket	-8.25135
▁united	-8.25247
dividend	-8.2566
ibm	-8.25794
▁plc	-8.25982
▁their	-8.26125
st	-8.26451
▁drug	-8.26893
2017	-8.2693
▁make	-8.27019
▁sales	-8.27478
▁+	-8.28291
▁analyst	-8.28707
▁mobil	-8.28743
▁comcast	-8.29208
▁cvs	-8.29276
▁off	-8.2979
100	-8.3118
day	-8.31311
▁only	-8.31612
▁take	-8.31825
hal	-8.32424
boeing	-8.32755
up	-8.32888
▁--	-8.33051
lmt	-8.33644
▁higher	-8.3481
intel	-8.35133
▁since	-8.35362
iwm	-8.35558
j	-8.35775
▁per	-8.35885
de	-8.35961
exel	-8.36267
▁who	-8.36546
▁data	-8.36571
▁amgen	-8.37288
▁post	-8.3748
▁go	-8.3805
▁stores	-8.38121
uso	-8.38456
▁technologies	-8.38979
it	-8.39127
▁put	-8.39433
▁oil	-8.40036
▁pfizer	-8.40236
▁option	-8.40319
gd	-8.40886
freepo	-8.41049
amazon	-8.41237
biotech	-8.41288
bp	-8.41714
es	-8.41886
▁communications	-8.41916
▁activity	-8.42218
▁ahead	-8.42422
▁results	-8.42665
▁wealth	-8.43064
▁expected	-8.43101
▁open	-8.43283
▁would	-8.43516
shak	-8.43571
▁acquire	-8.4369
▁close	-8.44462
▁morgan	-8.44493
▁abbott	-8.44633
+	-8.46099
ve	-8.46216
▁better	-8.46379
▁goldman	-8.46702
fridayfeeling	-8.46739
dal	-8.46914
$	-8.47178
time	-8.47639
▁another	-8.47857
▁want	-8.47904
▁move	-8.47927
2018	-8.48082
▁chase	-8.4809
▁walt	-8.48129
▁sciences	-8.48536
▁need	-8.48658
8	-8.49185
▁chesapeake	-8.49226
▁pt	-8.49355
aig	-8.49391
pm	-8.49459
▁too	-8.49503
on	-8.50284
sny	-8.50426
foxa	-8.50893
ll	-8.5092
vdrm	-8.51945
▁me	-8.51989
▁boost	-8.5253
mcmoran	-8.53206
▁right	-8.53478
al	-8.53488
orcl	-8.53643
▁laboratories	-8.53795
▁run	-8.53835
▁selling	-8.54129
us	-8.5421
an	-8.54255
▁other	-8.54635
▁been	-8.54793
▁think	-8.54956
6	-8.55253
allergan	-8.55437
invest	-8.55985
yhoo	-8.5612
▁coming	-8.56163
▁buys	-8.56181
▁6	-8.56233
▁vetr	-8.56361
7	-8.56603
pypl	-8.56764
▁allergan	-8.56784
▁travelers	-8.56853
▁international	-8.57077
▁markets	-8.57337
▁street	-8.57607
finance	-8.57765
▁cut	-8.5787
wfm	-8.57947
xle	-8.584
▁given	-8.58687
▁looks	-8.59076
▁raised	-8.59171
▁citigroup	-8.59274
tst	-8.59279
▁large	-8.59672
▁plan	-8.59878
or	-8.59957
▁8	-8.60074
▁cash	-8.60582
twx	-8.6073
ups	-8.60981
▁his	-8.61419
▁again	-8.6165
▁way	-8.61751
▁does	-8.6184
▁he	-8.62002
▁services	-8.62441
▁years	-8.62457
▁[	-8.62733
▁nice	-8.62826
▁highs	-8.63086
▁say	-8.63643
▁huge	-8.6365
mdt	-8.63721
▁real	-8.63929
fdx	-8.64147
▁suppo	-8.64486
▁there	-8.64552
▁app	-8.65034
usb	-8.65043
▁must	-8.65122
▁looking	-8.65332
regn	-8.65575
owcp	-8.65743
▁revenue	-8.6581
ant	-8.65858
ake	-8.67565
▁before	-8.68248
0	-8.68253
hold	-8.68768
▁under	-8.68993
▁set	-8.69055
ces	-8.69743
kr	-8.70001
▁puts	-8.70099
▁well	-8.70274
▁upgraded	-8.70349
has	-8.70798
▁biotech	-8.70818
▁latest	-8.71113
▁traders	-8.71314
disney	-8.71325
txn	-8.7143
▁record	-8.71443
biib	-8.71803
▁china	-8.71945
gld	-8.72286
▁world	-8.72515
▁learn	-8.72537
▁forecast	-8.72628
week	-8.72701
▁7	-8.73356
▁things	-8.73632
▁valuation	-8.73671
▁wall	-8.73676
▁getting	-8.73679
▁tomorrow	-8.73806
▁ltd	-8.73851
▁receive	-8.74114
▁much	-8.74316
ar	-8.74595
▁buffett	-8.74946
bx	-8.75022
▁recent	-8.7529
aks	-8.75303
u	-8.75385
▁increased	-8.75457
▁sector	-8.75979
▁very	-8.76024
▁live	-8.76511
▁above	-8.76576
tmus	-8.7693
▁likely	-8.77144
▁list	-8.77214
▁thanks	-8.77365
sentiment	-8.77531
▁podcast	-8.77653
▁trades	-8.78012
avgo	-8.7818
mmex	-8.78218
▁flow	-8.78438
▁tuesday	-8.78455
▁sachs	-8.78907
iot	-8.78982
▁days	-8.79129
▁interest	-8.79138
▁seekingalpha	-8.79159
▁j	-8.79289
▁100	-8.79477
▁had	-8.79568
▁people	-8.79638
brand	-8.79898
▁vol	-8.80014
▁increases	-8.80031
▁filed	-8.80575
▁positive	-8.80687
incy	-8.80769
▁lowered	-8.80874
▁help	-8.80874
▁machines	-8.80939
▁were	-8.81042
▁2016	-8.81419
▁risk	-8.81495
▁coverage	-8.81642
▁holding	-8.81863
▁cancer	-8.81887
▁prices	-8.81891
▁commented	-8.81911
▁made	-8.82337
▁continues	-8.82438
▁which	-8.82472
▁fund	-8.82636
▁impo	-8.82848
30	-8.82928
▁hit	-8.83165
▁jpmorgan	-8.83507
▁two	-8.83778
▁pay	-8.83844
lf	-8.83963
▁service	-8.84053
▁performance	-8.841
▁lower	-8.84226
▁global	-8.84538
blue	-8.84571
aa	-8.84695
ebay	-8.84764
▁largest	-8.85049
luv	-8.85104
▁friday	-8.85121
▁insider	-8.85175
▁cloud	-8.85367
▁profit	-8.85612
usrm	-8.85703
▁gets	-8.85848
▁credit	-8.85947
▁making	-8.86023
▁takes	-8.86473
▁did	-8.86665
sp	-8.86728
▁play	-8.86751
▁wo	-8.86775
▁raises	-8.86983
br	-8.87062
▁hot	-8.87092
jd	-8.87206
business	-8.87254
▁soon	-8.87784
500	-8.87799
▁outlook	-8.87913
▁jefferies	-8.88096
▁even	-8.88156
hog	-8.88204
mon	-8.88303
20	-8.8911
▁key	-8.89282
▁them	-8.89306
▁major	-8.89521
▁retail	-8.89636
1,	-8.89839
▁wednesday	-8.9024
▁strategy	-8.90322
▁industry	-8.90527
▁$1	-8.90943
▁action	-8.91019
▁technical	-8.91066
▁among	-8.91104
exxonmobil	-8.91216
▁cuts	-8.91389
▁while	-8.91558
▁holdings	-8.91649
▁potential	-8.91668
▁where	-8.9171
▁thursday	-8.91853
▁follow	-8.9248
▁got	-8.92601
▁expect	-8.92683
z	-8.92786
▁active	-8.9302
▁valeant	-8.93566
▁rule	-8.93696
and	-8.93902
trump	-8.9394
rds	-8.94201
is	-8.94553
wdc	-8.94598
prgo	-8.94668
▁unusual	-8.94793
rad	-8.9482
bidu	-8.94849
▁cap	-8.94984
rhhby	-8.95265
▁purchases	-8.95574
▁>>	-8.95693
▁many	-8.95857
!!	-8.96042
▁low	-8.96058
erly	-8.9611
verizon	-8.96432
▁ibm	-8.96453
▁jobs	-8.96953
man	-8.97001
424	-8.97187
of	-8.97455
▁oppo	-8.97568
▁june	-8.97752
▁future	-8.97861
▁being	-8.98152
▁changes	-8.98523
bby	-8.98583
▁walma	-8.98736
market	-8.98743
▁highest	-8.98787
▁really	-8.99175
her	-8.9937
2)	-8.99488
▁tax	-8.99493
▁sign	-8.99561
▁join	-8.99721
▁end	-8.99728
srpt	-9.00058
▁bearish	-9.00181
uvxy	-9.00372
fda	-9.00393
jcp	-9.00512
▁own	-9.00675
ea	-9.0092
▁break	-9.01162
▁ht	-9.01229
endp	-9.01522
ers	-9.01661
▁rally	-9.01701
▁trial	-9.0177
▁announces	-9.01903
▁plans	-9.02031
adxs	-9.02211
▁impact	-9.02215
▁breakout	-9.02276
>	-9.02336
▁prospectus	-9.02427
pa	-9.02685
▁media	-9.02689
lvs	-9.03072
▁investments	-9.03176
▁income	-9.03886
acn	-9.04151
▁12	-9.04326
retail	-9.04444
▁miss	-9.04651
study	-9.04792
bigdata	-9.04809
▁against	-9.049
▁zacks	-9.04901
fox	-9.05119
emr	-9.05215
am	-9.05266
▁fda	-9.05324
▁july	-9.05453
▁combo	-9.0589
▁upside	-9.06203
▁full	-9.06437
citigroup	-9.06893
ale	-9.06938
all	-9.06961
oh	-9.07037
▁block	-9.07105
▁beat	-9.07117
▁eps	-9.07387
▁strength	-9.074
▁am	-9.07594
▁vista	-9.07704
bs	-9.07722
▁past	-9.0775
▁positions	-9.07924
pfizer	-9.07986
▁any	-9.08165
▁keep	-9.08174
▁cramer	-9.08213
▁benzinga	-9.08315
ne	-9.08395
▁sma	-9.08527
sne	-9.08528
blk	-9.08601
hon	-9.08654
▁head	-9.09026
▁track	-9.09109
▁bull	-9.09134
▁use	-9.09169
▁ready	-9.09239
year	-9.09273
%	-9.09493
▁profits	-9.09517
▁average	-9.09686
▁warren	-9.10042
▁ytd	-9.10551
traders	-9.10939
do	-9.10942
▁blog	-9.11115
gpro	-9.11353
▁stop	-9.11449
▁estimates	-9.11485
▁fly	-9.11808
▁pursuant	-9.12103
▁find	-9.12199
blockchain	-9.12204
▁worst	-9.12311
▁moves	-9.1257
▁private	-9.13096
▁march	-9.1349
term	-9.13525
▁work	-9.13589
swks	-9.13624
frzt	-9.13638
wba	-9.13727
▁downgraded	-9.13728
)(2)	-9.13897
▁decrease	-9.14005
▁jones	-9.14076
▁jan	-9.14557
nvax	-9.1478
ah	-9.1491
▁morning	-9.15015
▁sees	-9.15104
vxx	-9.15155
▁20	-9.15196
▁monday	-9.15368
me	-9.15553
▁technology	-9.15709
slb	-9.15726
stx	-9.15896
no	-9.15937
jack	-9.16096
bitcoin	-9.16407
▁15	-9.16418
▁win	-9.16523
chevron	-9.16736
▁50	-9.17494
▁9	-9.17496
kite	-9.1754
▁might	-9.17692
▁change	-9.17859
dcth	-9.17862
tlt	-9.17867
mi	-9.18004
so	-9.18016
investors	-9.18091
▁through	-9.18183
▁windows	-9.18213
▁early	-9.18316
▁small	-9.18586
▁available	-9.18718
24(	-9.18724
(	-9.18844
▁biggest	-9.19001
▁signal	-9.19172
▁return	-9.19194
▁increase	-9.19337
▁shows	-9.19417
▁retirement	-9.19696
dividends	-9.19946
htr	-9.20451
▁give	-9.20466
▁boosted	-9.20648
▁makes	-9.20989
le	-9.21147
mcdonalds	-9.21208
▁tv	-9.21224
analysis	-9.21369
met	-9.21439
▁become	-9.21697
▁five	-9.21741
▁near	-9.21876
▁april	-9.21886
istolmyerssquibb	-9.22478
▁far	-9.22581
▁bounce	-9.22754
▁gain	-9.22758
▁securities	-9.23157
jpm	-9.23174
▁htt	-9.23182
kerx	-9.23183
▁state	-9.23251
▁associates	-9.23327
▁total	-9.23343
▁president	-9.23503
▁life	-9.23505
at	-9.23731
▁200	-9.23787
nyc	-9.23795
▁using	-9.23975
▁setup	-9.24144
▁month	-9.24314
▁lead	-9.24368
▁leader	-9.24696
adbe	-9.24875
▁case	-9.25536
▁acquisition	-9.25665
16	-9.25705
▁reaffirmed	-9.25727
▁reasons	-9.25809
▁january	-9.25982
▁mean	-9.26035
un	-9.26152
▁power	-9.26232
▁national	-9.26309
▁moving	-9.26448
▁august	-9.2662
alpha	-9.26677
▁picks	-9.27002
nd	-9.27066
wallstreet	-9.2715
nwbo	-9.27446
▁somewhat	-9.27516
▁space	-9.27648
▁focus	-9.2781
▁bad	-9.27907
trade	-9.27919
adm	-9.27974
▁order	-9.28001
cloud	-9.28119
fl	-9.28391
▁below	-9.28659
ftr	-9.28813
cha	-9.28942
▁jun	-9.29001
▁iphone	-9.2908
2,	-9.29139
▁weekend	-9.29191
mbly	-9.29195
▁et	-9.29421
▁breaking	-9.29723
hot	-9.29954
vlo	-9.3005
rf	-9.3011
hun	-9.30468
▁gains	-9.30551
dji	-9.30583
▁signals	-9.30847
unity	-9.30949
global	-9.31141
▁game	-9.31205
ag	-9.31446
lowers	-9.31934
▁13	-9.32166
▁updated	-9.32182
iphone	-9.32252
▁announce	-9.32267
we	-9.32409
▁interesting	-9.32513
cl	-9.32586
▁14	-9.3274
▁won	-9.32799
▁she	-9.32841
el	-9.33026
mobile	-9.33042
▁names	-9.33126
news	-9.33144
▁double	-9.33239
▁history	-9.33259
obmp	-9.333
▁talks	-9.33334
15	-9.33423
▁phase	-9.33425
▁public	-9.33478
rs	-9.33591
▁story	-9.33667
▁battle	-9.33684
▁11	-9.33756
merck	-9.33784
ner	-9.3387
▁feb	-9.34049
▁continue	-9.34086
▁team	-9.34204
▁view	-9.34297
able	-9.34472
kss	-9.3453
▁office	-9.34652
▁pick	-9.34827
line	-9.34973
▁then	-9.3506
▁show	-9.3532
▁upgrades	-9.35327
video	-9.35349
▁weeks	-9.35357
▁add	-9.35792
▁held	-9.36157
free	-9.36193
rsii	-9.36298
vale	-9.36371
expe	-9.36654
▁around	-9.36656
ic	-9.36698
▁reduced	-9.36723
ur	-9.36836
▁second	-9.36846
gis	-9.3701
▁green	-9.37051
▁aug	-9.37097
▁acquired	-9.37128
▁financials	-9.37254
▁rate	-9.37274
fintech	-9.37476
▁point	-9.37539
▁trader	-9.37925
▁weakness	-9.38191
premarket	-9.38268
money	-9.38283
▁issue	-9.38292
drys	-9.383
▁economy	-9.38347
data	-9.38438
▁wells	-9.38514
▁online	-9.3864
▁expiring	-9.38652
▁taking	-9.38784
club	-9.38787
gdx	-9.38981
rig	-9.39101
bbry	-9.39254
▁yet	-9.39337
fy	-9.39371
alxn	-9.39384
▁gives	-9.39433
▁outperform	-9.39489
▁approval	-9.39593
▁same	-9.39611
▁rise	-9.39809
▁volatility	-9.39827
db	-9.40132
▁closed	-9.40171
▁stories	-9.40322
esrx	-9.40328
."	-9.40368
▁let	-9.40393
en	-9.40411
lnkd	-9.40457
wll	-9.40511
▁fargo	-9.40601
shld	-9.41006
▁system	-9.41048
energy	-9.41058
▁gas	-9.41075
pe	-9.41081
lo	-9.41109
▁few	-9.41118
cr	-9.41168
▁love	-9.41521
▁said	-9.41544
▁come	-9.41648
▁updates	-9.41663
ip	-9.41902
▁fed	-9.41913
research	-9.42149
ml	-9.42152
▁never	-9.42437
▁investor	-9.42842
▁little	-9.42915
unlock	-9.43328
▁drop	-9.43643
oxy	-9.43748
pgr	-9.43837
xbi	-9.44122
▁undervalued	-9.44168
▁goes	-9.44522
▁months	-9.44927
▁seen	-9.45062
walma	-9.45072
fit	-9.45172
▁fall	-9.45262
▁yield	-9.45338
go	-9.4534
trending	-9.45444
aet	-9.45518
technology	-9.45662
tjx	-9.45792
▁sale	-9.45897
▁30	-9.46002
▁16	-9.46108
co	-9.46131
mro	-9.46368
▁both	-9.46597
▁security	-9.4685
▁levels	-9.46893
▁customers	-9.47051
▁range	-9.47125
▁keytruda	-9.47196
▁watching	-9.47202
▁canada	-9.473
psx	-9.47337
▁returns	-9.47593
fundamental	-9.47668
abx	-9.47729
▁watchlist	-9.47964
▁away	-9.48014
▁board	-9.48039
▁closing	-9.48106
fslr	-9.48168
▁shareholders	-9.48236
▁gap	-9.4829
fridayblogs	-9.49265
▁purchase	-9.49323
apa	-9.49337
ce	-9.49626
▁conference	-9.49636
comcast	-9.49647
asco	-9.49796
▁healthcare	-9.49991
healthcare	-9.50176
hum	-9.50533
▁bottom	-9.50534
markets	-9.50714
▁despite	-9.50891
▁max	-9.50961
sx	-9.51049
sq	-9.51051
bk	-9.5122
▁build	-9.51442
▁yesterday	-9.51818
acad	-9.52145
sta	-9.52345
▁breakfast	-9.52722
bud	-9.52778
▁current	-9.52834
).	-9.52902
bi	-9.53058
▁wins	-9.53264
mil	-9.53393
▁those	-9.53556
▁offer	-9.53603
▁jeff	-9.53787
▁earns	-9.5385
land	-9.53968
pru	-9.54109
wynn	-9.5418
amat	-9.54277
▁drugs	-9.5432
siri	-9.54325
ion	-9.54423
▁pro	-9.5444
▁book	-9.54478
as	-9.5449
symc	-9.54514
▁traded	-9.54549
▁relevant	-9.5456
mar	-9.54712
▁>>>	-9.55026
▁net	-9.55058
▁try	-9.55118
ation	-9.55182
▁needs	-9.55248
pot	-9.55464
ch	-9.55614
atvi	-9.55741
▁stanley	-9.5581
▁possible	-9.55853
▁half	-9.55935
▁reduces	-9.55949
ca	-9.55966
td	-9.56121
▁launch	-9.56132
robotics	-9.56204
▁level	-9.56397
epd	-9.56442
imtl	-9.56526
▁pre	-9.56734
▁bond	-9.56865
znga	-9.56918
off	-9.57082
ment	-9.57113
▁lot	-9.57355
▁digital	-9.57529
▁already	-9.57556
19	-9.57803
▁employees	-9.57981
cancer	-9.58152
spcl	-9.58299
▁wants	-9.58482
rd	-9.58519
▁pricing	-9.58556
▁oi	-9.58587
il	-9.58799
schw	-9.58807
▁uk	-9.58999
▁single	-9.59033
▁leading	-9.59129
▁ever	-9.59134
▁brokerages	-9.59245
▁following	-9.59451
-1	-9.59475
hpe	-9.59477
amgen	-9.59523
4,	-9.5955
nership	-9.59563
ete	-9.59718
▁box	-9.59791
via	-9.59813
tl	-9.59912
▁stay	-9.59988
▁thing	-9.60035
plug	-9.60046
▁statement	-9.60127
▁fy	-9.60244
▁doesn	-9.60273
xlv	-9.60366
▁explains	-9.60369
11	-9.60565
▁winners	-9.60578
▁decreases	-9.60637
pnc	-9.60817
▁invests	-9.60908
▁others	-9.60941
▁opening	-9.61043
juno	-9.61071
▁19	-9.61119
10	-9.61236
▁finally	-9.61239
▁date	-9.61498
▁ratings	-9.61841
mpc	-9.61958
ipxl	-9.61976
▁advisory	-9.61995
▁study	-9.62
▁annual	-9.62022
▁strategic	-9.62094
ndx	-9.62249
▁cheap	-9.62476
ideas	-9.63026
▁every	-9.63078
▁network	-9.63108
▁added	-9.6313
▁suisse	-9.63321
sitifatimah	-9.63406
▁during	-9.63577
hpq	-9.63598
world	-9.63653
▁term	-9.63679
▁red	-9.6371
▁food	-9.63781
▁model	-9.63815
ir	-9.6392
▁maybe	-9.63964
mdlz	-9.64002
▁chief	-9.6404
mt	-9.64052
li	-9.64117
▁deals	-9.64268
▁2017.	-9.64325
▁beats	-9.64467
▁grow	-9.64506
jblu	-9.64516
dbmm	-9.64608
▁cost	-9.64704
▁access	-9.65117
asna	-9.65145
malaysia	-9.6529
largest	-9.65337
▁mar	-9.65384
oncology	-9.65549
ul	-9.65552
▁massive	-9.65562
▁almost	-9.65829
▁maintained	-9.65907
▁sure	-9.66022
aap	-9.66264
tna	-9.66407
jazz	-9.66684
jwn	-9.66686
ha	-9.66768
▁jul	-9.66887
eem	-9.6695
nee	-9.67341
40	-9.67455
▁21	-9.67464
50	-9.67555
▁test	-9.67678
▁products	-9.67722
caterpillar	-9.67741
tvix	-9.67874
ol	-9.679
usd	-9.67902
▁bring	-9.67944
▁competition	-9.67958
▁winning	-9.67973
ive	-9.67993
▁push	-9.68561
▁60	-9.68567
▁devices	-9.68623
▁multiple	-9.68796
side	-9.68824
▁plus	-9.69022
▁pattern	-9.69176
▁care	-9.69178
▁numbers	-9.69285
exas	-9.69425
growth	-9.69437
glw	-9.69451
▁complete	-9.69734
▁etf	-9.69863
▁ownership	-9.69893
▁swing	-9.69988
▁buyout	-9.70143
▁members	-9.70221
▁google	-9.70252
▁release	-9.7027
uda	-9.70368
▁super	-9.70642
▁ginni	-9.70709
▁manufacturing	-9.70736
▁cowen	-9.70822
watson	-9.70875
work	-9.70973
▁details	-9.71124
▁dividends	-9.7121
ry	-9.71212
ci	-9.7122
▁uptrend	-9.71228
▁vote	-9.71233
▁card	-9.71273
▁bet	-9.71439
▁expansion	-9.71534
▁pipeline	-9.71565
ua	-9.71624
viab	-9.71643
gs	-9.71711
equity	-9.71774
innovation	-9.7189
ools	-9.71958
▁dip	-9.7196
▁250	-9.71981
se	-9.71993
nq	-9.71993
feye	-9.72016
one	-9.72135
bidask	-9.72183
insy	-9.72279
▁assets	-9.7237
▁everything	-9.72417
antm	-9.72436
▁didn	-9.72438
▁old	-9.72481
key	-9.72548
▁february	-9.72571
▁solid	-9.72683
icles	-9.72684
sh	-9.72811
▁patent	-9.7315
ificial	-9.73305
vr	-9.73538
fnma	-9.73602
maxpa	-9.73617
▁downgrades	-9.73672
amp	-9.73938
gps	-9.73985
▁platform	-9.74072
3,	-9.74093
▁giants	-9.74148
▁patients	-9.7422
jpmorganchase	-9.74242
btc	-9.74256
▁insurance	-9.74532
▁production	-9.74634
▁season	-9.748
▁three	-9.74907
▁ag	-9.74927
unp	-9.75101
▁movers	-9.75125
mcig	-9.75191
▁testing	-9.75472
kmb	-9.75525
....	-9.75551
▁bmo	-9.75594
▁lp	-9.75753
▁recommendation	-9.75765
▁hope	-9.7578
ex	-9.75795
▁firm	-9.75875
americanairlines	-9.75956
▁isn	-9.76031
▁whole	-9.76258
breaking	-9.76559
▁mid	-9.76666
amtd	-9.76728
▁seems	-9.76837
▁tim	-9.76971
▁between	-9.76987
▁consensus	-9.7702
dg	-9.77171
▁doing	-9.77193
▁yahoo	-9.77213
▁fast	-9.7723
head	-9.7726
▁believe	-9.77278
▁working	-9.77344
ho	-9.7735
▁behind	-9.77561
▁performing	-9.77579
▁targets	-9.77775
hyg	-9.77841
▁entry	-9.77854
fast	-9.77966
▁agreement	-9.78018
▁24	-9.78028
▁hits	-9.78079
▁premium	-9.78115
est	-9.78193
icld	-9.78197
ton	-9.78244
▁cs	-9.78421
icle	-9.78448
▁25	-9.78561
ra	-9.78644
▁bell	-9.78664
▁score	-9.78754
dollar	-9.78848
▁wait	-9.78893
▁fu	-9.78958
▁wrong	-9.78984
▁tool	-9.79151
▁include	-9.79211
▁trying	-9.79269
▁debt	-9.79377
▁bid	-9.79381
sell	-9.79415
ter	-9.79451
▁line	-9.79481
▁meeting	-9.79504
▁prof	-9.79538
▁nearly	-9.7955
▁internet	-9.79569
shop	-9.79655
strategy	-9.79679
johnsonjohnson	-9.7968
),	-9.79749
▁etc	-9.7975
▁caps	-9.79798
▁resistance	-9.79801
▁surging	-9.7988
health	-9.79936
▁policy	-9.7998
▁ago	-9.80274
▁offers	-9.80291
▁52	-9.80392
▁war	-9.80401
▁expectations	-9.80482
▁books	-9.80556
efa	-9.80619
90	-9.80667
▁less	-9.80698
▁thoughts	-9.80836
india	-9.80874
eog	-9.81042
▁strategies	-9.81152
▁squeeze	-9.81179
▁area	-9.81229
rai	-9.81319
▁due	-9.81393
25	-9.81474
ie	-9.81608
▁air	-9.81681
▁defense	-9.81707
▁merger	-9.81739
▁18	-9.81804
hy	-9.81916
▁lows	-9.81942
be	-9.81944
▁cou	-9.82038
▁holds	-9.82167
▁$10	-9.82293
▁bill	-9.82391
1,000	-9.82453
▁because	-9.82618
out	-9.82749
▁jason	-9.82829
▁comes	-9.82939
▁store	-9.83108
▁100%	-9.83123
tot	-9.83151
exxon	-9.83187
wft	-9.83275
▁counsel	-9.83309
▁ipo	-9.83313
hd	-9.8338
▁until	-9.83445
▁favorable	-9.83447
▁foods	-9.83455
▁releases	-9.83556
▁create	-9.83582
new	-9.83694
▁issues	-9.83722
3,000	-9.83815
fi	-9.83817
▁non	-9.8388
▁barclays	-9.83964
hiiq	-9.83971
▁signs	-9.84106
▁barron	-9.84174
dps	-9.84214
▁tell	-9.84386
ri	-9.84449
!!!	-9.8445
icpt	-9.84599
▁launches	-9.84645
66	-9.84708
▁means	-9.84801
▁sec	-9.84828
#	-9.84916
▁rising	-9.85027
35	-9.85133
00	-9.85268
ab	-9.85276
▁treatment	-9.85289
▁raise	-9.85447
▁equities	-9.85515
sma	-9.85577
▁jim	-9.85671
▁weak	-9.85739
cap	-9.8579
▁zones	-9.85819
▁1000%	-9.85965
mat	-9.85996
▁edge	-9.86247
▁cents	-9.86287
▁place	-9.86352
5,000	-9.86395
▁wireless	-9.86401
ting	-9.86733
bdx	-9.8677
▁guidance	-9.86877
ies	-9.86879
▁citi	-9.86912
noc	-9.86935
▁shareholder	-9.86967
▁common	-9.87157
▁software	-9.87464
▁beneficia	-9.87566
▁hike	-9.87594
▁pot	-9.87612
▁rates	-9.87655
tv	-9.87742
▁hedge	-9.87745
▁hard	-9.87752
▁funds	-9.87811
my	-9.8815
▁royal	-9.88222
tsro	-9.88225
▁pain	-9.88268
▁attractive	-9.88321
apc	-9.88324
wb	-9.88333
▁ex	-9.88589
▁neutral	-9.88612
▁eye	-9.8875
▁users	-9.8882
▁upcoming	-9.88872
investor	-9.88885
ectus	-9.88908
33	-9.88943
▁late	-9.89078
▁press	-9.89258
etfs	-9.89456
dlr	-9.89674
khc	-9.8968
▁guy	-9.89803
dks	-9.89857
▁chance	-9.89897
▁hey	-9.89924
lb	-9.89961
im	-9.89985
▁reality	-9.90003
▁bonds	-9.9007
▁nvidia	-9.90074
▁program	-9.90138
▁maturity	-9.90199
macro	-9.90276
google	-9.90339
lx	-9.9035
▁netflix	-9.90443
▁round	-9.90503
nok	-9.90607
bhi	-9.90663
success	-9.90748
end	-9.90843
▁advantage	-9.9113
app	-9.9113
▁(4)	-9.91237
▁pharmaceuticals	-9.91301
▁hours	-9.9133
▁preview	-9.91337
futures	-9.91347
▁$50	-9.91378
▁house	-9.9142
dpz	-9.91428
▁dimon	-9.91436
xly	-9.91674
▁deutsche	-9.91763
gen	-9.91843
▁opdivo	-9.91848
▁fight	-9.91848
2,000	-9.91966
800%	-9.92016
cscoq	-9.92122
yum	-9.92279
▁consumer	-9.92376
▁notable	-9.92463
commerce	-9.92718
▁risks	-9.92814
per	-9.92851
▁recap	-9.92877
hp	-9.93014
dolv	-9.93015
san	-9.93055
nvo	-9.93098
▁versus	-9.93126
bl	-9.93249
▁yes	-9.93305
▁enough	-9.93355
▁$15	-9.93614
▁david	-9.9366
▁spending	-9.93674
▁retailers	-9.93866
▁quick	-9.93891
▁economic	-9.93999
▁500	-9.94058
▁dogs	-9.94111
uaa	-9.94216
▁building	-9.94435
not	-9.94447
mm	-9.94506
18	-9.94537
▁star	-9.94541
ung	-9.9461
nat	-9.94613
55	-9.94692
▁delivery	-9.9473
shpg	-9.94816
rut	-9.94857
lgf	-9.94871
▁rest	-9.94886
tt	-9.94979
▁breaks	-9.95435
▁millionaire	-9.95472
▁remember	-9.9579
▁points	-9.95807
23	-9.95853
▁car	-9.95858
▁takeover	-9.9592
▁robe	-9.95972
▁prime	-9.96158
lc	-9.96174
phone	-9.96224
▁$3	-9.96319
▁blue	-9.96327
▁core	-9.96369
4,000	-9.96382
et	-9.9646
ni	-9.96484
▁maintains	-9.96575
▁perform	-9.96603
vi	-9.96606
lrcx	-9.96613
▁light	-9.96686
▁monthly	-9.96702
rl	-9.96783
daytrading	-9.9681
▁pop	-9.96819
fmcc	-9.96879
▁wow	-9.96936
▁journal	-9.97039
red	-9.97088
▁name	-9.97127
xlk	-9.9713
▁talk	-9.97203
▁corporate	-9.97289
▁least	-9.9733
amrn	-9.97481
▁currently	-9.97503
unities	-9.97565
▁pullback	-9.97629
lr	-9.97748
▁kidding	-9.97809
▁equity	-9.9785
▁safety	-9.98005
▁job	-9.98077
▁2017:	-9.98126
14	-9.98133
▁found	-9.98147
6,000	-9.98194
▁decline	-9.98344
science	-9.98345
lyb	-9.98349
xiv	-9.9836
▁content	-9.98406
mtb	-9.98549
▁something	-9.98644
son	-9.98744
month	-9.98849
bvtk	-9.98885
ssnlf	-9.99007
▁streaming	-9.99057
▁contract	-9.99105
marketing	-9.99192
▁john	-9.99491
pdownthermometer	-9.99492
mc	-9.995
copper	-9.99907
fe	-9.99987
tr	-10.0002
▁took	-10.0018
pr	-10.0025
▁waiting	-10.0032
▁europe	-10.0035
xop	-10.0045
▁reaffirm	-10.0051
momo	-10.0059
▁declined	-10.0062
▁dis	-10.0067
▁happy	-10.0072
og	-10.0077
twitter	-10.0079
▁$20	-10.0079
▁mobile	-10.0094
▁drops	-10.0108
22	-10.011
financialplann	-10.0121
▁indicator	-10.0146
▁components	-10.0147
▁rules	-10.0158
yield	-10.0168
fed	-10.0169
inspire	-10.0181
▁guys	-10.0191
▁loss	-10.0196
▁machine	-10.0203
bb	-10.0214
▁oppenheimer	-10.0221
▁spread	-10.0228
abc	-10.0236
▁once	-10.0241
▁institutional	-10.0246
kmi	-10.0256
fang	-10.028
▁ad	-10.028
▁guide	-10.0283
di	-10.0308
isrg	-10.0309
▁zone	-10.0314
su	-10.0325
qua	-10.0335
▁exclusive	-10.034
7,000	-10.0347
top	-10.0348
bbby	-10.035
▁pull	-10.0351
te	-10.0356
▁product	-10.0363
▁center	-10.0367
▁ca	-10.0375
24	-10.0376
▁giving	-10.0385
▁safe	-10.0386
▁2008.	-10.0391
la	-10.0394
brexit	-10.0403
7%	-10.0408
ally	-10.0412
46	-10.0417
ia	-10.0434
ship	-10.0445
▁forecasts	-10.0453
coming	-10.0464
▁businesses	-10.0469
▁demand	-10.0472
▁hu	-10.0475
▁asia	-10.0475
▁approach	-10.0483
ph	-10.0485
▁un	-10.0494
▁52-	-10.0497
▁based	-10.05
uco	-10.0506
sun	-10.0515
um	-10.052
▁apr	-10.0524
xli	-10.053
45	-10.0533
▁station	-10.0533
▁dead	-10.0539
▁chairman	-10.0564
▁winner	-10.0566
gold	-10.0567
▁customer	-10.0569
▁showing	-10.057
king	-10.0571
▁times	-10.0573
po	-10.0576
sho	-10.0595
▁drive	-10.0596
▁chip	-10.0597
pbr	-10.0613
bank	-10.062
▁done	-10.0627
▁models	-10.0639
▁easy	-10.064
▁expensive	-10.0641
▁inside	-10.0654
ent	-10.0661
china	-10.0665
▁nothing	-10.0667
▁comments	-10.0669
▁effect	-10.0672
big	-10.0678
os	-10.0692
commodities	-10.0695
▁cable	-10.0695
▁medical	-10.0708
sony	-10.0709
▁$5	-10.0714
adp	-10.072
alk	-10.0727
outperform	-10.0732
▁number	-10.074
▁twitter	-10.0752
▁facebook	-10.0757
hr	-10.0761
▁note	-10.0764
afl	-10.0768
ilmn	-10.0774
xlp	-10.0779
▁reason	-10.0784
trader	-10.079
▁pros	-10.0798
back	-10.08
▁different	-10.0802
▁announced	-10.0833
hes	-10.0834
ary	-10.0835
▁true	-10.0845
he	-10.0846
▁always	-10.0855
hpc	-10.088
21	-10.0883
▁everyone	-10.0891
▁anyone	-10.0895
▁commentary	-10.092
8,000	-10.0931
dly	-10.0935
▁bit	-10.0935
▁mentioned	-10.0936
▁pretty	-10.0939
▁leaders	-10.0953
28	-10.0959
amlh	-10.096
eurusd	-10.096
▁powerful	-10.0962
▁28	-10.0969
xgti	-10.0974
▁project	-10.0989
like	-10.0994
▁affect	-10.1004
▁tweets	-10.1006
▁room	-10.1011
▁737	-10.1016
▁collaboration	-10.1019
gi	-10.1025
▁gold	-10.1026
bhp	-10.1032
▁paid	-10.1035
▁missed	-10.1041
▁$6	-10.1042
▁highlights	-10.1053
▁poised	-10.1055
-4	-10.1073
▁powered	-10.1073
▁macd	-10.1076
▁success	-10.1076
▁lost	-10.1077
▁weighs	-10.1078
goldmansachs	-10.108
▁benefit	-10.108
nt	-10.1087
▁20%	-10.1091
▁costs	-10.1102
▁four	-10.1102
sdrl	-10.111
▁surface	-10.1113
pt	-10.1113
▁perfect	-10.1116
mill	-10.1119
▁thank	-10.112
pb	-10.1134
9,000	-10.1134
▁clear	-10.1135
com	-10.1145
ny	-10.1147
▁oncbiomune	-10.1151
swingtrading	-10.1151
▁downtrend	-10.1169
06	-10.1173
▁ratio	-10.1178
id	-10.1186
based	-10.1193
▁losing	-10.1193
34	-10.1204
em	-10.1209
▁economist	-10.1233
▁else	-10.1234
▁sense	-10.1237
▁finds	-10.1239
▁watson	-10.1246
aud	-10.1249
ecommerce	-10.1255
dis	-10.1263
ac	-10.1266
▁trials	-10.1268
36	-10.127
eca	-10.1278
▁summary	-10.1289
▁idea	-10.1295
yr	-10.1301
rn	-10.1302
▁split	-10.1302
▁airline	-10.1308
hl	-10.1315
slv	-10.1319
▁oversold	-10.1328
americanexpress	-10.1331
eadsf	-10.1345
less	-10.136
▁workers	-10.1363
▁cc	-10.1363
▁discount	-10.1369
42	-10.137
▁pressure	-10.1375
tsm	-10.1385
banks	-10.1395
▁turn	-10.1407
▁please	-10.1408
tel	-10.1408
▁advanced	-10.1421
trip	-10.1431
▁interview	-10.1436
▁banking	-10.1439
▁paying	-10.145
▁adds	-10.1457
hi	-10.1475
1500	-10.1496
▁immelt	-10.1497
13	-10.1499
▁brief	-10.1506
▁lol	-10.1507
more	-10.1516
▁cnbc	-10.1524
bcs	-10.1529
▁examples	-10.153
▁cons	-10.1534
▁advisers	-10.1534
aal	-10.1536
▁wondering	-10.154
-15	-10.1546
na	-10.1555
ara	-10.1556
▁black	-10.1556
▁step	-10.1563
ity	-10.1565
see	-10.1572
sfor	-10.1572
▁industrial	-10.1578
):	-10.158
▁midday	-10.1589
download	-10.1594
▁longer	-10.1597
▁mkt	-10.1599
dowjones	-10.16
windows	-10.1617
6.	-10.162
▁index	-10.1622
fcau	-10.1629
▁sum	-10.163
▁unit	-10.1635
▁role	-10.1645
59	-10.1645
▁james	-10.1672
frc	-10.1675
mck	-10.1683
▁mexico	-10.1711
▁cross	-10.1714
swn	-10.1717
▁intra	-10.1718
▁heavily	-10.173
▁cfo	-10.1745
▁went	-10.1755
▁eyes	-10.1756
banking	-10.1757
investingforlife	-10.1759
panw	-10.1759
▁roundup	-10.1762
test	-10.1763
dcvax	-10.1772
star	-10.1772
▁lots	-10.1772
bankofamerica	-10.1774
▁losses	-10.1776
list	-10.1797
for	-10.1811
▁amid	-10.1816
▁west	-10.1818
▁learning	-10.1827
ttd	-10.1831
ice	-10.1834
▁bear	-10.1837
▁talking	-10.1839
life	-10.184
pi	-10.1854
86	-10.1882
bio	-10.1893
29	-10.1896
▁bulls	-10.1902
▁$100	-10.1902
▁approved	-10.1921
▁critical	-10.1926
▁giant	-10.1936
▁beyond	-10.1946
▁trouble	-10.195
mcsk	-10.1956
2.5	-10.1957
▁forward	-10.1958
.01	-10.1962
▁european	-10.1986
80	-10.1986
share	-10.199
▁leverage	-10.1992
▁water	-10.1997
ocul	-10.1999
ohi	-10.2
io	-10.2009
▁joins	-10.2012
84	-10.2017
don	-10.203
▁thought	-10.2033
bn	-10.2034
change	-10.2037
▁espn	-10.204
▁tweet	-10.206
▁copper	-10.2068
▁stocktwits	-10.2069
▁helping	-10.207
▁lifted	-10.2075
▁lines	-10.2086
▁within	-10.2089
itigroup	-10.2092
wen	-10.2095
mesh	-10.2108
con	-10.2113
▁momentum	-10.2114
▁ceos	-10.2118
▁threat	-10.2131
▁present	-10.214
▁decision	-10.2144
▁approve	-10.2151
stage	-10.2152
ubs	-10.2155
▁adding	-10.2166
patent	-10.2168
??	-10.2169
▁cell	-10.2174
▁jamie	-10.2179
ring	-10.2188
▁23	-10.2191
dvax	-10.2194
net	-10.2196
arnc	-10.2208
▁former	-10.2215
nugt	-10.2222
▁moved	-10.223
▁left	-10.2237
ti	-10.2238
▁ok	-10.2249
07	-10.225
26	-10.225
fom	-10.2251
▁insights	-10.2253
fo	-10.2257
▁explores	-10.2262
gt	-10.2263
if	-10.2266
▁buyers	-10.2267
▁compete	-10.2268
▁failure	-10.2287
▁clients	-10.2297
twlo	-10.2314
▁problem	-10.2318
mnst	-10.2334
▁jet	-10.2338
lng	-10.2341
▁employee	-10.2347
▁death	-10.2347
by	-10.2349
▁orders	-10.235
ugaz	-10.2362
▁icymi	-10.2364
▁fo	-10.2367
sco	-10.2371
▁includes	-10.2389
▁ideas	-10.2391
hrl	-10.2398
▁wind	-10.2399
▁fail	-10.2404
▁cause	-10.2405
▁favorite	-10.2407
▁richard	-10.2423
hsbc	-10.2424
76	-10.2429
stone	-10.2435
▁berkshire	-10.2436
▁rbc	-10.2443
point	-10.245
▁bay	-10.245
▁stick	-10.2451
▁wrap	-10.2468
rio	-10.247
▁falling	-10.2472
▁andrew	-10.2485
ain	-10.2487
▁mind	-10.2488
75	-10.2493
eric	-10.2495
air	-10.2499
▁subscribe	-10.2503
idea	-10.2505
▁stars	-10.2512
▁without	-10.2516
▁tips	-10.2523
dxtr	-10.2532
▁created	-10.2534
▁road	-10.2542
appl	-10.2546
ng	-10.255
gg	-10.2564
▁27	-10.2567
asti	-10.2569
48	-10.2571
intelligence	-10.2572
gbpusd	-10.258
▁ask	-10.2603
marketers	-10.2623
jnj	-10.2628
ta	-10.2629
1%	-10.2629
▁losers	-10.2636
mnk	-10.2641
mgm	-10.2648
8,	-10.2658
▁challenge	-10.267
▁expiration	-10.2675
▁remains	-10.2683
▁running	-10.2684
cat	-10.2715
▁link	-10.2722
▁facts	-10.2729
itci	-10.273
▁wkly	-10.2741
▁provide	-10.275
▁matter	-10.2752
▁development	-10.2763
▁enterprise	-10.2778
generalelectric	-10.2788
▁profitable	-10.2791
▁surge	-10.2799
▁$12	-10.2802
usdjpy	-10.2804
▁significant	-10.2812
▁symbol	-10.2815
▁anti	-10.2815
pu	-10.2819
▁bernstein	-10.282
60	-10.2821
ria	-10.2825
▁director	-10.2835
▁used	-10.2848
▁rich	-10.2849
infy	-10.2852
▁dark	-10.2855
book	-10.2862
dri	-10.2862
ty	-10.2869
▁bezos	-10.2882
41	-10.2882
▁actually	-10.2886
▁growing	-10.2893
▁face	-10.2899
▁$25	-10.2915
▁lloyd	-10.2918
consumer	-10.2922
▁sprint	-10.2933
mega	-10.2934
our	-10.2941
age	-10.2954
99	-10.2957
brd	-10.2964
▁ban	-10.2966
▁probably	-10.298
▁act	-10.2984
▁downside	-10.2992
▁shift	-10.2995
▁anything	-10.3
▁upgrade	-10.3002
▁qualcomm	-10.3004
▁unce	-10.3004
▁creat	-10.301
return	-10.3019
▁est	-10.3026
nc	-10.3027
▁posted	-10.303
67	-10.3046
▁lose	-10.3061
79	-10.3062
47	-10.3062
▁survey	-10.3083
▁including	-10.3085
▁rev	-10.3093
apo	-10.3093
hly	-10.3108
best	-10.3109
▁revenues	-10.311
med	-10.3113
value	-10.3113
uup	-10.3128
▁heatmap	-10.3133
▁called	-10.3136
gme	-10.3138
▁white	-10.3154
63	-10.3158
slw	-10.3169
▁catch	-10.3188
▁yields	-10.3188
▁mark	-10.3191
erm	-10.3198
77	-10.3198
nov	-10.32
▁pill	-10.3205
ro	-10.3218
pbyi	-10.3235
▁//	-10.3235
opec	-10.3237
mac	-10.324
trp	-10.3243
▁special	-10.3251
▁summer	-10.3255
uwti	-10.3257
54	-10.3263
85	-10.3265
▁edition	-10.3269
▁thinking	-10.3271
▁reform	-10.3283
▁vice	-10.329
▁solutions	-10.3307
bullish	-10.331
▁later	-10.331
▁suit	-10.3316
▁buyer	-10.3319
▁happened	-10.3326
▁resources	-10.333
oke	-10.3336
▁agree	-10.334
hard	-10.334
bbt	-10.334
ness	-10.3343
pre	-10.3346
[	-10.3348
▁supply	-10.3351
rge	-10.3357
▁files	-10.3361
ko	-10.3365
pay	-10.3395
trillion	-10.3403
▁though	-10.3404
ful	-10.3405
▁bigger	-10.3408
ulta	-10.341
▁class	-10.3415
▁him	-10.3424
▁longe	-10.3429
▁expands	-10.3432
xrx	-10.345
▁previous	-10.3452
.00	-10.3454
aaoi	-10.3457
▁$7	-10.3458
▁plays	-10.3458
▁screener	-10.3461
risk	-10.3462
disrupt	-10.3467
rallying	-10.347
▁26	-10.3491
▁imo	-10.3491
▁according	-10.3495
▁blankfein	-10.3499
rr	-10.35
▁usa	-10.3502
▁multi	-10.351
but	-10.3522
this	-10.3538
dvn	-10.3543
nem	-10.355
ate	-10.3554
▁signed	-10.3561
cocacola	-10.3564
▁exec	-10.3576
▁10:45	-10.3578
▁combination	-10.3578
▁words	-10.3584
bsx	-10.3585
▁tillerson	-10.3586
▁06	-10.3588
aci	-10.3589
▁crude	-10.3594
wly	-10.3595
txs	-10.3605
ranked	-10.3615
▁balance	-10.3623
▁executive	-10.3635
ning	-10.3636
▁hea	-10.3638
exit	-10.3641
▁discuss	-10.3644
▁lawsuit	-10.3645
▁brands	-10.3647
yelp	-10.3648
▁clinical	-10.3649
▁cover	-10.3653
chk	-10.3656
▁scan	-10.3659
ew	-10.3666
69	-10.3668
▁explore	-10.3673
▁unlimited	-10.3674
csco	-10.3675
▁expand	-10.3685
▁self	-10.3701
▁customize	-10.3701
▁improve	-10.3704
▁info	-10.3705
▁begin	-10.3709
intc	-10.3728
▁device	-10.3732
▁fool	-10.3733
cc	-10.3751
9%	-10.3753
tasr	-10.3756
▁estate	-10.3756
▁seeing	-10.3757
▁letter	-10.3757
amt	-10.3764
▁remain	-10.3767
tif	-10.377
xo	-10.3773
▁commercial	-10.3775
▁2%	-10.3777
pd	-10.3794
▁series	-10.3802
▁falls	-10.3805
main	-10.381
▁$14	-10.3814
61	-10.3816
▁account	-10.3817
▁finding	-10.3842
▁develop	-10.386
▁york	-10.3862
▁amazing	-10.3862
▁infrastructure	-10.3864
strong	-10.3865
▁jump	-10.3873
jnpr	-10.388
▁filing	-10.3893
eat	-10.3897
can	-10.3898
▁india	-10.3901
tza	-10.391
▁rose	-10.3927
▁straight	-10.3936
now	-10.3937
bmrn	-10.3937
▁pulse	-10.3938
▁across	-10.394
▁climate	-10.3943
▁policies	-10.3952
▁tonight	-10.3953
▁percent	-10.3953
▁force	-10.3954
▁5%	-10.3957
▁government	-10.3959
▁reversal	-10.3963
▁10%	-10.3963
▁forget	-10.3963
vfc	-10.3975
▁evp	-10.3976
bridge	-10.3976
box	-10.3984
▁solar	-10.3986
himx	-10.3989
ine	-10.3998
mmm	-10.4016
▁pension	-10.4019
tm	-10.4023
sgmo	-10.4027
▁overvalued	-10.4035
financial	-10.4038
43	-10.4044
▁crazy	-10.4046
▁theme	-10.4046
▁cutting	-10.4049
27	-10.4057
gx	-10.4061
▁music	-10.4065
▁lung	-10.4065
▁guess	-10.4066
anet	-10.4067
▁reached	-10.4071
bac	-10.4074
▁bust	-10.4076
dgi	-10.4083
▁intelligence	-10.4089
wk	-10.409
aapl	-10.4093
▁$11	-10.4099
▁cont	-10.4102
▁staff	-10.4111
78	-10.4112
▁mad	-10.4112
▁park	-10.4118
rk	-10.4119
▁progress	-10.4126
▁rebound	-10.4131
dfs	-10.4133
creativity	-10.4136
▁division	-10.4136
▁agenda	-10.4136
microcap	-10.4137
57	-10.4142
▁challenges	-10.4146
▁avoid	-10.4149
brl	-10.4153
95	-10.4164
05	-10.4171
88	-10.4172
▁peers	-10.4194
▁dollar	-10.4209
car	-10.4212
▁chinese	-10.4212
▁jp	-10.4213
▁splash	-10.4229
▁washington	-10.4231
▁yourself	-10.4235
fas	-10.4245
fhn	-10.4249
syy	-10.4257
ivv	-10.4258
▁surprise	-10.4266
▁closes	-10.427
▁base	-10.4274
sds	-10.4277
ance	-10.4286
hca	-10.4287
au	-10.4288
ct	-10.4303
angement	-10.4304
▁heavy	-10.4307
▁discussed	-10.4307
▁website	-10.4321
91	-10.4323
▁mixed	-10.4325
▁coke	-10.4335
blocktrade	-10.4341
▁fresh	-10.4343
▁tesla	-10.4344
ssi	-10.4348
ila	-10.435
▁100%,	-10.4351
wood	-10.4357
▁clean	-10.4358
▁pr	-10.4358
lulu	-10.4379
93	-10.438
jjc	-10.438
pxd	-10.4384
sales	-10.4384
▁bubble	-10.4388
bu	-10.4388
12	-10.4389
▁rumors	-10.4398
sc	-10.44
▁form	-10.4403
68	-10.4403
▁told	-10.441
ford	-10.4416
ray	-10.4417
▁seek	-10.4429
optionstrategy	-10.4437
da	-10.4441
▁spend	-10.4442
▁micro	-10.4444
▁21-	-10.4455
bc	-10.4466
▁2017?	-10.4468
▁15:1	-10.4471
▁avg	-10.4481
▁begins	-10.4485
▁delta	-10.4489
▁deep	-10.4489
▁mag	-10.4493
▁instead	-10.4498
▁innovation	-10.4506
5.00	-10.451
▁weight	-10.4513
▁ticker	-10.4514
aez	-10.4519
▁bar	-10.4521
nly	-10.4521
▁tells	-10.4524
▁stack	-10.4536
▁pos	-10.4539
rh	-10.4541
▁negative	-10.4543
▁picking	-10.4558
ad	-10.4564
▁zero	-10.4567
▁federal	-10.4577
nya	-10.4582
▁flight	-10.4582
nx	-10.4585
▁third	-10.4588
▁south	-10.4589
perfect	-10.4592
.¡	-10.4598
▁covered	-10.46
iv	-10.4605
▁playing	-10.4607
▁yahoofinance	-10.4613
bto	-10.4616
▁unveil	-10.4619
64	-10.4623
81	-10.4625
next	-10.4628
imuc	-10.4629
▁arrows	-10.4634
7,	-10.464
▁correction	-10.4655
▁shouldn	-10.4662
▁fyi	-10.4668
▁notes	-10.4672
49	-10.4679
73	-10.468
▁($	-10.4684
▁council	-10.4687
lu	-10.4688
▁quality	-10.469
sap	-10.4695
▁chips	-10.4697
glbs	-10.4698
job	-10.4698
wm	-10.4704
89	-10.4705
▁texas	-10.4705
▁firms	-10.4706
▁deliver	-10.4719
pro	-10.4725
▁+1	-10.4728
▁events	-10.4728
▁meet	-10.4741
▁chk	-10.4742
dust	-10.4743
▁wars	-10.4745
▁stifel	-10.4746
▁country	-10.4746
machinelearning	-10.4766
▁baird	-10.4766
▁social	-10.4766
▁student	-10.4769
▁compared	-10.4779
▁billions	-10.4779
▁airbus	-10.4792
over	-10.4794
▁plant	-10.48
urbn	-10.4806
▁tough	-10.4816
▁fine	-10.4818
▁default	-10.4825
39	-10.483
▁strike	-10.4832
gl	-10.4833
ka	-10.4836
▁failed	-10.4837
vm	-10.4838
▁event	-10.4848
▁city	-10.4848
▁question	-10.4849
▁channel	-10.4853
duk	-10.4858
▁boom	-10.4865
▁driving	-10.4867
▁therapy	-10.487
coffee	-10.4873
98	-10.4876
nxpi	-10.4885
va	-10.4905
pnra	-10.4908
▁float	-10.4911
▁travel	-10.4919
▁4%	-10.4924
vo	-10.4936
ps	-10.4942
▁costco	-10.4942
what	-10.4946
mtbanalysis	-10.4946
▁offering	-10.4948
option	-10.4948
▁$22	-10.4951
▁thinks	-10.4952
▁hod	-10.4954
tu	-10.496
▁alphabet	-10.4963
ling	-10.4964
hedging	-10.4965
37	-10.4967
▁opens	-10.4976
gileadsciences	-10.4985
▁concerns	-10.499
▁keeps	-10.4996
mb	-10.4997
▁saudi	-10.4998
▁career	-10.5
high	-10.5004
▁reach	-10.5004
▁wed	-10.5006
▁trending	-10.5006
▁king	-10.5016
jo	-10.5022
▁da	-10.5022
▁penny	-10.5032
▁bloomberg	-10.5034
gc	-10.5044
▁earning	-10.5044
▁michael	-10.5045
rice	-10.5062
np	-10.5062
▁slow	-10.5063
▁xbox	-10.5064
▁ways	-10.5072
nue	-10.5077
▁simple	-10.5086
▁each	-10.5087
▁along	-10.5088
▁+0	-10.5092
stockoptions	-10.5102
▁boston	-10.5104
yry	-10.5105
itunes	-10.5106
▁saw	-10.5107
amgn	-10.5108
huw	-10.5111
▁flip	-10.5115
▁killing	-10.5115
adsk	-10.5116
▁william	-10.5123
▁cheaper	-10.5133
56	-10.5134
▁comp	-10.5142
▁successful	-10.5165
▁ny	-10.5172
▁frontier	-10.5172
ana	-10.5176
oas	-10.5182
use	-10.5185
▁similar	-10.5188
svxy	-10.5188
▁repatha	-10.5191
▁etfs	-10.5195
▁feed	-10.5196
▁bears	-10.521
aria	-10.522
▁reflect	-10.5229
income	-10.523
pvh	-10.5231
▁vi	-10.5233
▁era	-10.5235
▁wonder	-10.5238
alr	-10.5242
chip	-10.5243
▁ground	-10.525
briankrzanich	-10.525
▁unlikely	-10.5251
neutral	-10.5258
▁du	-10.526
▁smith	-10.5272
tf	-10.5278
▁fair	-10.528
▁9,	-10.5288
▁downgrade	-10.5289
▁fire	-10.529
▁planning	-10.5294
sdow	-10.53
▁shareplanner	-10.5312
▁presentation	-10.5313
wtw	-10.5314
sfm	-10.5315
▁trends	-10.5318
▁continued	-10.5319
▁50%	-10.532
▁happen	-10.5321
dwti	-10.5324
▁networks	-10.533
▁triple	-10.5334
love	-10.5335
lea	-10.5337
52	-10.5353
▁overweight	-10.5355
cy	-10.5355
▁$40	-10.5358
immu	-10.5359
une	-10.5369
grub	-10.5378
sto	-10.5379
[$	-10.5386
▁saying	-10.5389
factory	-10.5391
oc	-10.5394
▁aristocrats	-10.5396
grow	-10.54
▁faces	-10.5402
tion	-10.5415
quantitative	-10.5417
cumulati	-10.5417
▁effective	-10.5418
▁having	-10.5419
>>	-10.5425
▁declares	-10.5427
83	-10.543
,000	-10.5433
target	-10.544
▁eod	-10.5441
▁warning	-10.5446
edly	-10.5446
▁tracking	-10.5451
▁such	-10.546
ck	-10.546
fgen	-10.5463
87	-10.5466
ads	-10.5472
▁flat	-10.5477
▁flag	-10.5479
itw	-10.548
presence	-10.548
ib	-10.5483
nbr	-10.5488
-#	-10.5493
fred	-10.5494
▁rivals	-10.5497
▁probe	-10.5499
▁futures	-10.5506
▁secret	-10.5528
53	-10.553
ping	-10.5533
axp	-10.5535
apos	-10.5538
beat	-10.555
▁consider	-10.5554
▁mac	-10.5555
follow	-10.5559
▁forever	-10.5573
dma	-10.5579
ay	-10.5585
eadsy	-10.5587
down	-10.5593
gdxj	-10.5594
▁questions	-10.5603
09	-10.5604
▁invested	-10.5607
▁confirmation	-10.5608
▁creative	-10.5609
qu	-10.563
howto	-10.5632
▁minutes	-10.5633
▁path	-10.5636
stocktrading	-10.5653
siq	-10.566
kate	-10.5663
▁beast	-10.5666
92	-10.5667
8%	-10.5683
private	-10.5684
ttwo	-10.5688
ru	-10.569
▁count	-10.569
▁discusse	-10.5695
▁$200	-10.5695
70	-10.5699
▁millions	-10.5709
▁released	-10.5711
▁wave	-10.5715
▁vaccine	-10.5715
▁final	-10.572
phm	-10.5735
▁anticipate	-10.5745
▁uses	-10.5747
fold	-10.5748
ceo	-10.5766
comp	-10.5767
▁leads	-10.5773
syf	-10.5775
driving	-10.5778
▁brings	-10.5784
review	-10.5786
arious	-10.5794
aws	-10.5794
▁night	-10.5796
nash	-10.5797
▁shopping	-10.5797
▁retailer	-10.5799
kbe	-10.5799
200	-10.5799
▁itself	-10.5805
▁overbought	-10.5816
tic	-10.5821
put	-10.5824
ainty	-10.5826
▁brian	-10.5827
1/	-10.5835
▁aren	-10.5844
▁22	-10.5845
▁donald	-10.5847
fg	-10.5867
▁med	-10.5874
▁hands	-10.5884
ntap	-10.5888
▁steady	-10.5891
price	-10.5892
shw	-10.5894
ppl	-10.5901
▁works	-10.5903
▁foundation	-10.5914
here	-10.5923
▁fuck	-10.5941
▁yr	-10.5945
ben	-10.5945
▁save	-10.5947
▁proven	-10.5957
▁popular	-10.5958
▁gonn	-10.5961
inf	-10.5973
▁earlier	-10.5979
flxn	-10.5979
▁iger	-10.5988
▁savings	-10.5989
iyr	-10.5991
▁candidate	-10.6001
live	-10.6001
▁overseas	-10.6003
▁paris	-10.6003
▁30%	-10.6011
▁#52	-10.6014
bo	-10.6017
▁search	-10.6019
ei	-10.602
gpc	-10.6026
▁japan	-10.6049
ub	-10.6052
▁setting	-10.6055
▁happens	-10.6056
▁hiv	-10.6058
▁fell	-10.6058
▁rumor	-10.606
▁led	-10.6061
74	-10.6073
8.	-10.6073
▁mutual	-10.6081
▁llp	-10.6096
▁control	-10.6097
▁31	-10.6098
▁someone	-10.61
▁rare	-10.6106
ari	-10.6108
weekhigh	-10.6115
▁ha	-10.612
cash	-10.6128
gnft	-10.6136
suppo	-10.6139
▁discussion	-10.6143
3%	-10.6146
lite	-10.6147
▁biz	-10.6155
msft	-10.6155
mjtk	-10.6161
▁btw	-10.6163
▁rip	-10.6163
▁feature	-10.6191
arry	-10.6201
oott	-10.6203
▁congress	-10.6204
▁calculated	-10.6205
etsy	-10.6207
▁spot	-10.6215
▁steve	-10.622
fomc	-10.6221
▁crash	-10.6222
develop	-10.6225
▁send	-10.6229
▁frames	-10.6236
▁advance	-10.6237
▁moe	-10.6243
▁samsung	-10.6248
wa	-10.6249
▁trillion	-10.6251
talk	-10.6253
▁opened	-10.6264
▁testy	-10.6266
▁leave	-10.6277
51	-10.6286
anford	-10.6287
▁lowe	-10.629
▁subscriptions	-10.6294
▁worry	-10.6304
currents	-10.6314
▁earn	-10.6321
▁8-	-10.6322
gww	-10.6322
ian	-10.6336
gas	-10.634
watch	-10.6346
▁enhance	-10.6349
▁whatever	-10.635
▁mega	-10.6355
btu	-10.6357
▁williams	-10.6383
▁fri	-10.6383
▁leerink	-10.6388
▁fraud	-10.6391
long	-10.6394
▁journals	-10.6403
1,550	-10.641
▁animation	-10.6411
▁discovery	-10.6414
▁payments	-10.6423
▁execs	-10.6433
▁putcallratio	-10.6434
gnc	-10.6438
baesystems	-10.6438
▁eu	-10.6442
ver	-10.645
ions	-10.6457
▁excellent	-10.6458
trumpdon	-10.6473
spls	-10.6484
▁missing	-10.6485
instant	-10.6485
▁honor	-10.6486
ann	-10.6493
▁gaining	-10.6495
mr	-10.6495
res	-10.6496
▁increasing	-10.6501
wy	-10.6502
▁family	-10.6502
▁visa	-10.6503
cmcsa	-10.6504
uri	-10.6505
hrb	-10.6509
▁stress	-10.6512
ish	-10.6518
ical	-10.652
▁sharing	-10.6528
mfst	-10.653
▁application	-10.6535
uber	-10.654
▁advisor	-10.6556
wlt	-10.6558
▁setups	-10.6573
▁feel	-10.6574
▁lynch	-10.6575
▁broken	-10.6581
ley	-10.6582
▁omg	-10.6595
▁consistency	-10.6599
▁opinions	-10.6599
retirement	-10.6601
▁pc	-10.6601
ec	-10.6606
▁amex	-10.6608
▁industrials	-10.6608
▁limited	-10.6627
om	-10.6641
▁dvd	-10.6646
▁voice	-10.665
▁fill	-10.6652
▁web	-10.6653
03	-10.6655
▁dollars	-10.6656
▁asked	-10.6661
▁notice	-10.6662
profits	-10.6663
▁risers	-10.6674
cnbc	-10.668
sam	-10.6691
▁gnodde	-10.6694
ever	-10.6695
strp	-10.6695
▁radar	-10.6697
ati	-10.6698
▁2016.	-10.6709
len	-10.6711
▁transition	-10.6718
af	-10.6724
▁grocery	-10.6726
▁shake	-10.6729
▁enters	-10.673
▁unicorn	-10.6735
fdc	-10.6735
▁reading	-10.6735
▁pivot	-10.674
▁tickers	-10.6742
▁gainers	-10.6742
nv	-10.6745
save	-10.6746
▁soar	-10.6748
▁heading	-10.6752
▁dep	-10.6754
▁environment	-10.6759
fund	-10.6759
uwt	-10.676
▁nicolaus	-10.6766
▁couple	-10.6766
ipo	-10.6771
▁yellen	-10.6772
field	-10.6775
imagination	-10.679
▁senior	-10.679
▁cio	-10.6791
ke	-10.6792
▁informed	-10.6814
socialmedia	-10.6814
mcd	-10.6816
friday	-10.6818
300	-10.682
▁considering	-10.6831
▁na	-10.6837
▁gave	-10.684
security	-10.6842
31	-10.6845
72	-10.6855
▁dec	-10.6859
▁lesson	-10.688
▁dog	-10.6883
▁cent	-10.6884
58	-10.6884
▁site	-10.6887
▁hikes	-10.6898
▁hate	-10.6898
62	-10.6905
▁appeal	-10.6911
dltr	-10.6912
▁forum	-10.6913
rog	-10.6915
gr	-10.6918
▁profiled	-10.6923
▁dr	-10.6932
96	-10.6933
mnkd	-10.6934
▁50-	-10.6935
▁gulf	-10.6936
▁crisis	-10.6938
▁qatar	-10.6939
▁consumers	-10.6945
wealth	-10.6947
▁sets	-10.695
che	-10.6958
▁headed	-10.6963
▁loan	-10.697
elite	-10.6972
▁enter	-10.6973
view	-10.6976
▁wi	-10.6976
ldx	-10.6978
▁dates	-10.6978
▁faster	-10.6981
▁gone	-10.6984
▁seeking	-10.6988
▁answer	-10.6988
▁broke	-10.6997
ddd	-10.7003
ot	-10.7005
ney	-10.7006
genomics	-10.7009
▁fees	-10.701
▁organ	-10.7013
▁experience	-10.7019
▁race	-10.7021
▁presents	-10.7036
ial	-10.7039
▁effo	-10.7042
sti	-10.7044
ten	-10.7045
▁ride	-10.7056
▁#3	-10.706
▁nova	-10.706
▁named	-10.7069
ld	-10.7077
sky	-10.7077
▁starbucks	-10.7078
▁revolution	-10.7082
▁turning	-10.7085
cu	-10.7087
▁2/3	-10.7087
800	-10.7088
opdivo	-10.709
▁handle	-10.7091
icloud	-10.7092
▁sheet	-10.7102
▁introduce	-10.7104
▁reveals	-10.7116
▁reuters	-10.712
tsh	-10.7123
lay	-10.7125
tcare	-10.7132
blesse	-10.7132
▁dump	-10.7134
▁reminder	-10.7138
▁women	-10.7145
▁25%	-10.7148
▁motley	-10.7158
▁rubin	-10.7159
▁taxes	-10.7172
▁slide	-10.7175
▁concept	-10.7184
▁tests	-10.7184
▁download	-10.7192
▁impressive	-10.7201
▁ft	-10.7205
▁players	-10.7206
auph	-10.7209
deo	-10.7214
clear	-10.7215
▁ios	-10.7217
mkc	-10.7234
qsr	-10.7235
fitb	-10.7237
dy	-10.7249
▁solution	-10.7251
▁flows	-10.726
buzz	-10.7263
▁border	-10.7268
▁bofa	-10.727
esv	-10.7275
▁loses	-10.7287
▁protect	-10.7289
▁$23	-10.7297
▁yrs	-10.7301
▁hear	-10.7307
▁lets	-10.731
dgaz	-10.7312
oled	-10.7315
▁either	-10.7318
investment	-10.7325
halo	-10.7332
ese	-10.7333
▁suntrust	-10.7335
jobs	-10.7338
▁shot	-10.7347
har	-10.7358
▁jumps	-10.7362
mann	-10.7374
▁cat	-10.7376
mark	-10.7376
▁$8	-10.7381
▁frazier	-10.7386
▁optimism	-10.7386
▁confirmed	-10.739
vmw	-10.7393
▁wil	-10.7398
▁2020	-10.7398
▁studies	-10.7412
▁school	-10.7418
▁education	-10.7427
well	-10.7433
▁host	-10.7433
way	-10.7438
▁$30	-10.7438
▁projected	-10.7456
bkd	-10.7457
▁expo	-10.7458
million	-10.7461
fin	-10.747
espr	-10.7471
▁implie	-10.7479
ozrk	-10.7489
▁chatter	-10.749
▁azure	-10.7491
ntes	-10.7491
▁abbvie	-10.7494
▁computer	-10.7494
mkt	-10.7512
ewo	-10.7512
nce	-10.7514
labu	-10.7516
.02	-10.7517
▁overall	-10.7517
ax	-10.7519
▁initiated	-10.7523
▁chicago	-10.7524
xom	-10.7535
▁gene	-10.7536
just	-10.7546
▁hill	-10.7547
vz	-10.7552
▁generic	-10.7557
▁therapeutics	-10.7566
▁talent	-10.7567
▁shale	-10.7568
hiring	-10.7568
▁nash	-10.7569
setups	-10.757
▁flash	-10.7574
▁quite	-10.7578
kre	-10.7597
▁size	-10.7603
▁wsj	-10.7604
town	-10.7607
▁teache	-10.7608
▁40	-10.761
hrs	-10.7619
▁monster	-10.7619
▁message	-10.762
▁1/2	-10.7623
any	-10.7629
ema	-10.7632
▁needed	-10.7635
exc	-10.7639
▁suggest	-10.7639
38%	-10.7644
bis	-10.7645
▁detected	-10.7647
▁operations	-10.7649
▁miller	-10.765
▁award	-10.765
rx	-10.7652
-17	-10.7658
espn	-10.7664
500,000	-10.7671
▁course	-10.7672
▁fou	-10.7674
fr	-10.7675
▁ugly	-10.7685
hsy	-10.7687
38	-10.7698
▁roche	-10.7698
cas	-10.7701
▁lilly	-10.7702
▁brick	-10.7702
08	-10.7706
▁completes	-10.7709
confident	-10.7724
cvshealth	-10.7725
▁rather	-10.7726
▁revs	-10.7727
▁hour	-10.7731
▁sykes	-10.7735
▁marc	-10.7741
▁dont	-10.7745
▁leadership	-10.7747
jnug	-10.7751
▁scoop	-10.7753
▁announcement	-10.7754
great	-10.7756
63-	-10.7764
wtr	-10.7768
▁biosimilar	-10.7771
▁listen	-10.7773
▁middle	-10.7778
▁attack	-10.7779
▁recently	-10.778
▁sub	-10.7781
▁rsi	-10.7789
▁robot	-10.7794
▁icahn	-10.7804
war	-10.7807
dr	-10.7817
▁heads	-10.782
▁decade	-10.7831
▁easier	-10.7832
fnsr	-10.7833
zts	-10.7834
rus	-10.7835
▁hundreds	-10.7837
uck	-10.784
▁opinion	-10.7858
▁comparison	-10.7858
▁blair	-10.7859
▁20,000	-10.7859
dov	-10.7872
▁spo	-10.7873
▁entire	-10.7874
▁75	-10.788
▁relative	-10.7881
▁permian	-10.7884
fxi	-10.7894
▁ignore	-10.7897
▁table	-10.79
xl	-10.7901
▁movie	-10.7908
▁fuel	-10.791
▁legal	-10.7913
▁touch	-10.7916
▁retire	-10.7917
acc	-10.7922
orex	-10.7927
win	-10.7929
fusion	-10.7939
▁dominate	-10.7939
65	-10.7941
▁fake	-10.7945
▁adve	-10.7955
▁conversation	-10.796
▁information	-10.796
04	-10.7963
▁confidence	-10.7966
mack	-10.7972
indu	-10.7979
▁pd	-10.7983
▁expects	-10.7996
shares	-10.8003
▁main	-10.8012
play	-10.8017
▁ranges	-10.8017
▁steps	-10.8019
dnkn	-10.8021
▁panel	-10.8021
▁patient	-10.8021
▁adv	-10.8024
biosimilar	-10.8025
▁slides	-10.803
seo	-10.8033
most	-10.804
pepsico	-10.8049
how	-10.8049
▁sellers	-10.8052
ju	-10.8054
wr	-10.8056
old	-10.8059
▁turns	-10.8063
▁gained	-10.8064
▁human	-10.8068
▁predictions	-10.8074
▁auto	-10.8075
▁fails	-10.808
▁union	-10.8082
▁silver	-10.8085
▁lift	-10.8091
▁choice	-10.8098
xlnx	-10.8103
apr	-10.8108
▁owns	-10.8115
.¡±	-10.8115
mcs	-10.8123
sl	-10.8123
nn	-10.8125
▁champions	-10.8125
▁harvey	-10.8128
mdvn	-10.8131
▁excited	-10.8131
▁extend	-10.8138
dcsa	-10.8141
rost	-10.8146
den	-10.8148
▁shell	-10.8153
ino	-10.8155
▁roll	-10.8155
sjm	-10.8161
▁confirms	-10.8163
lsn	-10.8167
▁shipping	-10.8169
stf	-10.8174
get	-10.8179
▁$80	-10.818
who	-10.8188
pl	-10.819
selling	-10.8192
▁side	-10.8194
wmt	-10.8199
adi	-10.8201
drip	-10.8206
▁5.	-10.8206
▁thestreet	-10.8207
frank	-10.8214
▁receiv	-10.8216
.08	-10.822
md	-10.8221
▁tx	-10.8221
▁fcc	-10.8224
mxc	-10.8228
dhi	-10.8229
edit	-10.8238
are	-10.8238
▁lawsuits	-10.8242
tradeideas	-10.8244
syk	-10.8247
▁venture	-10.8247
▁estimate	-10.8257
dhr	-10.8258
▁$26	-10.826
▁newsletter	-10.8269
tan	-10.8271
▁gear	-10.8283
▁echo	-10.8286
media	-10.8294
cannabis	-10.8297
▁attention	-10.8297
▁fully	-10.83
▁beta	-10.8301
▁carry	-10.8302
▁$13	-10.8309
▁lie	-10.8315
stz	-10.8317
marijuana	-10.8325
▁rival	-10.8333
▁baby	-10.8338
aacr	-10.836
fired	-10.8364
tax	-10.8368
▁claims	-10.8375
▁tight	-10.8382
▁rometty	-10.8382
svu	-10.8383
▁charge	-10.8385
▁interested	-10.8397
71	-10.8397
▁bob	-10.8402
!!!!	-10.8403
▁plane	-10.8403
wmb	-10.8406
grpn	-10.841
▁7-	-10.8419
tra	-10.8422
android	-10.8427
▁sony	-10.843
▁cyber	-10.8438
▁mizuho	-10.8438
▁arabia	-10.8438
brook	-10.844
▁priced	-10.844
▁piece	-10.8441
▁match	-10.8442
otc	-10.8443
▁www	-10.8444
home	-10.8446
▁understand	-10.8459
optimization	-10.8467
▁schedule	-10.8467
aerospace	-10.8469
intu	-10.847
▁lockheed	-10.847
▁offshore	-10.847
bro	-10.8475
▁treasury	-10.8477
32	-10.8481
trust	-10.8491
▁dummies	-10.8496
▁piper	-10.8497
pri	-10.8503
glpg	-10.8503
▁ubs	-10.8513
ern	-10.8514
des	-10.8515
▁-0.	-10.8519
bti	-10.8519
▁indicators	-10.8522
▁intermed	-10.8533
▁collaborate	-10.8544
bubble	-10.8548
▁staying	-10.8549
cybersecurity	-10.855
timestamp	-10.8553
▁actelion	-10.8553
▁explain	-10.8554
▁hitting	-10.8557
esg	-10.8559
▁bargain	-10.8562
wal	-10.8563
▁leg	-10.8565
▁reduce	-10.8566
▁candle	-10.8569
▁bio	-10.8571
.....	-10.8571
▁autonomous	-10.858
▁changed	-10.8584
ending	-10.8587
ytr	-10.8591
create	-10.8599
▁speed	-10.8603
▁lake	-10.8603
▁telecom	-10.8605
▁peak	-10.8611
▁storm	-10.8618
▁$24	-10.8627
▁makers	-10.8637
▁airways	-10.864
▁euro	-10.8641
smh	-10.8654
orly	-10.8657
▁version	-10.8658
▁russia	-10.8658
ath	-10.8659
nsc	-10.8667
ising	-10.8667
▁quit	-10.8675
▁fun	-10.8687
trow	-10.8694
ala	-10.8695
tsn	-10.87
▁pass	-10.8704
flr	-10.8714
▁layoffs	-10.8719
gilead	-10.8727
cvs	-10.8728
▁ipad	-10.8728
2016	-10.873
tweet	-10.8735
▁ken	-10.8739
you	-10.8742
▁applications	-10.8748
700	-10.875
uga	-10.8756
bwld	-10.8756
▁consolidation	-10.8757
objectives	-10.8762
ien	-10.8775
▁poponak	-10.8786
▁exactly	-10.8787
▁local	-10.879
▁corner	-10.879
jan	-10.8799
▁outside	-10.88
ls	-10.8807
600	-10.8809
care	-10.8809
netflix	-10.881
▁advances	-10.8812
▁101	-10.8812
▁wish	-10.8814
▁individual	-10.8815
stockstowatch	-10.8815
▁mainstream	-10.8816
oclr	-10.8816
dc	-10.8819
▁$16	-10.8825
store	-10.8831
deeplear	-10.8849
learn	-10.885
management	-10.8855
▁beating	-10.8861
ist	-10.8866
▁official	-10.8867
assess	-10.8874
stemcell	-10.8875
usa	-10.8879
scco	-10.8888
▁mcd	-10.8889
▁closer	-10.8889
▁acquisitions	-10.889
ecl	-10.8893
01	-10.8896
▁several	-10.8901
▁disease	-10.8908
ff	-10.8912
▁carbon	-10.8924
ev	-10.8927
bcr	-10.8933
▁businessinsider	-10.8934
▁hathaway	-10.8934
wafd	-10.8935
▁fact	-10.8937
▁knows	-10.8938
▁lowell	-10.8939
▁treat	-10.894
▁hi	-10.894
jci	-10.8942
ous	-10.8944
0,000	-10.8951
orl	-10.8953
▁scams	-10.8953
1.00	-10.8955
▁cool	-10.896
▁law	-10.8961
▁campaign	-10.8964
▁folks	-10.8964
sgyp	-10.8966
diabetes	-10.8977
mri	-10.8978
2%	-10.8978
economy	-10.8983
jpmorgan	-10.8983
ker	-10.8985
tip	-10.8999
ey	-10.9008
▁poor	-10.9021
azure	-10.9022
▁facing	-10.9024
▁towards	-10.9028
▁operating	-10.9029
▁paper	-10.9043
▁150	-10.9047
1$	-10.905
homedepot	-10.9054
▁baker	-10.9057
▁margin	-10.9058
ws	-10.9061
crypto	-10.9062
▁engine	-10.9062
.50	-10.907
cool	-10.9071
stt	-10.9073
mos	-10.9082
▁breakdown	-10.9087
▁busy	-10.9088
▁political	-10.9088
with	-10.909
▁bot	-10.9096
▁picked	-10.9098
div	-10.9108
▁students	-10.911
driven	-10.9111
searchengine	-10.9115
cal	-10.9117
▁fantastic	-10.9119
▁movement	-10.9123
▁hq	-10.9125
▁page	-10.9126
▁biotechs	-10.9129
▁margins	-10.9135
▁wouldn	-10.914
▁serious	-10.9142
jah	-10.9142
merger	-10.9143
▁community	-10.9146
buddy	-10.9147
▁10-	-10.9149
▁abt	-10.9152
amba	-10.9153
etfc	-10.9154
▁com	-10.9155
keytruda	-10.9158
mine	-10.9169
food	-10.9173
▁association	-10.9176
-$	-10.9178
good	-10.9184
▁hire	-10.919
▁pacific	-10.919
???	-10.919
▁spring	-10.9198
lt	-10.9204
esy	-10.9205
▁terms	-10.9206
▁apps	-10.9208
biosimilars	-10.921
▁pdufa	-10.9211
▁betting	-10.9219
si	-10.9225
▁turned	-10.9227
▁seem	-10.9229
alexand	-10.9239
focused	-10.9241
▁baggers	-10.9246
oo	-10.9253
▁license	-10.9253
▁03	-10.9255
▁prepare	-10.9262
▁changing	-10.9262
stc	-10.9265
▁original	-10.9266
▁youtube	-10.9268
▁contrast	-10.9269
▁macquarie	-10.9269
▁traffic	-10.9269
▁trimmed	-10.9269
▁fear	-10.9269
1.5	-10.9269
▁rolling	-10.9287
ated	-10.9288
▁happening	-10.929
▁golden	-10.9295
ott	-10.93
right	-10.93
▁alex	-10.9303
▁tops	-10.9311
▁$150	-10.9322
source	-10.9324
▁$70	-10.9324
extr	-10.9328
▁december	-10.9331
▁stuff	-10.9331
▁nobody	-10.9333
hill	-10.9336
▁front	-10.9336
website	-10.9336
election	-10.9336
▁hopes	-10.9338
▁gen	-10.934
look	-10.9344
min	-10.9346
apd	-10.9349
▁exceed	-10.9349
▁replace	-10.9354
power	-10.9359
▁profile	-10.9362
que	-10.9362
▁somewhere	-10.9363
ln	-10.9363
▁incyte	-10.9363
▁marketing	-10.9366
pbm	-10.9369
▁fixed	-10.937
whr	-10.9371
▁40%	-10.9375
txt	-10.938
▁received	-10.938
nvd	-10.9384
▁subscribers	-10.9385
house	-10.9389
dgx	-10.9396
enx	-10.9405
rrc	-10.9412
mobileye	-10.9421
▁harry	-10.9428
tho	-10.9429
der	-10.943
▁kicks	-10.9437
▁posts	-10.9439
▁select	-10.944
▁ph	-10.9441
abt	-10.9449
▁train	-10.9454
▁spectrum	-10.9456
▁dan	-10.9463
.10	-10.9463
gif	-10.9464
▁react	-10.9464
rcl	-10.9466
pn	-10.9466
nu	-10.9467
ns	-10.9477
▁cars	-10.9483
hznp	-10.9487
▁laptop	-10.9487
▁foreign	-10.9487
▁mobileye	-10.9493
cvx	-10.9499
anf	-10.9502
▁unlocking	-10.9508
goals	-10.9508
▁15%	-10.9514
infrastructure	-10.9515
▁bru	-10.9515
▁revisit	-10.9519
▁beginning	-10.9527
▁fa	-10.953
rp	-10.9533
▁bets	-10.9535
medicine	-10.9541
▁ends	-10.9542
▁jami	-10.9545
▁creators	-10.9551
▁emerging	-10.9551
97	-10.9555
auto	-10.9557
▁trigger	-10.9569
44	-10.9573
▁accept	-10.9573
ava	-10.9575
search	-10.958
mydx	-10.9583
▁process	-10.9586
▁granted	-10.9587
nfl	-10.9593
kind	-10.9597
▁misses	-10.9598
beauty	-10.96
▁blood	-10.9601
▁film	-10.9601
▁potter	-10.9607
▁32	-10.961
▁revolutionize	-10.9615
▁debate	-10.9615
▁worse	-10.9616
aprn	-10.9622
wo	-10.9626
▁rises	-10.963
2015	-10.9631
▁warns	-10.9638
▁congrats	-10.9647
▁barronsonline	-10.9647
tri	-10.9647
▁proud	-10.9647
▁promo	-10.9647
lin	-10.9651
▁prev	-10.9652
▁alexa	-10.9654
▁cook	-10.9655
▁haven	-10.9658
ga	-10.9663
dwt	-10.9669
▁ryzen	-10.968
▁valued	-10.9681
bmy	-10.9689
cell	-10.9689
pennystocks	-10.969
nln	-10.9691
followers	-10.9693
future	-10.9697
▁29	-10.9697
▁11,	-10.9706
▁response	-10.9711
▁design	-10.9712
ief	-10.9712
mrk	-10.9712
▁catalysts	-10.9715
▁correct	-10.9719
▁teams	-10.9724
cp	-10.9728
vat	-10.9729
▁kick	-10.9741
▁bloated	-10.9743
▁definitely	-10.9743
▁whet	-10.9744
manage	-10.9747
▁moment	-10.975
cd	-10.9755
facebook	-10.9763
▁drugmakers	-10.9766
▁mostly	-10.9766
▁compare	-10.9767
▁hearing	-10.9769
▁example	-10.9772
▁arm	-10.9773
hc	-10.9774
▁6+	-10.9775
signals	-10.9775
▁quietly	-10.9778
▁mass	-10.978
▁takeaways	-10.9789
vc	-10.9789
▁source	-10.9789
▁straddle	-10.979
▁soft	-10.9792
▁dips	-10.9794
▁kids	-10.9807
▁buck	-10.9809
▁swann	-10.9811
etp	-10.9811
▁together	-10.9813
ep	-10.9823
▁brexit	-10.9828
mcdonald	-10.9829
▁helps	-10.983
▁guggenheim	-10.9841
▁journey	-10.9841
▁anybody	-10.9842
▁rex	-10.9843
▁sigma	-10.9843
▁100-	-10.9844
▁brokers	-10.9847
▁executives	-10.9859
▁pushing	-10.9863
▁imbalances	-10.9864
heating	-10.9866
bot	-10.9867
▁states	-10.9872
▁toward	-10.9873
▁di	-10.9874
▁floor	-10.9874
nsav	-10.988
bbl	-10.9885
▁southwest	-10.9885
ky	-10.9889
▁coffee	-10.9893
why	-10.9903
▁3%	-10.9904
▁$0.99	-10.9906
▁region	-10.9906
▁charles	-10.9907
2.50	-10.9907
digital	-10.9916
▁equal	-10.9923
ator	-10.9924
▁bold	-10.9925
gil	-10.9935
breakout	-10.9938
▁divergence	-10.994
▁brothers	-10.994
▁wedge	-10.9949
▁cohen	-10.9951
msf	-10.9952
.04	-10.9954
gov	-10.9956
cor	-10.9958
▁holder	-10.9961
▁bms	-10.9962
mining	-10.9963
▁ya	-10.9964
▁spin	-10.9964
fd	-10.9966
▁screen	-10.9968
setting	-10.997
organchase	-10.9972
consultant	-10.9973
▁settlement	-10.9973
drug	-10.9978
▁competitive	-10.9981
▁stats	-10.9983
doc	-10.9986
ppg	-10.9991
depo	-10.9996
▁natural	-10.9999
vtr	-10.9999
asset	-11.0001
▁buyback	-11.0005
▁digest	-11.0006
▁dropped	-11.0007
hban	-11.0007
wellness	-11.0008
▁(+	-11.0018
▁buybacks	-11.002
▁diabetes	-11.0025
fx	-11.0029
premium	-11.0033
teck	-11.0033
▁ebitda	-11.0034
▁2000	-11.0037
wow	-11.0038
▁crossover	-11.004
▁blow	-11.004
sn	-11.0047
▁label	-11.0055
▁picture	-11.0061
▁millennials	-11.0065
▁personal	-11.0067
vuzi	-11.007
▁horizon	-11.0073
▁essential	-11.0073
▁struggling	-11.0073
vips	-11.0075
▁buzz	-11.0077
state	-11.0079
overweight	-11.0079
unt	-11.0084
▁contracts	-11.0087
vig	-11.0093
▁diversity	-11.0093
▁indexes	-11.0095
lower	-11.0104
?"	-11.0111
tier	-11.0114
gdp	-11.0125
amzn	-11.0127
▁drone	-11.0136
ace	-11.0138
▁favor	-11.014
alny	-11.0145
ren	-11.0146
reaches	-11.0148
del	-11.0153
acm	-11.0159
▁phone	-11.016
▁webcast	-11.0175
▁rock	-11.0183
insight	-11.0185
ottv	-11.0187
▁inhibitor	-11.0196
hg	-11.0198
▁switch	-11.0198
▁learned	-11.0199
wi	-11.0199
$1	-11.0203
▁poll	-11.0205
▁pocket	-11.0208
▁monitor	-11.0208
▁prediction	-11.021
▁renewable	-11.0212
making	-11.0215
▁photo	-11.0218
▁antitrust	-11.022
card	-11.022
30%	-11.0222
▁stream	-11.0225
holders	-11.023
▁preferred	-11.0242
prostate	-11.0244
▁:)	-11.026
tgtx	-11.0269
▁fang	-11.0269
▁gorsky	-11.0276
▁prior	-11.0276
▁streak	-11.0276
▁valley	-11.0277
▁spike	-11.0278
▁highly	-11.0281
▁aircraft	-11.0285
reaching	-11.0292
ig	-11.0298
▁graham	-11.0299
▁stand	-11.03
game	-11.0301
▁oct	-11.0301
▁catalyst	-11.0314
previously	-11.0318
▁six	-11.0332
▁feeling	-11.0332
ization	-11.0336
▁79.	-11.0337
digit	-11.0348
mn	-11.0353
▁$1.4	-11.0354
▁click	-11.0361
▁qtr	-11.0361
▁hcv	-11.0362
▁counter	-11.0364
▁london	-11.0365
ron	-11.0369
raymond	-11.0379
▁exposure	-11.0379
▁worried	-11.038
dicating	-11.0384
▁usher	-11.0385
gild	-11.0387
never	-11.0388
yh	-11.0398
ize	-11.0399
rc	-11.0401
▁inflation	-11.0403
enb	-11.0404
▁calling	-11.0414
▁integrated	-11.0415
strategies	-11.0426
nrg	-11.0427
ja	-11.0429
nerships	-11.0429
estimated	-11.0435
▁cup	-11.0439
ki	-11.0447
▁managing	-11.0448
ybe	-11.0449
▁stopped	-11.045
thc	-11.0458
azo	-11.0463
▁officer	-11.0464
▁heard	-11.0472
4.5	-11.0472
▁word	-11.0476
3.00	-11.0476
pfe	-11.0477
▁views	-11.0479
mental	-11.0482
▁immuno	-11.0482
hepatitis	-11.0483
▁valuable	-11.0483
mrvl	-11.0483
russia	-11.0488
rbs	-11.0489
▁alibaba	-11.0496
blowing	-11.0512
▁ticket	-11.0518
ped	-11.052
▁usually	-11.052
▁pump	-11.0523
▁cant	-11.0524
▁window	-11.0529
buffett	-11.0531
▁galaxy	-11.0531
▁cooper	-11.0536
▁compound	-11.0539
▁div	-11.0539
dell	-11.0544
▁finish	-11.0544
inve	-11.0551
▁drink	-11.0552
hashtag	-11.0553
rate	-11.0554
▁cards	-11.0556
▁$18	-11.0559
▁$250	-11.0568
▁walk	-11.0574
▁decent	-11.0574
]:	-11.058
6%	-11.058
gu	-11.0583
▁dodd	-11.0585
▁administration	-11.0588
▁choose	-11.0588
ors	-11.0593
105	-11.0594
▁difference	-11.0594
sectors	-11.0594
ame	-11.0595
agn	-11.0612
▁sa	-11.0616
▁features	-11.0621
ndl	-11.0622
degree	-11.0624
▁celebrate	-11.0624
▁crucial	-11.0624
▁tilton	-11.0624
womenin	-11.0625
strengthen	-11.0647
▁extremely	-11.0647
▁korea	-11.0648
▁matters	-11.0652
▁accelerating	-11.0659
▁con	-11.0663
udn	-11.0669
ht	-11.0672
ebs	-11.0673
▁claim	-11.0674
bg	-11.0674
▁fat	-11.0678
▁pour	-11.0685
founder	-11.069
sanfrancisco	-11.0695
▁attempt	-11.0695
stream	-11.0698
▁mother	-11.0698
etf	-11.0703
▁mode	-11.0708
veev	-11.0713
▁aws	-11.0718
▁woods	-11.0718
american	-11.0719
▁problems	-11.072
british	-11.0731
▁display	-11.0731
asur	-11.0732
▁recovery	-11.0734
today	-11.0734
▁checking	-11.0746
rox	-11.075
following	-11.0756
▁pepsi	-11.0762
▁luck	-11.0764
▁philstockworld	-11.0766
▁predictive	-11.0767
ptla	-11.0768
▁fix	-11.0768
bns	-11.077
profit	-11.0771
faz	-11.0778
eo	-11.0802
▁lewis	-11.0802
emp	-11.0803
▁glad	-11.0803
gra	-11.0806
▁spreads	-11.0807
ree	-11.0811
hmc	-11.0811
▁gift	-11.0813
nba	-11.0814
▁payment	-11.0819
ture	-11.0823
▁$27	-11.0826
fn	-11.0833
▁holiday	-11.0836
keeping	-11.0839
cheddarlive	-11.084
▁nicely	-11.0846
▁curat	-11.0848
arch	-11.0853
aaba	-11.0863
▁cure	-11.0866
▁#1	-11.0867
▁hand	-11.0876
friends	-11.0877
▁hole	-11.088
▁install	-11.0882
leadership	-11.0885
▁cycle	-11.0888
berg	-11.0889
usm	-11.0903
▁prep	-11.0906
call	-11.0907
▁refinery	-11.0908
▁doubt	-11.0911
▁friend	-11.0916
ira	-11.0919
llli	-11.0924
inc	-11.0927
▁+2	-11.0928
safer	-11.093
▁6,	-11.093
▁weigh	-11.0934
▁materials	-11.0934
▁seat	-11.0935
▁13,	-11.0936
alta	-11.0936
xlu	-11.0947
again	-11.0948
▁committee	-11.0948
▁framework	-11.0948
gwph	-11.0948
kbh	-11.0948
anz	-11.0952
▁reaction	-11.0953
ified	-11.0957
▁built	-11.096
▁managed	-11.0961
▁reverse	-11.0976
hub	-11.0979
ntrs	-11.0979
▁turnaround	-11.0984
▁slightly	-11.0985
▁thru	-11.0987
▁hype	-11.0987
water	-11.0988
bf	-11.0994
▁competitor	-11.0997
bebe	-11.1001
wt	-11.1001
▁$60	-11.1007
tmo	-11.1007
▁wide	-11.1016
4%	-11.1019
pzza	-11.1021
▁countries	-11.1021
▁election	-11.1024
▁pace	-11.1025
▁begun	-11.103
▁-->	-11.104
bonds	-11.1043
▁selloff	-11.1043
▁kind	-11.1047
▁sweepers	-11.1051
manufacturing	-11.1053
▁opec	-11.1054
▁commitment	-11.1058
▁status	-11.1058
▁valuations	-11.1061
loxo	-11.1062
▁2025	-11.1063
▁combined	-11.1063
▁inflows	-11.1066
reg	-11.1068
eb	-11.1071
▁weather	-11.1071
5%	-11.1072
rbc	-11.1073
20%	-11.1075
▁80%	-11.1079
82	-11.1082
▁young	-11.1083
▁fundamentals	-11.1084
nk	-11.1091
▁formula	-11.1093
▁70	-11.1094
▁enrollment	-11.1095
crude	-11.1099
eru	-11.1101
▁gild	-11.1106
▁10,	-11.111
▁tap	-11.1117
ward	-11.1123
▁activist	-11.1129
▁franchise	-11.113
▁jaffray	-11.1132
▁averaged	-11.1133
att	-11.1135
hain	-11.1136
comm	-11.1137
alexa	-11.1147
▁lessons	-11.1152
▁scott	-11.1161
▁$21	-11.1161
sector	-11.1165
▁facility	-11.1169
feld	-11.1171
bsh	-11.1176
rdus	-11.1179
▁carl	-11.1179
▁email	-11.1186
vora	-11.1187
▁figure	-11.119
your	-11.1194
▁bankers	-11.1198
▁implications	-11.1207
▁bidding	-11.1207
▁lagging	-11.1207
▁computing	-11.1207
mdco	-11.1208
▁airpo	-11.1209
▁$4.2	-11.1211
▁visit	-11.122
▁drag	-11.122
▁focused	-11.1223
brka	-11.1226
.03	-11.1229
pc	-11.123
▁immune	-11.1245
▁ohio	-11.1249
▁generate	-11.1257
▁fr	-11.1264
rht	-11.1266
eu	-11.1271
▁drivers	-11.1273
acia	-11.128
▁spotlight	-11.1282
infographic	-11.1282
▁period	-11.1283
▁labor	-11.1284
▁astrazeneca	-11.1295
▁ranking	-11.1301
▁$28	-11.1307
etn	-11.1314
green	-11.1316
▁investigation	-11.1318
fcx	-11.1319
▁sues	-11.1319
eth	-11.1322
▁vince	-11.1322
▁180	-11.1322
-2	-11.1326
▁burger	-11.1338
ark	-11.135
opper	-11.1354
▁thurs	-11.1357
ntdoy	-11.1358
▁augmented	-11.1358
siegy	-11.1358
▁improving	-11.1358
lag	-11.1359
▁min	-11.1371
.37	-11.1373
▁restaurant	-11.1386
gy	-11.1388
phones	-11.1389
wls	-11.1391
▁gross	-11.1395
▁east	-11.1397
▁suggests	-11.1401
108	-11.141
▁shut	-11.1416
▁ii	-11.1416
retire	-11.1422
▁coast	-11.1424
▁lack	-11.1425
▁vp	-11.1426
forex	-11.1426
safe	-11.1428
tcehy	-11.1435
two	-11.1437
vmc	-11.1449
▁nike	-11.1449
nda	-11.1453
ita	-11.1463
ating	-11.1472
▁trap	-11.1473
▁stellar	-11.1473
imgn	-11.1476
rock	-11.1479
7.5	-11.1479
oih	-11.148
aug	-11.1483
▁teachers	-11.1484
▁slim	-11.1487
ure	-11.1491
6.00	-11.1497
sina	-11.1498
▁platinum	-11.1499
▁code	-11.1504
stem	-11.1506
growing	-11.1508
▁california	-11.151
ble	-11.1512
▁promising	-11.1512
▁sharply	-11.1514
▁games	-11.1514
amc	-11.1516
▁stops	-11.1519
edu	-11.1524
arcc	-11.1528
▁alliance	-11.1532
.39	-11.1532
boe	-11.1535
▁welcome	-11.1535
▁indicate	-11.1535
yourself	-11.1537
wti	-11.1542
ee	-11.1546
sqqq	-11.1547
▁herbalife	-11.155
▁milestone	-11.155
abb	-11.1552
organic	-11.1552
lvlt	-11.1553
▁throw	-11.1557
▁direct	-11.1559
etr	-11.1561
▁beverage	-11.1565
▁evolution	-11.1567
stm	-11.1569
nning	-11.157
▁server	-11.1574
gate	-11.1579
sig	-11.1579
▁fbr	-11.1585
▁strikes	-11.1585
▁aerospace	-11.1587
kathy	-11.1589
▁sanofi	-11.1594
▁imagine	-11.1606
->	-11.1609
nm	-11.161
kmx	-11.1612
▁flying	-11.1621
nbl	-11.1622
apped	-11.1626
▁anglo	-11.1629
tnx	-11.1629
voo	-11.1637
▁billionaire	-11.1637
real	-11.164
sage	-11.164
fate	-11.1647
▁14,	-11.1647
▁enjoy	-11.1653
▁celgene	-11.1655
▁wasn	-11.1659
▁caution	-11.1668
▁senate	-11.1668
▁genius	-11.1668
vod	-11.1668
nr	-11.1668
▁technicals	-11.1671
very	-11.168
▁pays	-11.1692
let	-11.1697
▁promise	-11.1699
▁band	-11.17
0%	-11.1702
▁rapid	-11.1703
▁boys	-11.1705
victim	-11.1707
▁blackberry	-11.1707
▁capacity	-11.1707
▁indices	-11.1707
▁arista	-11.1707
▁hardware	-11.1707
▁alone	-11.171
/#	-11.171
▁sick	-11.1712
▁kill	-11.1714
▁inter	-11.1716
keep	-11.1725
too	-11.1725
▁telling	-11.1726
▁mistake	-11.173
▁prefer	-11.1746
▁kamakura	-11.1746
abev	-11.1747
▁prospects	-11.1761
10%	-11.1764
downgrades	-11.1766
abbott	-11.1767
az	-11.1769
▁driverless	-11.1778
lot	-11.1781
.06.	-11.1785
▁campus	-11.1786
▁consecutive	-11.1786
▁bo	-11.1788
nbx	-11.1789
▁iii	-11.179
men	-11.1791
▁approvals	-11.1794
fill	-11.1801
tso	-11.181
uk	-11.1814
immunotherapy	-11.1814
ted	-11.1818
update	-11.1822
▁extreme	-11.1822
▁historical	-11.1822
akam	-11.1823
▁consolid	-11.1825
▁taken	-11.1825
▁calendar	-11.1826
▁kgaa	-11.1826
lqd	-11.1826
▁healthy	-11.183
sen	-11.1839
vg	-11.1844
▁mine	-11.1845
▁sorry	-11.1849
je	-11.1852
pir	-11.1853
450	-11.1857
yielding	-11.1859
▁leaves	-11.1861
▁address	-11.1861
▁exit	-11.1864
▁compensation	-11.1866
angloamerican	-11.1866
▁spent	-11.1868
▁worked	-11.1868
botox	-11.1871
▁declines	-11.1873
ix	-11.1882
▁mention	-11.1884
▁type	-11.1887
oa	-11.189
▁master	-11.1895
▁reject	-11.1895
agio	-11.1896
together	-11.1901
leg	-11.1901
quote	-11.1903
wei	-11.1904
dictiveanalytics	-11.1906
▁gamble	-11.1906
arwr	-11.1908
▁gates	-11.1909
rgs	-11.1919
▁apply	-11.1922
may	-11.1922
▁hires	-11.1922
▁wanted	-11.1922
▁helped	-11.1925
metals	-11.1925
▁ran	-11.1926
▁expecting	-11.1926
▁member	-11.1929
▁reward	-11.1931
yellen	-11.1936
jdst	-11.1936
jets	-11.1936
serv	-11.194
▁hughes	-11.1946
neik	-11.1946
youre	-11.1951
▁optimistic	-11.1951
lm	-11.1963
analysts	-11.1976
▁delivers	-11.1981
gush	-11.1991
▁majority	-11.1991
▁alzheimer	-11.1991
▁$35	-11.1996
▁100,000	-11.1998
▁wild	-11.2002
▁hep	-11.2006
▁parks	-11.2013
xme	-11.2013
▁compar	-11.2015
force	-11.2015
▁tues	-11.2018
ger	-11.2022
secrets	-11.2025
▁ball	-11.2028
▁terrific	-11.2028
▁southern	-11.2028
▁reveal	-11.2032
▁flights	-11.2034
▁section	-11.2034
▁chain	-11.2034
ntnx	-11.2035
▁practices	-11.2035
dgro	-11.2037
▁fcx	-11.2038
.23	-11.204
▁downey	-11.2043
bt	-11.2044
xlb	-11.2047
government	-11.2052
gage	-11.2053
mor	-11.2053
▁recession	-11.2059
mco	-11.2062
bombardier	-11.2068
▁currie	-11.2068
dtii	-11.2068
▁cheapest	-11.2071
ziop	-11.2071
▁headlines	-11.2072
▁patents	-11.2073
tec	-11.2078
▁soars	-11.2098
▁manufacturer	-11.2099
wday	-11.2099
▁canadian	-11.2101
▁awesome	-11.2109
▁mexican	-11.2109
confirmed	-11.2111
df	-11.2122
▁greatest	-11.2126
▁iti	-11.2129
zi	-11.213
iff	-11.2131
▁soaring	-11.2134
▁conf	-11.2135
▁repeat	-11.2136
▁$55	-11.2142
▁sand	-11.2145
utx	-11.2152
tsco	-11.2155
spwr	-11.2159
▁exp	-11.2162
▁weighing	-11.2167
tric	-11.2169
plus	-11.2181
lls	-11.2187
▁whit	-11.219
▁dangerous	-11.2192
hack	-11.2197
ficially	-11.2199
gb	-11.2205
ori	-11.2222
only	-11.2224
cent	-11.2229
gaap	-11.2232
▁shit	-11.2232
bno	-11.2232
crispr	-11.2233
▁thrive	-11.2234
unamerican	-11.2234
▁loser	-11.2236
.40	-11.2236
.16	-11.2242
index	-11.2244
itedtechnologies	-11.2245
▁analytics	-11.2245
▁steel	-11.2251
▁prop	-11.2262
gn	-11.2264
▁stochastic	-11.2265
▁slip	-11.2267
tbt	-11.2272
▁spark	-11.2275
2.5%	-11.2279
▁bright	-11.2281
ability	-11.2284
▁16,	-11.2291
ack	-11.2292
rok	-11.2302
▁discover	-11.2303
read	-11.2305
▁->	-11.2314
▁bancorp	-11.2316
▁par	-11.2316
▁declining	-11.2317
▁transaction	-11.2317
▁10:30	-11.2317
500?	-11.2325
▁transformation	-11.2326
ptct	-11.2331
▁noted	-11.2335
imo	-11.2337
▁str	-11.2338
trx	-11.2348
▁resume	-11.235
hritis	-11.2359
▁benito	-11.2359
vntv	-11.2359
akrx	-11.2359
▁trans	-11.2361
fms	-11.2362
▁svp	-11.2363
harvey	-11.2363
epa	-11.2364
▁afternoon	-11.2364
stld	-11.2365
▁obama	-11.2373
blog	-11.2375
gale	-11.238
▁indonesia	-11.238
▁analyz	-11.2387
▁soda	-11.2388
▁industries	-11.2389
▁aid	-11.2401
stockpicks	-11.2401
everywhere	-11.2401
▁lies	-11.2405
▁confirm	-11.2412
▁managers	-11.2417
▁lowest	-11.2418
rzo	-11.2425
▁mail	-11.2428
▁wanna	-11.2431
▁stu	-11.2437
▁crack	-11.2437
scale	-11.2437
employees	-11.2439
▁presidency	-11.2444
dev	-11.2446
▁$47	-11.2447
yette	-11.2447
▁15,	-11.2447
▁sleep	-11.2448
hiv	-11.2452
cpi	-11.2453
▁aims	-11.2454
▁pharmaceutical	-11.2454
skf	-11.2457
▁explained	-11.2457
aid	-11.2458
▁projects	-11.2465
acting	-11.2466
mp	-11.2467
wit	-11.2472
▁hollywood	-11.2474
service	-11.2475
val	-11.2476
yahoo	-11.2478
▁priority	-11.2478
leader	-11.2481
▁instinet	-11.2486
▁quincey	-11.2486
form	-11.2487
class	-11.2492
▁hello	-11.2493
▁write	-11.2502
▁rumored	-11.2503
▁8%	-11.2505
▁represent	-11.2506
▁nod	-11.2508
everyday	-11.251
:43	-11.2511
▁generated	-11.2511
nnn	-11.2518
▁hasn	-11.2518
ido	-11.2523
▁odds	-11.2525
hur	-11.2528
▁forming	-11.2534
bull	-11.2536
[15:	-11.254
1.5%	-11.2543
repo	-11.2544
▁cognitive	-11.2545
pf	-11.2548
▁delivered	-11.2548
▁manager	-11.255
▁45	-11.2552
eg	-11.2554
first	-11.2554
▁ema	-11.2567
ens	-11.2569
▁reversals	-11.257
▁bollinger	-11.2572
▁september	-11.2572
▁triangle	-11.2572
▁fiscal	-11.2572
▁survival	-11.2572
▁summit	-11.2572
▁distribution	-11.2573
▁walton	-11.2575
▁phil	-11.2575
oppo	-11.258
▁published	-11.2582
▁triggered	-11.2584
led	-11.2591
esystems	-11.2609
▁segment	-11.2609
▁regeneron	-11.2611
brew	-11.2614
elliottwave	-11.2615
▁douglas	-11.2615
▁dropping	-11.2617
htz	-11.2618
code	-11.262
dx	-11.2622
hig	-11.2622
bound	-11.2622
▁smaller	-11.2626
▁1%	-11.263
▁biopharma	-11.2631
motivation	-11.2639
slp	-11.2641
▁pitch	-11.2643
▁chat	-11.2652
entrepreneur	-11.2653
ium	-11.2655
▁bla	-11.2655
die	-11.2659
forgrowth	-11.266
▁delay	-11.2665
upgrades	-11.2665
▁techniques	-11.2665
.24	-11.2666
open	-11.2667
▁(#	-11.2668
▁woman	-11.2673
▁22%	-11.2674
▁prope	-11.2676
▁string	-11.2676
▁nasa	-11.2676
pepsi	-11.2677
spo	-11.2677
▁wake	-11.2677
▁longs	-11.2681
biz	-11.2691
▁vehicles	-11.2695
▁2-	-11.27
▁timothy	-11.2702
take	-11.2705
▁direction	-11.2708
nor	-11.2715
ard	-11.2715
▁>>>>	-11.2724
▁age	-11.2728
▁comment	-11.2735
agu	-11.274
7/	-11.2744
▁secretary	-11.2746
▁yeah	-11.2748
.96	-11.2757
burn	-11.2767
cj	-11.277
▁dish	-11.2774
▁exchange	-11.2777
lyg	-11.2781
inno	-11.2785
deck	-11.2788
universities	-11.2789
▁river	-11.2789
▁rocket	-11.279
▁leap	-11.2799
skx	-11.28
▁movies	-11.282
▁hell	-11.2825
▁disclose	-11.2828
ile	-11.2828
.09.2017	-11.2833
▁hatzius	-11.2833
0.18	-11.2834
▁1000	-11.2834
▁reviews	-11.2839
▁load	-11.284
▁knew	-11.2846
gasl	-11.2846
▁android	-11.2852
▁5-	-11.2855
ilg	-11.2855
▁sad	-11.2859
▁processors	-11.2859
▁privacy	-11.2864
▁robots	-11.2866
▁liquid	-11.2869
▁gre	-11.2875
wsm	-11.2876
▁god	-11.2878
glyc	-11.2883
▁mr	-11.2884
▁1-	-11.2886
hbi	-11.2887
▁restaurants	-11.2894
ef	-11.2896
125	-11.2897
▁saturday	-11.2899
▁targeting	-11.2901
▁80	-11.2902
▁row	-11.2902
▁patte	-11.2905
▁traditional	-11.2905
▁deeper	-11.2907
stj	-11.2907
▁tools	-11.2908
▁12%	-11.2908
▁$29	-11.2912
bets	-11.2918
▁proposal	-11.2922
▁error	-11.2922
nsrgy	-11.2922
)'	-11.2922
3.5	-11.2923
edge	-11.2923
▁fisher	-11.2923
▁profitability	-11.2923
▁relief	-11.2925
▁asks	-11.2937
▁directors	-11.294
:0	-11.2941
kgc	-11.2943
oi	-11.2952
imax	-11.2954
rated	-11.2954
▁heat	-11.2956
▁mini	-11.2957
▁additional	-11.2958
▁remind	-11.2959
▁century	-11.2966
▁cybersecurity	-11.2971
▁remicade	-11.2972
.45	-11.2977
eyes	-11.2979
social	-11.298
▁tower	-11.2984
▁topline	-11.2988
▁boy	-11.2989
ang	-11.2996
ze	-11.2998
▁$33	-11.3001
▁pandora	-11.3002
name	-11.3004
ible	-11.301
yervoy	-11.3011
kit	-11.3014
looking	-11.302
flo	-11.3023
chemo	-11.3024
gadgets	-11.3025
▁bac	-11.3028
▁dave	-11.3031
.26	-11.3033
▁climb	-11.3042
ainment	-11.3046
qualcomm	-11.3046
▁carriers	-11.3049
eqt	-11.3051
▁method	-11.3056
▁dallas	-11.3056
▁2:30	-11.3057
ash	-11.3058
▁laws	-11.306
tru	-11.3062
developed	-11.3066
▁01	-11.3068
▁provider	-11.3069
▁wage	-11.3074
▁merrill	-11.3079
▁brown	-11.3095
spg	-11.3101
nbix	-11.3102
▁items	-11.3103
▁battery	-11.3103
▁ga	-11.3103
gw	-11.3104
dmrc	-11.3104
executive	-11.3111
▁judge	-11.3112
dry	-11.3115
paa	-11.3118
▁sitting	-11.3128
trv	-11.3129
ddr	-11.3132
8.00	-11.3135
▁evercore	-11.3148
▁debut	-11.3151
▁programs	-11.3153
hii	-11.3154
jnk	-11.3155
▁warner	-11.3158
▁slump	-11.3163
4.00	-11.3164
▁immigration	-11.3178
tal	-11.3179
street	-11.318
▁isi	-11.3182
▁opioid	-11.3186
bms	-11.3189
▁french	-11.3193
ftnt	-11.3193
ssys	-11.3194
▁benefits	-11.3197
▁concerned	-11.32
retweet	-11.3202
▁payout	-11.3202
▁followed	-11.3206
▁allow	-11.321
▁centers	-11.321
▁gbx	-11.3212
arr	-11.3213
▁risky	-11.3216
106	-11.3218
▁subs	-11.3226
once	-11.3235
▁diversified	-11.3239
▁overhaul	-11.3239
▁amount	-11.3239
▁budget	-11.3239
▁deliveries	-11.324
permian	-11.3241
klac	-11.3241
▁08	-11.3242
ole	-11.3246
bks	-11.3248
oin	-11.325
▁square	-11.3251
crap	-11.3252
▁centre	-11.3252
▁draw	-11.3258
info	-11.3261
kin	-11.3263
▁practical	-11.3273
▁areas	-11.3275
▁eliquis	-11.3276
▁extends	-11.3279
ism	-11.3282
darren	-11.3285
team	-11.3288
▁sight	-11.329
▁meets	-11.3293
▁hurricane	-11.3295
wh	-11.3297
0.50	-11.33
▁map	-11.3306
aep	-11.3311
hfs	-11.3312
better	-11.3317
run	-11.3319
▁employ	-11.3323
2.00	-11.3328
▁epic	-11.3328
wholefoods	-11.3329
chi	-11.333
▁ratios	-11.333
▁argus	-11.3331
avy	-11.3331
cyclical	-11.3331
▁bump	-11.3331
late	-11.3332
ewz	-11.3333
▁headqua	-11.3336
fri	-11.3338
bip	-11.3339
▁crushed	-11.3339
▁beware	-11.3342
▁often	-11.3348
sche	-11.335
▁meaning	-11.3355
ris	-11.3377
deferred	-11.3377
glaucoma	-11.3377
▁lichten	-11.3377
▁perspective	-11.3377
▁primary	-11.3377
▁jude	-11.3379
animal	-11.3379
▁morningstar	-11.3381
▁777	-11.3386
maker	-11.3387
▁$2.1	-11.3388
fizz	-11.3388
weekly	-11.3389
▁tie	-11.3397
▁:-)	-11.3401
online	-11.3405
▁pops	-11.3406
▁advice	-11.3422
▁proof	-11.3423
▁keefe	-11.3424
▁tepper	-11.3424
dlph	-11.3424
aaxn	-11.3424
▁universal	-11.3427
▁weakening	-11.3427
brkb	-11.3428
military	-11.3436
▁beef	-11.3441
aft	-11.3445
provide	-11.3445
▁rights	-11.3446
ani	-11.3449
valueinvesting	-11.3452
space	-11.3454
alb	-11.346
▁surprised	-11.3461
▁ties	-11.3463
plan	-11.3465
▁rec	-11.3465
trend	-11.3465
▁consistent	-11.3467
▁silicon	-11.3471
▁simply	-11.3471
▁clare	-11.3472
▁underperform	-11.3494
▁expanded	-11.3495
▁killer	-11.3497
▁rotation	-11.3499
omp	-11.3499
▁sept	-11.3503
pin	-11.3511
moving	-11.3516
▁uber	-11.3516
▁scherrer	-11.3518
conviction	-11.3518
▁looms	-11.3518
▁peek	-11.3518
▁carrier	-11.3527
merge	-11.3527
asps	-11.353
wu	-11.3538
hk	-11.3555
du	-11.3556
arc	-11.356
omvs	-11.3566
race	-11.3566
fun	-11.3568
▁lending	-11.3569
nak	-11.3569
iyf	-11.3577
▁runs	-11.3578
vwo	-11.3582
sol	-11.3583
volatility	-11.3583
board	-11.3584
link	-11.3586
▁comps	-11.3588
▁ove	-11.3596
▁session	-11.3597
▁repeal	-11.36
tol	-11.3601
ise	-11.3606
[10:	-11.3606
13%	-11.3609
▁breast	-11.361
▁survive	-11.361
▁leaving	-11.3613
▁unknown	-11.3614
automation	-11.3614
breakingnews	-11.3618
set	-11.3621
▁scale	-11.3623
zion	-11.3623
▁beginner	-11.3624
flex	-11.3627
unding	-11.3628
▁magic	-11.3629
▁auction	-11.3631
.31	-11.3634
160	-11.3641
.12	-11.366
action	-11.3661
cty	-11.3661
▁developing	-11.3662
▁raising	-11.3662
▁believes	-11.3662
▁4-	-11.3662
▁pharmalot	-11.3662
▁myeloma	-11.3662
▁constituents	-11.3665
nav	-11.3671
▁sky	-11.3672
▁pinnacle	-11.3673
▁speech	-11.3674
0.07%	-11.3675
dog	-11.3676
▁setback	-11.3676
▁outline	-11.3683
107	-11.3686
▁linkedin	-11.3686
▁ten	-11.3689
▁menu	-11.369
▁xarelto	-11.369
tas	-11.3696
zen	-11.3706
▁shock	-11.3706
▁respond	-11.3709
▁attract	-11.371
nxtd	-11.3711
cont	-11.3712
▁memo	-11.3713
calls	-11.3715
▁detailed	-11.3715
▁grab	-11.3716
▁thu	-11.3718
▁por	-11.3719
gun	-11.372
▁print	-11.3722
theory	-11.3723
bil	-11.3724
rough	-11.3726
▁oracle	-11.3728
▁macy	-11.3732
▁sources	-11.3734
ohr	-11.3734
.48	-11.3735
achieve	-11.374
▁person	-11.3742
▁chop	-11.3747
▁analyze	-11.3749
▁nj	-11.3751
▁$125	-11.3751
▁insiders	-11.3752
▁regard	-11.3757
motleyfool	-11.3758
thalmology	-11.3758
▁examines	-11.3758
▁writing	-11.3758
▁dispute	-11.3758
▁storage	-11.3758
▁reduction	-11.3758
lv	-11.3758
▁comeback	-11.3761
▁la	-11.3762
▁competitors	-11.3764
▁door	-11.3765
▁yoy	-11.3766
▁came	-11.3772
▁2008	-11.3777
▁diy	-11.3777
▁citizens	-11.3781
.21	-11.3783
▁90%	-11.3792
▁adapt	-11.3795
ste	-11.3799
will	-11.3802
▁7.	-11.3804
ill	-11.3806
▁eagle	-11.3806
▁gabelli	-11.3806
▁rothschild	-11.3806
▁spreadsheet	-11.3806
▁blind	-11.3806
▁sunday	-11.3807
▁moody	-11.3807
spec	-11.3808
▁cholesterol	-11.3809
fwp	-11.3818
wpx	-11.3819
▁300	-11.3822
▁filled	-11.3828
▁foot	-11.3832
▁propose	-11.3836
▁threats	-11.3849
▁keynote	-11.3851
dedicated	-11.3855
▁pharmalittle	-11.3855
▁$45	-11.3855
▁lately	-11.3873
came	-11.3874
▁appears	-11.3876
even	-11.3876
tap	-11.3877
0.00	-11.3885
▁cheat	-11.3886
▁moderate	-11.389
▁va	-11.389
hern	-11.389
▁discussing	-11.3896
10,000	-11.3897
▁settle	-11.3902
splk	-11.3904
chesapeakeenergy	-11.3904
▁metrics	-11.3905
cv	-11.3906
▁6-	-11.3912
▁noon	-11.3917
.07.	-11.3918
▁endpoint	-11.3921
/3	-11.3923
pet	-11.3927
gaming	-11.393
validate	-11.3938
▁kroger	-11.3938
▁developer	-11.3939
▁epipen	-11.394
fuel	-11.3941
five	-11.3943
▁broadband	-11.3944
▁cord	-11.3946
sgen	-11.3949
▁lab	-11.3952
▁taiwan	-11.3953
▁staples	-11.3953
▁biogen	-11.3955
▁whale	-11.3955
▁oppose	-11.3958
[13:	-11.3959
3)	-11.3961
sni	-11.3964
dvy	-11.3966
▁rolls	-11.3973
press	-11.3978
▁rite	-11.3981
xco	-11.3986
▁greater	-11.3988
▁aviation	-11.3991
kkr	-11.3996
cker	-11.3996
restaurant	-11.3998
ichi	-11.4001
computing	-11.4001
▁deploy	-11.4002
▁moynihan	-11.4003
▁submit	-11.4003
▁passive	-11.4004
tweets	-11.4005
▁image	-11.4006
fall	-11.401
light	-11.401
puts	-11.402
▁lifetime	-11.4023
▁mining	-11.403
safely	-11.4034
▁$90	-11.4042
▁speak	-11.4042
▁chipotle	-11.4043
that	-11.4049
▁plunge	-11.405
sftby	-11.4052
▁structure	-11.4052
▁succeed	-11.4052
▁honeywell	-11.4052
▁children	-11.4052
▁cambridge	-11.4052
▁stuck	-11.4054
bkh	-11.4057
▁gdp	-11.4058
company	-11.406
▁accelerated	-11.4064
▁equipment	-11.4064
▁printing	-11.407
▁tank	-11.4081
▁driver	-11.4083
▁nsclc	-11.4084
vega	-11.4085
6.5	-11.4086
▁hammer	-11.4094
▁agrees	-11.4096
▁82.	-11.4098
▁jersey	-11.4102
alioy	-11.4102
assistant	-11.4103
▁ftc	-11.4113
▁grants	-11.4114
▁govt	-11.4116
▁impress	-11.412
▁17,	-11.4129
▁entering	-11.4133
▁alere	-11.4135
airline	-11.4137
▁expanding	-11.4144
▁chemo	-11.4148
jun	-11.4152
atos	-11.4152
▁merchants	-11.4153
▁expense	-11.4153
▁tender	-11.4153
▁engulfing	-11.4154
▁healthier	-11.4155
▁manual	-11.4165
▁(3	-11.4168
pac	-11.417
finl	-11.4172
aristocrats	-11.4173
▁pile	-11.4176
▁innovative	-11.4188
▁central	-11.4193
▁related	-11.4196
▁looked	-11.42
scope	-11.4202
▁scotiabank	-11.4203
uf	-11.4205
weeklies	-11.4209
eye	-11.4209
related	-11.421
wear	-11.4214
amlp	-11.4216
▁titans	-11.4218
yy	-11.4218
▁immunotherapy	-11.4218
▁internal	-11.4223
▁resource	-11.4224
emb	-11.4224
▁ordering	-11.423
bbd	-11.4244
▁hall	-11.4247
ngine	-11.4249
▁nadella	-11.4254
infringement	-11.4254
geek	-11.4254
acgx	-11.4255
▁goodbye	-11.4256
algn	-11.4256
cava	-11.4258
▁blame	-11.426
▁bus	-11.426
wallst	-11.4265
▁goal	-11.4267
▁checkout	-11.4268
van	-11.4268
▁upward	-11.4271
▁result	-11.4273
int	-11.4274
fro	-11.4274
▁material	-11.4279
▁crush	-11.4279
▁ads	-11.4284
swk	-11.4285
▁lt	-11.4288
▁australia	-11.4288
icymi	-11.4294
mlb	-11.4294
▁developers	-11.4296
▁grand	-11.4296
▁cia	-11.4297
rdc	-11.4298
▁limit	-11.43
▁squeezes	-11.4303
drugprices	-11.4305
▁shoppers	-11.4305
entrepreneurship	-11.4306
▁patience	-11.4306
▁stays	-11.4306
▁blockbuster	-11.4308
▁proxy	-11.4308
fbio	-11.4309
▁observ	-11.4312
▁connected	-11.4313
hcn	-11.4316
▁meant	-11.4319
▁boards	-11.4323
-35	-11.4324
ware	-11.4325
▁breakouts	-11.4328
▁booming	-11.4344
▁couldn	-11.435
realestate	-11.4356
faang	-11.4357
▁hoping	-11.4357
▁harbor	-11.4357
ecob	-11.436
!!!!!	-11.4362
odp	-11.4368
agen	-11.4368
easy	-11.4368
international	-11.437
fc	-11.4373
▁hackers	-11.4378
▁ko	-11.438
mf	-11.4382
iran	-11.4388
▁sink	-11.4389
lane	-11.4393
petro	-11.4394
▁sweet	-11.4398
▁tn	-11.44
stand	-11.4405
▁xom	-11.4406
▁efficacy	-11.4408
▁supreme	-11.4408
▁vanguard	-11.4408
ries	-11.4415
▁disappointing	-11.4418
▁paul	-11.4418
▁$34	-11.4429
▁inks	-11.4434
▁nbc	-11.4436
they	-11.4436
▁pcs	-11.4443
?!	-11.4444
▁normal	-11.4449
school	-11.4449
altr	-11.445
newest	-11.4451
▁()	-11.4453
fj	-11.4456
paid	-11.4459
grasberg	-11.446
▁initial	-11.4461
body	-11.4462
below	-11.4464
nwl	-11.4466
▁contributed	-11.4467
xon	-11.4469
▁improvement	-11.447
marketnews	-11.447
pkg	-11.4471
365	-11.4474
sumi	-11.4477
logi	-11.4479
▁reserve	-11.4481
vis	-11.4483
▁processor	-11.4485
yet	-11.4486
▁ramp	-11.4489
ized	-11.4491
ugh	-11.4492
▁relationships	-11.4499
ingham	-11.4499
stor	-11.45
▁26,	-11.4502
own	-11.4502
wonder	-11.4503
politics	-11.4507
▁obvious	-11.4508
.13	-11.4509
▁ruling	-11.4512
unification	-11.4513
od	-11.4515
▁btig	-11.4515
ages	-11.4516
nvidia	-11.4518
unr	-11.4521
▁shel	-11.4522
▁initiate	-11.4523
▁extended	-11.4524
ivz	-11.4528
▁pilots	-11.453
specific	-11.4535
24%	-11.4537
za	-11.4538
▁labs	-11.454
▁bun	-11.4544
stop	-11.4544
rb	-11.4546
▁confuse	-11.4549
.82	-11.4551
jul	-11.4552
▁dreamliner	-11.456
▁addition	-11.4562
▁victory	-11.4564
nafta	-11.4564
▁damn	-11.4567
▁approaching	-11.4571
▁player	-11.4572
▁'17	-11.4578
▁till	-11.4578
america	-11.4579
bnd	-11.4587
%,	-11.459
▁efficiency	-11.46
▁owned	-11.4603
pix	-11.4604
zu	-11.4615
▁speculation	-11.4617
roboadvisor	-11.4617
nation	-11.4619
▁eli	-11.4619
▁maker	-11.4624
inv	-11.4629
wpp	-11.4634
▁larger	-11.4634
.62	-11.4636
bond	-11.4638
▁albe	-11.4642
tue	-11.4649
▁boss	-11.4651
xes	-11.4654
▁secure	-11.4663
tomo	-11.4667
creative	-11.4668
▁competing	-11.467
▁plenty	-11.467
▁spdr	-11.4671
▁promotes	-11.4671
▁unless	-11.4672
oty	-11.4673
▁novel	-11.4673
▁household	-11.4678
shale	-11.4679
▁howard	-11.468
opk	-11.4684
2021	-11.4686
pie	-11.469
▁bladder	-11.4695
▁package	-11.4699
mz	-11.4704
▁surges	-11.4704
tinib	-11.471
▁beautiful	-11.4718
▁shoulders	-11.4718
▁quiet	-11.4719
tgif	-11.4721
▁99%,	-11.4723
▁disruptive	-11.4723
▁$500	-11.473
▁doji	-11.473
meli	-11.4734
financials	-11.4744
▁pure	-11.4751
xw	-11.4755
▁pulled	-11.4761
▁thx	-11.4766
billion	-11.4769
▁independent	-11.4776
▁legacy	-11.4776
[12:	-11.4777
han	-11.4777
natgas	-11.4777
tick	-11.4778
▁fastest	-11.4781
▁pivotal	-11.4781
▁leaked	-11.4781
▁trendline	-11.4782
▁generat	-11.4784
13:	-11.4786
izing	-11.4787
industrials	-11.4788
bots	-11.4789
▁sep	-11.4793
▁sit	-11.4798
▁sued	-11.48
▁ibd	-11.4803
underweight	-11.4804
▁speaker	-11.4807
hen	-11.4819
33%	-11.4823
▁continuing	-11.4825
defense	-11.4825
insurance	-11.4825
▁cautious	-11.4826
▁predicts	-11.4829
.44	-11.4829
▁perhaps	-11.483
fosl	-11.4831
▁ente	-11.4834
1)	-11.4835
▁04	-11.484
▁implies	-11.4846
▁inauguration	-11.4856
▁bur	-11.4867
▁rent	-11.4868
▁brilliant	-11.4869
▁mylan	-11.4873
7.00	-11.4874
▁cypress	-11.4884
▁memory	-11.4885
▁trustee	-11.4889
aviation	-11.4897
last	-11.4903
potential	-11.4905
▁fous	-11.4906
awk	-11.4906
bmo	-11.4906
▁processing	-11.4911
▁transcript	-11.4916
▁admin	-11.4917
▁spe	-11.4918
▁engineers	-11.4919
▁ross	-11.492
▁pharmacy	-11.4921
▁shape	-11.4921
iti	-11.4927
tck	-11.4927
▁gop	-11.4933
▁disclosure	-11.4937
▁careful	-11.4937
▁katy	-11.4939
▁palo	-11.4942
▁cu	-11.4949
talc	-11.4951
auy	-11.4954
generics	-11.496
43%	-11.4967
▁client	-11.4968
americans	-11.4969
txtm	-11.497
bm	-11.497
style	-11.497
▁hardy	-11.4971
▁$72	-11.4973
▁loans	-11.4975
deeper	-11.498
rv	-11.4982
▁2019	-11.4985
▁stupid	-11.4986
tied	-11.4992
▁vulnerability	-11.4993
▁sometimes	-11.4994
▁glassman	-11.4994
kim	-11.4995
onz	-11.4999
▁chronic	-11.5001
sep	-11.5002
dbo	-11.5003
quality	-11.5003
truck	-11.5003
millennial	-11.5007
▁copy	-11.5011
ob	-11.5016
▁ones	-11.5019
▁doubled	-11.502
▁timing	-11.5021
rei	-11.5023
▁$1,000	-11.5031
▁collapse	-11.5033
▁bird	-11.5035
ler	-11.5037
fake	-11.5038
idu	-11.5039
▁previews	-11.5047
stoc	-11.5048
mnuchin	-11.5048
vlkay	-11.5048
▁consumption	-11.5048
draft	-11.5049
airlines	-11.5051
▁$31	-11.5052
▁upper	-11.5053
▁hube	-11.5053
▁americas	-11.5054
▁funding	-11.5056
amfe	-11.5057
horn	-11.5061
▁dominance	-11.5062
▁flopp	-11.5066
▁$300	-11.5067
some	-11.5068
▁enable	-11.5069
▁nears	-11.5073
powered	-11.5077
iy	-11.5081
ple	-11.5084
bing	-11.5088
▁18,	-11.509
goos	-11.5091
▁destroy	-11.5094
laz	-11.5097
▁$1.1	-11.5098
zb	-11.51
les	-11.5102
▁owner	-11.5102
txmd	-11.5103
▁interactive	-11.5103
marketforecast	-11.5103
freedom	-11.5104
sivb	-11.5104
▁imho	-11.5104
▁doomed	-11.5104
quant	-11.5108
▁studios	-11.5108
!!?	-11.511
dglt	-11.5111
eur	-11.5112
▁$1000	-11.5113
▁recover	-11.5115
▁registration	-11.5117
▁aristocrat	-11.5124
hip	-11.5125
drop	-11.5136
sch	-11.5136
▁gaming	-11.5137
▁ongoing	-11.514
▁outperforming	-11.514
record	-11.5142
▁peter	-11.5144
aeo	-11.5144
▁breach	-11.5146
ali	-11.5147
▁cul	-11.5148
coca	-11.5149
ksu	-11.5151
▁catching	-11.5152
nyt	-11.5154
▁divgro	-11.5155
yrs	-11.5156
fridayf	-11.5156
iron	-11.5157
omer	-11.5158
▁canaccord	-11.5159
pmcb	-11.5162
stein	-11.5163
▁suggestion	-11.5166
▁12,	-11.5168
▁worries	-11.5174
▁file	-11.5174
▁russian	-11.5175
jaso	-11.5177
▁pig	-11.5177
▁positioned	-11.5179
1.25	-11.5182
▁appear	-11.5192
▁cus	-11.5197
▁fields	-11.5201
▁requests	-11.5202
▁macs	-11.5206
interest	-11.5209
jbp	-11.521
▁stochrsi	-11.5215
▁omaha	-11.5215
avgeek	-11.5215
hlt	-11.5216
▁thoughtless	-11.5216
▁macos	-11.5217
sstk	-11.5218
$2	-11.5218
▁anymore	-11.5219
watchlist	-11.5223
wp	-11.523
▁indian	-11.5231
script	-11.5237
▁tune	-11.5239
▁fee	-11.5245
0.19	-11.5245
▁backs	-11.5249
▁limits	-11.525
▁pentagon	-11.5254
4/	-11.5256
tell	-11.5257
▁sanctions	-11.5262
tss	-11.5265
▁skin	-11.5269
▁performers	-11.5271
▁suspend	-11.5271
▁agency	-11.5271
▁exciting	-11.5271
▁candidates	-11.5273
▁rockwell	-11.5273
▁consistently	-11.5275
▁wk	-11.528
▁increasingly	-11.528
techstock	-11.5284
▁regulatory	-11.5287
247	-11.5289
center	-11.5293
▁cannot	-11.5301
clients	-11.5302
▁quickly	-11.5304
positive	-11.5306
▁swamp	-11.5306
angle	-11.5306
▁tiny	-11.5312
▁military	-11.5313
hu	-11.5313
▁rewards	-11.5314
inch	-11.5317
▁rush	-11.5318
aca	-11.5321
▁apparel	-11.5322
▁uh	-11.5326
▁domestic	-11.5327
▁easily	-11.5327
▁minimum	-11.5327
▁weapon	-11.5327
▁approx	-11.533
▁tried	-11.5332
▁44	-11.5333
▁.15	-11.5333
empire	-11.5334
billy	-11.5338
▁renew	-11.5338
▁overview	-11.5339
holx	-11.5339
▁teaching	-11.5342
.38	-11.5343
apog	-11.5347
▁upped	-11.5349
▁projection	-11.5349
▁joke	-11.535
dva	-11.5351
▁fan	-11.5351
pets	-11.5353
▁taps	-11.5353
▁beauty	-11.5354
▁glass	-11.5362
gf	-11.5366
▁exist	-11.5368
▁outflows	-11.5369
▁van	-11.5371
.51	-11.5377
these	-11.5378
▁men	-11.538
▁cow	-11.5383
▁explode	-11.5384
▁louisiana	-11.5384
▁recognition	-11.5384
biznews	-11.5385
bristol	-11.5387
▁showdown	-11.5387
▁creation	-11.5387
jf	-11.5387
▁crest	-11.5407
▁7,	-11.5408
oks	-11.5408
▁teach	-11.5409
▁divest	-11.541
▁commission	-11.5411
▁licensing	-11.5417
▁$2.4	-11.5417
▁known	-11.5419
▁dynamic	-11.5421
▁pilot	-11.5421
1.4%	-11.5423
▁loves	-11.5425
▁boring	-11.5426
▁venezuela	-11.5428
▁deserve	-11.5428
▁botox	-11.5435
lithium	-11.5441
wyckoff	-11.5441
▁guarantee	-11.5441
▁pioneer	-11.5441
▁nomura	-11.5441
▁everybody	-11.5442
ttph	-11.5444
een	-11.5445
▁underway	-11.5445
tops	-11.5445
▁dynamics	-11.5461
▁sound	-11.5463
▁flaw	-11.5464
brands	-11.5469
▁19,	-11.5471
2019	-11.5481
order	-11.5487
akzoy	-11.5499
▁disaster	-11.5499
▁kentucky	-11.5499
▁rallies	-11.5499
▁thomas	-11.5499
▁osborn	-11.5499
▁edit	-11.5499
▁accuse	-11.5499
▁halt	-11.55
▁worldwide	-11.55
▁tout	-11.5504
▁dcvaxl	-11.5507
warrenbuffett	-11.5509
▁stable	-11.5513
▁contractual	-11.5513
▁settled	-11.5516
▁algos	-11.5517
tg	-11.5521
intl	-11.5522
0.12	-11.5524
▁jon	-11.5531
ville	-11.5531
mdr	-11.5534
▁115	-11.5535
▁weed	-11.5536
bear	-11.554
▁mis	-11.5542
▁algo	-11.5543
tesla	-11.5549
cutting	-11.5551
▁champion	-11.5555
▁collins	-11.5557
▁extension	-11.5557
▁integration	-11.5557
▁caught	-11.5557
▁feedback	-11.5558
uc	-11.5558
marvel	-11.5559
▁dept	-11.5564
capital	-11.5564
▁2/2	-11.5565
trm	-11.5568
▁delayed	-11.5569
▁bod	-11.5571
ago	-11.5577
lg	-11.5587
▁usual	-11.5591
▁produce	-11.5595
▁buffet	-11.5602
plane	-11.5606
adms	-11.5608
bin	-11.5611
▁basin	-11.5612
ripbig	-11.5615
checkpoint	-11.5621
▁hyper	-11.5622
▁ending	-11.5627
labd	-11.5629
▁$1.7	-11.5638
▁11%	-11.5641
▁vision	-11.5642
aol	-11.565
ttg	-11.5651
dig	-11.5652
▁recall	-11.5653
▁patch	-11.5653
instagram	-11.5673
▁ericsson	-11.5673
3+	-11.5673
▁twice	-11.5673
▁desire	-11.5673
▁macbook	-11.5674
imnp	-11.5675
▁funny	-11.5675
▁transpo	-11.5676
▁$1.5	-11.568
advisor	-11.5681
jp	-11.5683
mjna	-11.5684
▁$75	-11.5684
fxe	-11.5686
▁controls	-11.5686
▁significantly	-11.5688
▁scores	-11.569
▁houston	-11.5691
fcf	-11.5692
avav	-11.5694
▁truth	-11.5696
▁pause	-11.5696
▁$19	-11.5697
▁sam	-11.5699
movie	-11.57
anti	-11.5703
kbw	-11.5709
▁2015	-11.5715
▁networking	-11.5716
▁knock	-11.5716
hea	-11.5718
▁realize	-11.572
hint	-11.5721
dose	-11.5727
▁reputation	-11.5732
▁outstanding	-11.5732
▁housing	-11.5732
▁russell	-11.5732
trendtr	-11.5733
commod	-11.5733
▁faber	-11.5734
wisely	-11.5735
-18	-11.5736
▁mike	-11.5736
fxcm	-11.5736
1.50	-11.5738
▁liver	-11.5738
▁sharp	-11.5741
pharmaceutical	-11.5744
.0092	-11.5747
dw	-11.5749
▁75%	-11.5749
▁pack	-11.5752
fire	-11.5752
▁soared	-11.5754
▁bc	-11.5757
fm	-11.5762
▁grows	-11.577
▁stands	-11.5775
▁mount	-11.5778
subscriber	-11.5779
▁98%	-11.578
▁163	-11.578
▁wtf	-11.5783
▁profiting	-11.5784
▁21,	-11.5788
▁17-	-11.5789
▁transform	-11.579
▁quadrant	-11.5791
▁janssen	-11.5791
▁fiction	-11.5791
tbev	-11.5791
nikk	-11.5792
irbt	-11.5792
▁financing	-11.5793
rdwr	-11.5798
squeeze	-11.58
athn	-11.5805
loaded	-11.5806
350	-11.5806
▁hub	-11.5808
corporate	-11.5809
▁attacks	-11.581
ball	-11.581
lte	-11.5812
feed	-11.5813
▁atm	-11.5814
750	-11.5815
nsa	-11.5817
▁effects	-11.5817
dont	-11.5827
▁35%	-11.5828
eck	-11.583
▁walgreens	-11.5833
still	-11.5834
▁400	-11.5834
yumc	-11.5837
▁generation	-11.5838
industrial	-11.5844
spi	-11.5846
cost	-11.5847
▁bottle	-11.5849
▁especially	-11.5851
▁royalties	-11.5851
▁60%	-11.5853
bd	-11.5859
▁jay	-11.5861
▁forces	-11.5862
▁classic	-11.5863
▁jets	-11.5867
/1	-11.5868
py	-11.5871
ious	-11.5873
▁compounding	-11.5876
▁ability	-11.5876
pla	-11.5878
holy	-11.5878
▁enterprises	-11.5879
▁defend	-11.588
▁747	-11.5881
▁reit	-11.5883
airbus	-11.589
▁steal	-11.5891
wsj	-11.5893
.68	-11.5895
▁asking	-11.5901
lab	-11.5902
.14	-11.5906
believing	-11.5911
boycott	-11.5911
▁louis	-11.5911
▁berenberg	-11.5911
innl	-11.5911
▁conglomerate	-11.5912
▁farmers	-11.5912
neath	-11.5914
ultra	-11.5914
▁fiber	-11.5914
▁joel	-11.5916
rich	-11.5919
depth	-11.592
sunday	-11.5921
1.3%	-11.5922
▁iron	-11.5925
▁ended	-11.5927
▁crushing	-11.5928
doctors	-11.5937
▁anniversary	-11.5939
hf	-11.5939
ncr	-11.5942
▁bite	-11.5944
.27	-11.5945
trades	-11.5947
▁woes	-11.5947
ihe	-11.5952
▁alternative	-11.5957
▁supplier	-11.5957
alks	-11.5964
rhhbf	-11.5971
▁probabilities	-11.5971
▁wikileaks	-11.5971
▁elsewhere	-11.5971
▁mantra	-11.5972
▁skype	-11.5972
datacenter	-11.5974
stocktwits	-11.5978
glasses	-11.5978
mnta	-11.598
▁drilling	-11.5981
ez	-11.5983
fmc	-11.5984
yn	-11.5987
▁dive	-11.599
gotta	-11.5993
▁+3	-11.5998
aldr	-11.6
▁$37	-11.6005
▁matt	-11.6007
vy	-11.6012
mer	-11.6016
▁await	-11.6018
from	-11.6018
▁oak	-11.602
▁awards	-11.6025
▁hulu	-11.6027
satellite	-11.6031
zltq	-11.6031
jak	-11.6033
pura	-11.6034
eps	-11.6039
▁scare	-11.6042
amz	-11.6042
fnbc	-11.6045
fu	-11.6047
30,000	-11.6051
▁stronger	-11.6055
▁cities	-11.6061
▁amica	-11.6062
▁gaap	-11.6064
▁lineup	-11.6067
▁cases	-11.6067
podcast	-11.6068
etrm	-11.6068
▁seattle	-11.6068
gue	-11.6069
bce	-11.6077
▁$32	-11.6078
ue	-11.6078
▁thesis	-11.6081
darzalex	-11.6092
▁evidence	-11.6092
vpor	-11.6093
▁ultimate	-11.6093
▁truly	-11.6094
nrz	-11.6095
▁anyway	-11.6095
▁drinks	-11.6099
mit	-11.6099
▁14%	-11.6101
▁atlanta	-11.6101
▁blast	-11.6102
▁lock	-11.6104
score	-11.6106
▁obamacare	-11.611
western	-11.6111
▁damage	-11.6114
▁chemicals	-11.6121
▁connor	-11.6129
▁broad	-11.6142
▁70%	-11.6143
▁compelling	-11.6154
▁sovaldi	-11.6154
▁swiss	-11.6154
▁craft	-11.6154
▁humira	-11.6154
▁drillers	-11.6155
wednesday	-11.6156
▁capture	-11.6156
▁protection	-11.6156
▁passes	-11.6159
johnson	-11.616
▁retest	-11.6161
▁bucks	-11.6161
▁iran	-11.6162
▁dma	-11.6162
dxcm	-11.6167
▁concern	-11.6168
band	-11.6171
▁extra	-11.6172
venezuelan	-11.618
▁standard	-11.6186
▁dumping	-11.6194
▁recommend	-11.6194
▁agreed	-11.6208
▁spikes	-11.6211
!?	-11.6215
▁pursue	-11.6215
▁imminent	-11.6216
▁continuation	-11.6216
afmd	-11.6216
▁lightning	-11.6217
▁adoption	-11.6217
▁spell	-11.622
dna	-11.6222
▁seriously	-11.6223
▁outperformance	-11.6223
zo	-11.6226
born	-11.6229
▁electronic	-11.623
mmj	-11.623
▁derivatives	-11.6232
▁$2.3	-11.6233
▁ease	-11.6234
▁iphones	-11.624
.90	-11.6241
mmp	-11.6243
▁2010.	-11.6245
goldman	-11.6252
165	-11.6255
▁offerings	-11.6261
▁27,	-11.6262
▁sites	-11.6264
hours	-11.6268
aem	-11.6269
soda	-11.6269
▁accounting	-11.6269
▁laggards	-11.6276
▁caribbean	-11.6278
hydrogen	-11.6278
irwd	-11.6278
▁cpu	-11.6278
moat	-11.6287
▁melanoma	-11.6293
▁manufacturers	-11.6295
tcs	-11.6297
▁owning	-11.6298
210	-11.6298
▁harm	-11.6302
other	-11.6303
▁$65	-11.6307
▁moon	-11.6312
▁asap	-11.6312
law	-11.6313
1.9%	-11.6314
maga	-11.6314
roy	-11.6315
ime	-11.6315
▁guardian	-11.6316
▁dcsa	-11.6317
▁speaks	-11.6324
mic	-11.6327
log	-11.6327
▁disruption	-11.6332
▁2007	-11.6334
post	-11.6337
truth	-11.634
criminal	-11.634
▁kevin	-11.634
▁regent	-11.634
▁grid	-11.634
▁scheme	-11.6341
ffiv	-11.6341
▁regulation	-11.6342
pstg	-11.6342
syria	-11.6342
mchp	-11.6343
ory	-11.6345
▁marketplace	-11.6345
▁bmy	-11.6347
proof	-11.6356
joy	-11.6357
▁clearly	-11.636
viagra	-11.6364
wall	-11.6364
▁sears	-11.6367
▁kicking	-11.6368
▁appdynamics	-11.6373
▁mom	-11.638
ico	-11.638
hcp	-11.6385
▁sea	-11.6386
elf	-11.6387
eva	-11.639
▁improved	-11.6393
▁brain	-11.6394
▁pcsk	-11.6399
▁walks	-11.6401
▁unique	-11.6403
wdfc	-11.6403
singapore	-11.6403
▁dumb	-11.6404
▁scorpio	-11.6404
▁respect	-11.6404
▁patches	-11.6405
mind	-11.6406
shaw	-11.6409
itub	-11.6409
cast	-11.641
▁outsource	-11.6422
schd	-11.6424
ell	-11.6433
▁metals	-11.6436
▁surprising	-11.6444
woke	-11.6445
▁suffer	-11.6452
▁spirit	-11.6459
▁wh	-11.6461
▁absolute	-11.6463
sure	-11.6463
qrvo	-11.6466
starwars	-11.6466
▁committed	-11.6466
dvmt	-11.6467
league	-11.6467
iconic	-11.6467
drone	-11.647
logic	-11.6482
▁pushes	-11.6483
▁05	-11.6484
▁strongest	-11.6485
msi	-11.6488
1.69	-11.6493
ios	-11.6501
daytrade	-11.6501
lock	-11.6502
▁28,	-11.6509
border	-11.6511
▁settles	-11.6513
4.50	-11.6513
▁grant	-11.6516
▁accord	-11.6518
▁skills	-11.6527
▁genuity	-11.653
▁solomon	-11.653
cryptocurrency	-11.653
edication	-11.653
433	-11.6533
prxl	-11.6533
pickers	-11.6534
▁pen	-11.6534
▁algorithm	-11.6538
brainer	-11.6539
/$	-11.6539
▁fires	-11.6542
aff	-11.6542
wind	-11.6544
▁suppliers	-11.6545
▁2012	-11.6547
yca	-11.6549
changer	-11.6553
urre	-11.6555
scam	-11.6555
▁dumped	-11.6556
▁$800	-11.6558
▁training	-11.6563
▁diet	-11.6569
dax	-11.6575
▁hints	-11.6575
ition	-11.6576
▁warrant	-11.6588
▁component	-11.6588
▁cardiovascular	-11.6589
▁initiatives	-11.659
ieber	-11.6593
hcmktg	-11.6594
▁bouncing	-11.6594
▁possibly	-11.6594
▁wedbush	-11.6594
▁probability	-11.6594
▁rollout	-11.6595
ldr	-11.6596
▁(1	-11.6597
frida	-11.6598
▁headline	-11.6601
significant	-11.661
revenue	-11.6613
show	-11.6613
▁$68	-11.6614
▁23%	-11.662
▁787	-11.6623
▁$36	-11.6626
▁jumped	-11.6626
▁miles	-11.6633
erry	-11.6633
ire	-11.6635
sonc	-11.6648
80.00	-11.665
ane	-11.6657
▁episode	-11.6659
▁themselves	-11.6659
▁panic	-11.6659
sjr	-11.6663
ndaq	-11.6664
▁crowd	-11.6668
▁killed	-11.6676
uscr	-11.6677
under	-11.6678
▁deadly	-11.6678
▁evans	-11.6679
▁sounds	-11.6681
medtech	-11.6683
ntf	-11.6687
united	-11.6695
ftw	-11.67
tmx	-11.6702
▁semiconductor	-11.6704
feb	-11.6709
nick	-11.6713
▁tumbles	-11.6715
garden	-11.6716
▁$43	-11.6716
▁shifting	-11.6717
▁prob	-11.6717
▁hm	-11.6721
▁eventually	-11.6724
▁adjustment	-11.6724
aph	-11.673
happy	-11.6732
▁slowly	-11.6736
▁capex	-11.6744
▁alto	-11.6752
ud	-11.6754
ech	-11.6757
hah	-11.6759
▁bout	-11.6765
core	-11.6769
▁user	-11.6771
▁"#	-11.6773
.5%	-11.6773
.32	-11.6784
▁narrow	-11.6785
appleinsider	-11.6789
ethereum	-11.6789
technician	-11.6789
▁sustainable	-11.6789
▁tapering	-11.6789
youcan	-11.679
▁kaby	-11.6791
▁needham	-11.6791
▁checkmate	-11.6791
bow	-11.6791
▁marketsite	-11.6792
▁kelly	-11.6794
2.9%	-11.6798
▁contact	-11.6798
▁pic	-11.6799
▁mrk	-11.68
▁revealed	-11.6803
ven	-11.6804
▁$44	-11.6808
master	-11.6816
trum	-11.6817
▁micron	-11.6817
▁110	-11.6817
doit	-11.6819
iyt	-11.6822
50%	-11.6825
▁conve	-11.6826
40%	-11.6826
outage	-11.6827
pool	-11.6829
ask	-11.6833
lll	-11.6836
bdrbf	-11.6855
▁arbitrage	-11.6855
akao	-11.6855
orange	-11.6856
▁failing	-11.6857
▁subsid	-11.6857
sonic	-11.6862
sdy	-11.6865
▁dying	-11.6867
ably	-11.6868
asml	-11.6868
▁snapchat	-11.6874
▁(+1	-11.6879
pass	-11.6879
▁mess	-11.6883
▁fin	-11.6894
april	-11.69
vfo	-11.6901
,600	-11.6903
▁exits	-11.6905
coal	-11.691
shared	-11.6913
:31	-11.6921
▁phenomenal	-11.6921
▁patriot	-11.6921
▁deregulation	-11.6921
▁blackrock	-11.6922
pfpt	-11.6922
rexx	-11.6922
▁depression	-11.6923
chron	-11.6924
▁2011	-11.6929
▁absolutely	-11.6934
vx	-11.6936
hol	-11.6945
mutual	-11.6951
hour	-11.6951
mtg	-11.6952
▁(4	-11.6952
▁mln	-11.6953
▁majors	-11.6953
▁mix	-11.6953
appoints	-11.6955
iber	-11.6959
.58	-11.6959
▁incredible	-11.6959
▁2009	-11.6966
▁glen	-11.6968
▁$2.6	-11.6969
crest	-11.6969
2.0	-11.697
▁accelerate	-11.6971
▁$120	-11.6973
▁shrink	-11.6973
▁dear	-11.6973
▁likes	-11.6976
▁steam	-11.6981
▁israel	-11.6982
▁dot	-11.6983
0.09	-11.6983
john	-11.6985
201	-11.6985
corpgov	-11.6988
content	-11.6988
▁guru	-11.6989
▁visual	-11.6989
▁22,	-11.699
arna	-11.6996
▁follows	-11.6998
▁whisper	-11.6998
spex	-11.7
zn	-11.7001
▁links	-11.7004
omi	-11.7005
▁$1.2	-11.7011
direct	-11.7013
▁amzn	-11.7028
flw	-11.7029
cycle	-11.7033
▁atlantic	-11.7034
▁tablet	-11.7036
▁field	-11.7037
hele	-11.7041
lad	-11.7042
rsx	-11.7048
collect	-11.7049
▁accounts	-11.7051
▁command	-11.7053
autism	-11.7055
▁pennsylvania	-11.7055
nb	-11.7056
bbva	-11.7056
▁guyana	-11.7056
▁liar	-11.7059
mlm	-11.7059
rjf	-11.706
▁terrible	-11.7065
▁multiples	-11.7065
▁2014	-11.7067
disruption	-11.7069
▁scam	-11.7072
cashflow	-11.7073
▁bln	-11.7076
▁factory	-11.7077
▁eating	-11.7078
ran	-11.708
21%	-11.7084
▁closely	-11.7086
pharmacy	-11.7087
▁marks	-11.7092
station	-11.7093
asia	-11.7103
▁intraday	-11.7106
▁drones	-11.7109
▁covering	-11.7114
▁aggressive	-11.7118
wing	-11.7119
deep	-11.712
▁defensive	-11.7122
▁warehouse	-11.7122
▁allocation	-11.7123
▁cornerstone	-11.7123
ttery	-11.7124
▁navy	-11.7128
track	-11.713
▁2022	-11.713
▁chicken	-11.7132
▁tue	-11.7132
aristocrat	-11.7137
semi	-11.7139
▁booked	-11.7145
help	-11.7148
▁output	-11.7151
twc	-11.7153
▁turner	-11.7153
▁reviewed	-11.7158
▁bonus	-11.716
▁thousands	-11.7164
▁predict	-11.7165
optionstrading	-11.7168
▁efficient	-11.717
ftc	-11.7173
ouch	-11.7175
▁wine	-11.7176
▁$85	-11.7178
▁toxic	-11.718
date	-11.7183
general	-11.7188
corporation	-11.7189
▁michigan	-11.719
▁applied	-11.719
idxx	-11.719
▁virginia	-11.719
brugge	-11.719
▁bag	-11.719
▁headwinds	-11.7191
▁decades	-11.7192
▁revamp	-11.7193
jec	-11.7193
bhm	-11.7193
crime	-11.7194
trino	-11.7195
tci	-11.7196
▁drexel	-11.7199
slack	-11.7199
▁$77	-11.7202
fallout	-11.7205
▁wallet	-11.7205
wat	-11.7206
▁actual	-11.7208
25%	-11.7221
ification	-11.7221
▁tumor	-11.7223
nrf	-11.7231
▁ray	-11.7235
▁mgmt	-11.7237
ii	-11.7238
▁farm	-11.7238
zy	-11.724
luk	-11.7249
renewable	-11.7251
px	-11.7252
▁blocked	-11.7252
,900	-11.7252
wag	-11.7253
▁doug	-11.7253
ral	-11.7254
▁16%	-11.7256
▁prevent	-11.7258
▁10-1	-11.7258
dublin	-11.7259
▁contrarian	-11.7259
▁enabling	-11.7259
nivolumab	-11.7259
▁amended	-11.7259
lexg	-11.7259
dashboard	-11.7259
▁workforce	-11.7261
▁greg	-11.7264
corp	-11.727
oldmansachsgroup	-11.7272
bone	-11.7275
generation	-11.7276
cher	-11.7278
sheet	-11.7279
indonesia	-11.728
▁adobe	-11.7284
ezu	-11.7285
guardians	-11.7285
uthr	-11.7285
exe	-11.7286
fsb	-11.729
gress	-11.7294
▁bug	-11.7297
▁connect	-11.7299
eni	-11.7302
burl	-11.7304
watt	-11.7308
nut	-11.7309
▁places	-11.7324
gpu	-11.7325
precision	-11.7328
▁attorney	-11.7328
bdraf	-11.7328
▁basically	-11.7328
hcsm	-11.7328
▁loving	-11.7331
tree	-11.7331
▁lobby	-11.7331
▁subscription	-11.7332
▁camera	-11.7332
▁thin	-11.7332
ore	-11.7334
idra	-11.7335
▁sent	-11.7337
300,000	-11.7343
▁kim	-11.7345
2017)	-11.7346
▁xfinity	-11.7346
250,000	-11.7353
▁considers	-11.7355
itb	-11.7358
▁showed	-11.736
▁understanding	-11.7365
ingr	-11.7367
ov	-11.7368
msm	-11.7373
▁florida	-11.7374
▁manage	-11.7375
▁feels	-11.7377
▁cashflow	-11.7378
-10	-11.7382
▁broker	-11.7383
dii	-11.7383
15%	-11.7387
aeri	-11.7388
▁6%	-11.7389
nw	-11.7392
hh	-11.7393
icipate	-11.7397
mitchell	-11.7397
▁accumulation	-11.7397
▁carcinoma	-11.7397
▁restricted	-11.7397
▁1,2,3	-11.7397
▁restructuring	-11.7397
▁commit	-11.7398
▁okay	-11.7398
yard	-11.7399
▁struggle	-11.7402
▁initiative	-11.7402
2017:	-11.7404
using	-11.7405
stag	-11.7405
mint	-11.7406
midst	-11.7407
104	-11.7417
▁pans	-11.7422
▁currency	-11.7434
hb	-11.7439
▁waste	-11.7449
▁compute	-11.7454
din	-11.7461
billions	-11.7462
▁sue	-11.7465
grass	-11.7466
ichimoku	-11.7467
ebola	-11.7467
jimcramer	-11.7467
enberg	-11.7468
▁kroc	-11.747
▁moron	-11.7475
▁joint	-11.7477
▁riding	-11.7478
ridge	-11.7483
▁army	-11.7483
▁separate	-11.7483
kill	-11.7486
entry	-11.7488
▁salesforce	-11.7499
/9	-11.75
wide	-11.7502
daytrader	-11.7503
morning	-11.7507
▁define	-11.7508
▁reserves	-11.7508
0.8%	-11.7514
criptions	-11.7515
▁tweeted	-11.7516
entered	-11.7518
cro	-11.7528
.17%	-11.7532
▁tons	-11.7533
▁$48	-11.7537
▁robust	-11.7538
snowball	-11.7538
▁automatic	-11.7538
▁ackman	-11.7538
▁gapp	-11.7538
▁apparently	-11.7539
▁factors	-11.754
cseries	-11.754
▁richest	-11.754
stay	-11.7543
lept	-11.7543
2.3%	-11.7544
wd	-11.7545
19%	-11.7546
▁"3	-11.7549
fighting	-11.7557
▁dance	-11.756
going	-11.7561
warded	-11.7571
standards	-11.7572
▁pact	-11.7578
▁coo	-11.7581
eco	-11.7581
emc	-11.759
ftd	-11.7592
▁24,	-11.7596
▁02	-11.7599
▁ditch	-11.76
▁talked	-11.76
fish	-11.7601
▁$3.7	-11.7606
hybrid	-11.7608
▁gravity	-11.7608
▁mitsubishi	-11.7608
▁nevada	-11.7608
▁myself	-11.7609
▁mouse	-11.7613
▁odd	-11.7619
▁blocks	-11.7624
▁1999	-11.7629
.74	-11.7637
▁played	-11.7637
sic	-11.7645
▁outer	-11.765
▁sinks	-11.7652
▁nearing	-11.7656
made	-11.7656
▁aim	-11.7658
▁slips	-11.7668
nvr	-11.7672
opioid	-11.7676
▁columbia	-11.768
▁landscape	-11.768
▁uniform	-11.768
appadvice	-11.768
▁suddenly	-11.7682
glen	-11.7683
swingtrade	-11.7683
reading	-11.7685
▁slam	-11.7686
momentum	-11.7688
▁tumble	-11.7689
▁beaten	-11.7693
tdg	-11.7702
whole	-11.7707
▁swo	-11.7709
api	-11.7712
▁servers	-11.7714
▁slideshow	-11.7715
▁bias	-11.7717
anto	-11.7718
▁imp	-11.7722
▁crossed	-11.7726
▁miners	-11.7728
grade	-11.7729
non	-11.7731
axon	-11.7731
mur	-11.7733
▁12-	-11.7736
▁pickup	-11.7737
▁bowl	-11.774
▁20,	-11.7745
pol	-11.7749
▁tightening	-11.7752
cobalt	-11.7752
rspp	-11.7752
▁sheets	-11.7753
pbct	-11.7754
▁studio	-11.7755
▁producers	-11.776
▁disappoint	-11.7763
bid	-11.7767
▁nuclear	-11.7772
lett	-11.7772
▁speaking	-11.7773
performing	-11.7776
acor	-11.7777
003-	-11.7778
▁10,000	-11.7783
▁demo	-11.7784
bloomberg	-11.7791
write	-11.7798
▁featured	-11.7799
front	-11.78
therapy	-11.7804
▁chair	-11.7806
▁$160	-11.7808
▁120	-11.7815
▁abandon	-11.7815
▁1/3	-11.7817
▁anchor	-11.7817
seas	-11.782
▁highlight	-11.7821
nigeria	-11.7822
▁delisting	-11.7824
▁flood	-11.7824
▁murder	-11.7824
epogen	-11.7825
rxmd	-11.7825
▁japanese	-11.7825
hcv	-11.7825
mystic	-11.7826
-3	-11.7826
▁briefing	-11.7826
▁revive	-11.7828
ass	-11.7829
zbh	-11.7835
▁breakthrough	-11.7836
▁ev	-11.7841
▁nfl	-11.7841
did	-11.7845
wix	-11.7854
▁colore	-11.7864
wise	-11.7864
▁maris	-11.7867
wwe	-11.787
▁supplement	-11.787
▁moats	-11.7873
▁acquiring	-11.7874
hoe	-11.7875
▁brazil	-11.7875
▁releas	-11.788
ach	-11.7887
▁basic	-11.7887
360	-11.789
ryzen	-11.7895
telecom	-11.7895
▁putin	-11.7895
9:	-11.7897
▁inventory	-11.7897
▁nationwide	-11.7897
▁litigation	-11.7897
▁richdale	-11.7897
▁snapshot	-11.7898
nktr	-11.7898
chesapeake	-11.7899
spr	-11.7899
▁$45.00	-11.79
▁neutrality	-11.79
grmn	-11.7901
think	-11.7902
lar	-11.7905
fls	-11.7905
jfr	-11.7909
usat	-11.7909
leading	-11.7909
egn	-11.7914
▁planes	-11.7915
▁hacking	-11.7919
▁hidden	-11.7921
feat	-11.7926
organization	-11.7928
tron	-11.793
401	-11.793
▁2.0	-11.7931
▁trim	-11.7933
▁+4	-11.7941
gan	-11.7947
▁engines	-11.795
▁seven	-11.7952
▁discipline	-11.7952
bll	-11.7952
fair	-11.7961
▁africa	-11.7966
proves	-11.7967
emerginggrowth	-11.7971
selfdrivingcars	-11.7971
▁roundtable	-11.7971
creek	-11.7971
▁living	-11.7971
▁fading	-11.7971
▁gateway	-11.7971
▁engineering	-11.7976
▁spirits	-11.798
▁predicted	-11.7981
▁exploding	-11.7981
xhb	-11.7983
tex	-11.7988
▁sweeper	-11.7988
▁paint	-11.7989
bristolmyers	-11.7989
▁rico	-11.799
▁raid	-11.7998
▁dream	-11.7998
diversity	-11.8
economic	-11.8
ros	-11.8002
iau	-11.8003
reversal	-11.8005
cheaper	-11.8005
▁cre	-11.8006
▁records	-11.8006
ihc	-11.8009
▁+125	-11.8009
5)	-11.8013
bounce	-11.8013
▁actions	-11.8014
▁experiences	-11.8017
six	-11.8018
▁$94	-11.8021
/18	-11.8029
▁factor	-11.8031
▁lunch	-11.8031
gro	-11.8041
fee	-11.8042
▁$56	-11.8042
mindthestore	-11.8045
▁curious	-11.8045
▁signature	-11.8045
▁welch	-11.8045
kn	-11.8048
▁furious	-11.8048
nice	-11.8048
▁insight	-11.8054
strat	-11.8057
night	-11.8061
▁38	-11.8062
▁rep	-11.8063
76%	-11.8064
▁$53	-11.8067
pag	-11.8067
oral	-11.8073
ken	-11.8083
ham	-11.8089
▁sugar	-11.8093
arex	-11.8093
coo	-11.8102
section	-11.811
chinese	-11.8111
always	-11.8112
tailwinds	-11.8115
cars	-11.8116
▁dev	-11.8116
▁debuts	-11.8116
▁deaths	-11.8118
fascinating	-11.812
▁nightmare	-11.812
austin	-11.812
▁desktop	-11.812
nailed	-11.812
beav	-11.812
▁loeb	-11.812
▁execution	-11.812
▁spree	-11.8121
canada	-11.8121
exp	-11.8124
▁overwrite	-11.8125
reilly	-11.8125
location	-11.8132
peg	-11.8133
▁scenario	-11.8135
▁complex	-11.8138
project	-11.8142
▁gainer	-11.8144
▁quantum	-11.8144
amx	-11.8144
ify	-11.8145
nycb	-11.8157
utter	-11.816
▁forgot	-11.816
▁locations	-11.8161
urag	-11.8162
▁$38	-11.8167
ities	-11.8168
▁none	-11.8173
gnw	-11.8175
duct	-11.8189
▁potentially	-11.8189
▁struggles	-11.8189
skt	-11.8191
room	-11.8193
▁exaggerated	-11.8195
▁upgrading	-11.8195
copyright	-11.8195
▁situation	-11.8195
silent	-11.8195
▁parent	-11.8196
▁clever	-11.8197
france	-11.82
sso	-11.8201
than	-11.8201
adjusted	-11.8201
hang	-11.8202
nett	-11.8202
snv	-11.8203
▁poker	-11.8203
bos	-11.8204
▁highlighted	-11.8204
▁upfront	-11.8207
▁request	-11.8211
winter	-11.8217
▁announc	-11.8217
impressive	-11.8218
▁rolled	-11.8222
sells	-11.8223
▁listing	-11.8225
burg	-11.8231
expo	-11.8235
▁pct	-11.8238
agg	-11.8249
pound	-11.825
▁owners	-11.825
rop	-11.8251
▁hololens	-11.8258
dump	-11.8258
▁outcomes	-11.8263
▁votes	-11.8268
▁document	-11.8269
college	-11.827
procter	-11.827
vhc	-11.8271
▁subsidies	-11.8271
▁kills	-11.8271
▁justify	-11.8276
asc	-11.8276
super	-11.8277
▁detail	-11.828
▁minute	-11.8281
▁crown	-11.8284
▁relationship	-11.8288
▁takeout	-11.8289
urn	-11.8297
▁graphics	-11.8298
gimo	-11.8303
comey	-11.8304
▁(2	-11.8307
cream	-11.8308
▁construction	-11.8308
enz	-11.8317
▁bounced	-11.8324
gnx	-11.8325
▁doubles	-11.8326
▁arizona	-11.8326
15:19	-11.833
effo	-11.8331
▁2016,	-11.8331
▁powder	-11.8332
sfly	-11.8332
row	-11.8336
▁dealing	-11.8337
nti	-11.8339
sna	-11.834
▁behavior	-11.8341
chat	-11.8346
bonobos	-11.8347
thetravelers	-11.8347
▁capabilities	-11.8347
▁unravel	-11.8347
▁false	-11.8347
imoku	-11.8347
impossible	-11.8347
▁assume	-11.8347
aramco	-11.8348
▁showcase	-11.8348
▁praise	-11.8349
▁launched	-11.8359
travel	-11.8361
▁posting	-11.8362
taking	-11.8362
▁hundred	-11.8366
drones	-11.8371
▁dreams	-11.8372
▁85%	-11.8372
gap	-11.8376
▁complaint	-11.8378
500%	-11.8386
1.30	-11.8387
acti	-11.8387
pld	-11.8391
▁discounts	-11.8393
parp	-11.8394
bned	-11.8395
miss	-11.8395
▁zeltiq	-11.84
▁sponsor	-11.8401
▁hat	-11.8402
▁fade	-11.8407
▁technically	-11.8418
broadcast	-11.842
integrity	-11.8424
photograph	-11.8424
▁representative	-11.8424
▁thompson	-11.8424
▁circle	-11.8424
▁planned	-11.8424
▁algorithmic	-11.8425
▁roof	-11.8426
ressers	-11.843
▁migraine	-11.8431
hulu	-11.8431
▁loop	-11.8434
-2017	-11.8437
ebitda	-11.8437
$1.3	-11.8439
equities	-11.8442
▁forbes	-11.8444
wf	-11.8451
▁lays	-11.8451
.83	-11.8454
▁$79	-11.8455
5%)	-11.8458
9.00	-11.846
climate	-11.8464
small	-11.8468
▁155	-11.847
▁additive	-11.8471
exr	-11.8473
base	-11.8474
cable	-11.8477
ytx	-11.8478
passion	-11.8486
▁decided	-11.8488
thought	-11.8491
lifts	-11.8492
▁vehicle	-11.8493
igh	-11.8493
mlp	-11.8494
refresh	-11.8499
▁bangladesh	-11.8501
▁silence	-11.8501
▁suspect	-11.8501
zais	-11.8504
▁providers	-11.8505
▁tag	-11.8517
bmw	-11.8518
nbc	-11.8518
wpm	-11.8524
wn	-11.8529
acas	-11.853
anh	-11.853
▁tale	-11.8532
▁gand	-11.8545
▁$110	-11.8545
bpt	-11.8547
dte	-11.8549
mobil	-11.8553
nbev	-11.8554
ui	-11.8554
complete	-11.8554
deal	-11.8555
entrepreneurs	-11.8555
imp	-11.8558
ign	-11.8559
▁completed	-11.856
roll	-11.8563
▁acadia	-11.8568
▁wmt	-11.8577
▁recogniz	-11.8579
▁productivity	-11.8579
▁verdict	-11.8579
▁dramatically	-11.8579
▁empower	-11.858
▁affordable	-11.858
▁weird	-11.858
lumber	-11.8582
▁basis	-11.8582
▁bonuses	-11.8582
▁charity	-11.8582
▁$$$	-11.859
kes	-11.859
ppa	-11.8595
▁94	-11.8596
gid	-11.8598
▁3-	-11.8598
72%	-11.8598
▁transparency	-11.8601
▁resign	-11.8602
▁adults	-11.8605
plce	-11.861
aer	-11.8612
▁except	-11.8616
dds	-11.8617
▁cape	-11.8629
▁cbs	-11.8643
▁fil	-11.8647
▁promot	-11.865
points	-11.8651
▁modern	-11.8654
periscope	-11.8658
▁snippet	-11.8658
▁tesaro	-11.8658
▁thriving	-11.8658
webinar	-11.8658
zayo	-11.8658
▁university	-11.8658
mxim	-11.8658
▁foster	-11.8658
▁1:50	-11.8659
biosim	-11.866
california	-11.8662
▁shooting	-11.8663
samsung	-11.8665
berkshire	-11.8667
davidson	-11.8667
▁inhibitors	-11.8668
saudi	-11.867
▁brig	-11.867
should	-11.867
▁$42	-11.8676
▁temp	-11.8677
++	-11.8686
lon	-11.8687
bay	-11.869
▁cellular	-11.869
hday	-11.8691
▁entrepreneurs	-11.8691
ade	-11.8692
hit	-11.8693
iam	-11.8696
▁included	-11.87
wc	-11.8704
xbox	-11.8707
fly	-11.8709
promised	-11.8722
▁mission	-11.8728
▁lik	-11.8729
▁singapore	-11.8731
wearables	-11.8732
▁exelixis	-11.8737
▁metastatic	-11.8737
▁vwap	-11.8737
▁darpa	-11.8738
child	-11.8738
▁branches	-11.8739
▁maintain	-11.8739
▁tar	-11.874
▁smoke	-11.8741
docasainc	-11.8742
pulm	-11.875
▁$64	-11.8751
htgm	-11.8751
viv	-11.8754
..."	-11.8756
▁hack	-11.8763
backed	-11.8767
3.50	-11.8772
▁curve	-11.8776
▁treating	-11.8777
▁harris	-11.8783
jet	-11.8784
anac	-11.8784
▁drags	-11.8784
96%	-11.8795
▁meds	-11.8798
▁sandwich	-11.8815
junk	-11.8817
▁renaissance	-11.8817
▁staggering	-11.8817
▁huntington	-11.8818
▁hudson	-11.8818
wheel	-11.8818
mygn	-11.8818
lymphoma	-11.8819
razz	-11.882
rahi	-11.8821
▁dodge	-11.8821
adhd	-11.8821
▁regimen	-11.8822
cautiously	-11.8824
▁affecting	-11.8824
▁laugh	-11.8824
ngg	-11.8825
meyer	-11.8827
talks	-11.8828
dan	-11.884
▁indications	-11.8842
▁scalp	-11.8842
▁barrels	-11.8843
▁doj	-11.8847
onci	-11.8848
lish	-11.8855
▁37	-11.8866
ery	-11.8866
▁asian	-11.8868
.12%	-11.887
sis	-11.8878
charging	-11.8887
▁$180	-11.8892
▁brutal	-11.8895
evaluating	-11.8898
najarian	-11.8898
▁enbrel	-11.8898
▁sharma	-11.8898
▁brakes	-11.8898
▁grail	-11.8899
page	-11.89
olfi	-11.8903
▁delays	-11.8906
▁scandal	-11.8908
pride	-11.891
▁63%	-11.891
veterans	-11.891
225	-11.8911
▁ches	-11.8912
music	-11.8913
▁surprises	-11.8913
▁lisa	-11.8914
▁bridges	-11.8916
95%	-11.8916
0.39	-11.892
▁planet	-11.892
nrx	-11.8925
▁ingredients	-11.8925
break	-11.8929
asx	-11.893
▁recording	-11.8932
pii	-11.8933
▁miz	-11.8934
▁stall	-11.8934
1.8%	-11.8938
cut	-11.8939
▁inbox	-11.8946
ow	-11.8946
▁friends	-11.8949
fran	-11.8959
▁charges	-11.896
1.6%	-11.8962
fail	-11.8972
▁german	-11.8976
detroit	-11.8979
fashion	-11.8979
hemophilia	-11.8979
nbcuniversal	-11.8979
▁realistic	-11.8979
▁speculating	-11.8979
▁vulnerable	-11.8979
repcf	-11.8979
▁norway	-11.898
▁bios	-11.898
▁voting	-11.898
imately	-11.898
scotus	-11.8981
eep	-11.8984
eqix	-11.8985
warm	-11.8988
avar	-11.8995
▁successfully	-11.8995
vnq	-11.8995
fh	-11.9004
atlantic	-11.9004
▁dispose	-11.9007
▁bomb	-11.9009
▁emerge	-11.9011
▁lay	-11.9012
bkx	-11.9013
screen	-11.9014
guidance	-11.9017
▁filings	-11.9017
roce	-11.9031
▁$1.6	-11.9034
▁20-	-11.9036
▁$170	-11.9037
pack	-11.9037
ada	-11.9039
coke	-11.904
:35	-11.9041
▁slowing	-11.9042
vista	-11.9047
oz	-11.9055
ftsm	-11.9056
▁ridiculous	-11.9061
gorgon	-11.9061
▁benchmark	-11.9061
▁granite	-11.9061
bourne	-11.9061
▁controller	-11.9062
binary	-11.9062
coin	-11.9062
jmp	-11.9063
voxx	-11.9065
▁imply	-11.9067
greedy	-11.907
8%)	-11.9071
▁orphan	-11.9073
jam	-11.9076
▁tour	-11.9077
▁69%	-11.9079
cou	-11.9082
amag	-11.9083
▁founders	-11.9084
wgo	-11.909
10.00	-11.9091
▁repurchase	-11.9092
▁compass	-11.9092
mile	-11.9098
lcd	-11.9102
.2017	-11.9105
ora	-11.9109
potus	-11.9118
ibmers	-11.9118
lux	-11.9122
▁fins	-11.9123
▁delivering	-11.9123
▁older	-11.9124
▁evening	-11.9124
▁6/1	-11.9127
harmin	-11.9134
▁agent	-11.9135
rating	-11.914
▁flop	-11.914
▁tape	-11.9141
apri	-11.9144
hedgefunds	-11.9144
reliance	-11.9144
▁accomplished	-11.9144
▁hamilton	-11.9144
▁implement	-11.9144
▁sapphire	-11.9144
▁synergy	-11.9144
▁sideways	-11.9144
▁experiment	-11.9144
▁sorkin	-11.9144
nobl	-11.9145
▁forced	-11.9146
▁prosper	-11.9147
ktos	-11.9151
▁crashes	-11.9153
▁tries	-11.916
hfc	-11.9171
26%	-11.9171
▁topic	-11.9176
▁imperatives	-11.9178
▁pbms	-11.9188
mott	-11.919
▁totally	-11.9202
wash	-11.9205
erson	-11.9207
▁65	-11.9208
evr	-11.9211
▁moss	-11.9213
▁libe	-11.9215
▁$49	-11.9216
ela	-11.9219
950	-11.922
ybr	-11.9224
encouraging	-11.9227
▁diversify	-11.9227
▁proceed	-11.9227
▁groceries	-11.9227
homepod	-11.9227
▁mickey	-11.9228
▁kept	-11.9228
▁mountain	-11.9228
dxc	-11.9229
▁replacement	-11.9229
▁danger	-11.923
idti	-11.923
zr	-11.9235
equal	-11.9237
dragon	-11.9238
▁watches	-11.9239
lpx	-11.9239
wire	-11.924
▁stochastics	-11.9247
sec	-11.9247
channel	-11.9254
▁fans	-11.9261
check	-11.9263
▁straddles	-11.9269
mgn	-11.9274
▁deposit	-11.9295
ww	-11.9299
pdl	-11.931
rahmani	-11.9311
▁difficult	-11.9311
▁wrote	-11.9311
vault	-11.9311
▁alaska	-11.9311
▁corbat	-11.9311
▁salary	-11.9311
▁787-10	-11.9312
constructive	-11.9312
▁jury	-11.9312
▁ryan	-11.9317
1.2%	-11.9324
bgne	-11.9324
▁locked	-11.9328
▁federally	-11.9328
elli	-11.9328
mrn	-11.9332
▁sides	-11.9333
jn	-11.9333
▁coach	-11.9336
▁25,	-11.9339
cry	-11.9339
dtc	-11.934
mbl	-11.9342
▁swap	-11.9345
▁switching	-11.9348
▁pumping	-11.9349
gbtc	-11.9351
2]	-11.9362
▁repurchases	-11.9365
have	-11.9367
▁shi	-11.9372
resistance	-11.9379
scal	-11.9379
▁urge	-11.9382
▁23,	-11.9384
▁supe	-11.9391
temporary	-11.9396
▁chambers	-11.9396
▁institute	-11.9396
jbht	-11.9396
repatriation	-11.9397
▁mitsu	-11.9397
▁reinvent	-11.9397
▁completion	-11.9398
▁registered	-11.9398
▁vital	-11.9398
▁brodalumab	-11.9398
▁lying	-11.9399
avastin	-11.9399
▁schwab	-11.9407
friendly	-11.9412
dream	-11.9422
▁however	-11.9424
▁anderson	-11.9435
fairly	-11.9439
▁bang	-11.9441
ptc	-11.9447
▁rated	-11.9449
crowd	-11.9454
thank	-11.9455
rade	-11.9459
frid	-11.9459
▁song	-11.9463
▁kings	-11.9465
▁31,	-11.9466
0.05	-11.947
▁improvements	-11.9472
250	-11.9473
vti	-11.9474
march	-11.9478
▁webcasts	-11.948
benjamin	-11.9482
external	-11.9482
psoriasis	-11.9482
rheumatoid	-11.9482
▁epidemic	-11.9482
▁$0.84	-11.9482
diamond	-11.9482
neuroscience	-11.9482
▁brought	-11.9482
▁juice	-11.9482
▁goc	-11.9484
▁hanging	-11.9487
▁theater	-11.9487
▁pending	-11.9492
stupid	-11.9492
dyn	-11.9493
underperform	-11.9494
novo	-11.9497
▁corn	-11.9498
print	-11.9499
payments	-11.9499
sci	-11.95
▁fries	-11.95
▁fleet	-11.95
50.00	-11.9502
bearish	-11.9503
boot	-11.9511
bli	-11.9512
▁pensions	-11.9513
rand	-11.9522
cafe	-11.9529
mission	-11.9536
▁bode	-11.954
▁figures	-11.9544
etary	-11.9546
▁39	-11.9558
▁17%	-11.956
▁dives	-11.9562
marr	-11.9564
▁returning	-11.9565
psa	-11.9565
penn	-11.9566
cq	-11.9567
definitive	-11.9568
▁troubling	-11.9568
▁uncommon	-11.9568
tmtboston	-11.9568
sectorrotation	-11.9568
▁candlestick	-11.9568
spider	-11.9568
rack	-11.9568
▁disappointment	-11.9569
cloudcomputing	-11.9569
▁landry	-11.957
▁designation	-11.957
dk	-11.957
wan	-11.9573
bigpharma	-11.9576
fxy	-11.9583
iz	-11.9585
▁bags	-11.9586
▁2013	-11.9586
▁condition	-11.9593
3.4%	-11.9604
round	-11.9609
efx	-11.9612
group	-11.9612
opx	-11.9614
▁swings	-11.9616
▁ordered	-11.9617
▁10.3	-11.9618
▁hmmm	-11.9624
aple	-11.9627
▁vermo	-11.9627
office	-11.9634
▁remaining	-11.9639
▁regulators	-11.964
ounce	-11.964
▁2017!	-11.9644
wl	-11.9649
ku	-11.965
▁carolina	-11.9655
▁strategist	-11.9655
ransomware	-11.9655
controversial	-11.9655
▁paulson	-11.9656
▁abuse	-11.9656
▁cohn	-11.9656
▁7/17	-11.9657
▁strau	-11.9658
boil	-11.9662
▁05.2	-11.9664
▁dumps	-11.9664
▁legend	-11.9665
▁brock	-11.9665
400	-11.9665
sands	-11.9666
make	-11.9666
scss	-11.9666
earle	-11.967
▁ear	-11.967
0.22	-11.9672
▁97%	-11.9672
ibmwatson	-11.968
bit	-11.968
▁sys	-11.9694
▁conso	-11.9697
▁innovations	-11.9699
44%	-11.9699
▁interviews	-11.9702
5.50	-11.9703
129	-11.9705
eww	-11.9713
atw	-11.9714
city	-11.9716
▁scripts	-11.9719
▁trail	-11.9722
eq	-11.9727
wnc	-11.9729
▁pres	-11.973
1.05	-11.9731
identify	-11.9738
nie	-11.9741
illinois	-11.9742
▁diversification	-11.9742
▁rosenblatt	-11.9742
bmwyy	-11.9743
-1.57%	-11.9743
aveo	-11.9743
▁8.46%	-11.9743
▁stink	-11.9744
▁regional	-11.9748
design	-11.9751
▁serve	-11.9752
▁bids	-11.9752
internet	-11.9754
134	-11.9754
streaming	-11.9757
▁janet	-11.9762
▁town	-11.9764
▁text	-11.9765
citing	-11.9772
dogs	-11.9773
4%)	-11.9774
▁operator	-11.9784
:-2.3	-11.9785
$$	-11.9789
chemical	-11.979
▁viewers	-11.9791
▁rankings	-11.9792
mule	-11.9792
uz	-11.9799
▁discounted	-11.98
enabled	-11.98
national	-11.9801
▁arrow	-11.9806
gci	-11.9809
▁complaints	-11.9809
10:44	-11.9811
▁$97	-11.9815
anth	-11.983
leukemia	-11.9831
▁harvoni	-11.9831
▁megtirrell	-11.9831
▁palisade	-11.9831
▁schroeter	-11.9831
▁nordic	-11.9831
▁overreaction	-11.9831
-3.32%	-11.9831
▁eight	-11.9831
▁underlying	-11.9831
▁chmp	-11.9831
▁heritage	-11.9832
axta	-11.9832
▁console	-11.9834
▁permit	-11.9835
baby	-11.9836
lies	-11.9852
▁served	-11.9852
wyn	-11.9853
asix	-11.9856
▁positioning	-11.9865
▁2017...	-11.987
▁airplane	-11.9875
0.07	-11.9876
indexes	-11.9881
▁measure	-11.9882
dto	-11.9882
▁edt	-11.9883
solid	-11.9885
pcar	-11.9887
asy	-11.9889
▁math	-11.9896
clean	-11.99
▁lens	-11.9908
▁drill	-11.9908
true	-11.9909
adr	-11.991
▁dm	-11.9913
▁wunderlich	-11.992
xeljanz	-11.992
▁munger	-11.9921
▁fourier	-11.9921
▁germany	-11.9926
getting	-11.9929
wreck	-11.9934
bpl	-11.9937
▁readout	-11.9941
▁existing	-11.9946
▁realized	-11.9946
glng	-11.9947
▁medicines	-11.9948
▁frauds	-11.995
▁cm	-11.9951
ji	-11.9951
▁regulations	-11.9952
xi	-11.9964
declare	-11.9969
hstar	-11.9971
president	-11.9973
ggp	-11.9984
alv	-11.9994
nam	-12.0003
0.32	-12.0005
absolutesoftware	-12.001
▁charlie	-12.001
▁magazine	-12.001
▁trefis	-12.001
▁attendants	-12.001
▁limitations	-12.001
▁deceiv	-12.001
tariff	-12.001
utility	-12.0011
orn	-12.0011
▁preparation	-12.0011
▁firing	-12.0011
sbgi	-12.0012
vaccine	-12.0013
$3	-12.0017
soxx	-12.002
▁$130	-12.0021
pixel	-12.0023
vest	-12.0025
flt	-12.0033
▁hide	-12.0036
▁---	-12.0038
▁ret	-12.0045
level	-12.005
▁brave	-12.0052
ier	-12.0057
▁spa	-12.0058
▁shine	-12.0059
▁thr	-12.0063
hbo	-12.0087
ihi	-12.0087
3%)	-12.0088
▁woo	-12.0089
acon	-12.009
vnr	-12.0094
oid	-12.0095
/15	-12.0096
epc	-12.0097
▁awaken	-12.0101
▁alabama	-12.0101
▁phillips	-12.0101
▁valuing	-12.0101
▁fifth	-12.0101
▁[+21	-12.0102
▁apache	-12.0102
nadl	-12.0102
▁insane	-12.0103
▁lady	-12.0104
slca	-12.0107
navi	-12.0108
roughly	-12.0108
goo	-12.011
guard	-12.0112
zsan	-12.0113
▁$5.8	-12.0113
tear	-12.0118
▁rejected	-12.0122
...$	-12.0122
mania	-12.0123
0.00%	-12.013
0.27	-12.0131
▁capitalist	-12.0135
▁mins	-12.0137
education	-12.0137
laying	-12.014
abus	-12.0145
erx	-12.0145
hft	-12.0148
mtw	-12.0149
▁extending	-12.015
huge	-12.0151
sser	-12.0151
▁18-	-12.0152
▁outcome	-12.0156
rank	-12.0165
▁anticipated	-12.0166
▁emotion	-12.0171
▁meals	-12.0173
▁highland	-12.0175
dns	-12.0186
▁permanent	-12.0193
charlottesville	-12.0193
navigating	-12.0193
▁challenging	-12.0193
▁murphy	-12.0193
▁variety	-12.0193
▁downturn	-12.0193
investigating	-12.0193
▁barely	-12.0195
▁quotes	-12.0196
▁promotion	-12.0197
mfc	-12.0198
▁1929	-12.02
kong	-12.0204
1.75	-12.0207
▁$1.08	-12.0208
0.85%	-12.0209
machine	-12.021
bwa	-12.0213
▁chains	-12.0215
▁publishe	-12.0221
mw	-12.0224
▁confirming	-12.0225
▁$3.3	-12.023
-0.03%	-12.0232
kbr	-12.0233
▁platforms	-12.0234
wnr	-12.0239
▁hired	-12.024
▁def	-12.0244
saving	-12.0244
▁premier	-12.0245
ox	-12.0246
▁upbeat	-12.0246
karp	-12.0248
▁brad	-12.0251
mid	-12.0259
dcf	-12.026
4.20	-12.0261
rol	-12.0263
yoy	-12.0269
-8	-12.027
▁embrace	-12.027
2.25	-12.0272
tle	-12.0273
technical	-12.0277
▁bleed	-12.0278
which	-12.0278
▁impacted	-12.0284
mate	-12.0285
:100	-12.0286
▁spoke	-12.0286
antibiotic	-12.0286
dataviz	-12.0286
▁estimize	-12.0286
▁nippon	-12.0286
▁submission	-12.0286
▁tftcs	-12.0286
▁reliable	-12.0286
vte	-12.0286
▁unexpected	-12.0286
▁intrin	-12.0286
▁environmental	-12.0288
brcd	-12.029
▁rejection	-12.029
▁immediately	-12.0291
xa	-12.0291
▁generator	-12.0293
▁correlat	-12.0293
guy	-12.0296
▁african	-12.0296
:83	-12.0297
▁09:	-12.0298
▁140	-12.0301
▁crosses	-12.0301
▁threatens	-12.0303
rman	-12.0306
ready	-12.0307
60%	-12.0308
rford	-12.0309
2020	-12.031
amcx	-12.0311
▁selects	-12.0313
900	-12.0315
▁passed	-12.0319
▁36%	-12.0322
pva	-12.0327
▁ranks	-12.0328
.94	-12.0329
▁mall	-12.0332
▁audit	-12.0332
mea	-12.0343
yndx	-12.0345
▁millionaires	-12.0347
0.70	-12.0352
give	-12.0355
95,	-12.0358
▁swear	-12.0362
▁republic	-12.0377
▁october	-12.0379
▁oregon	-12.0379
▁professional	-12.0379
pirates	-12.0379
dramatic	-12.0379
▁retain	-12.0379
▁megadeal	-12.038
▁francisco	-12.038
▁remainder	-12.038
▁society	-12.0381
▁otherwise	-12.0382
▁didnt	-12.0383
vape	-12.0386
there	-12.0387
bayer	-12.0387
0.02%	-12.0389
▁$58	-12.0391
▁patterns	-12.0393
▁opp	-12.0397
▁170	-12.0402
▁girls	-12.0409
▁thus	-12.041
▁dere	-12.041
govx	-12.041
manufactur	-12.041
expected	-12.0412
▁$51	-12.0413
▁lands	-12.0414
oca	-12.0416
snow	-12.0421
merica	-12.0422
eia	-12.0426
▁traps	-12.0426
sqm	-12.0426
▁taste	-12.0429
nered	-12.0429
ica	-12.0432
runner	-12.0435
▁suppose	-12.0437
amph	-12.0441
lol	-12.0443
allen	-12.0452
actual	-12.0454
▁pricey	-12.0456
0.77	-12.0468
▁payouts	-12.0468
▁lovin	-12.047
▁negotiat	-12.0472
historic	-12.0473
▁afford	-12.0473
hospital	-12.0473
nintendo	-12.0473
sccrankings	-12.0473
▁argument	-12.0473
▁axiom	-12.0473
▁crossroads	-12.0473
▁desperate	-12.0473
▁evaluate	-12.0473
▁exploring	-12.0473
▁generous	-12.0473
addyy	-12.0473
▁armonk	-12.0473
lptx	-12.0473
▁occurred	-12.0474
thankyou	-12.0474
ddaif	-12.0474
▁cibc	-12.0474
▁thunder	-12.0476
tsra	-12.0477
dnr	-12.0478
▁eliminate	-12.0478
▁160.00	-12.0479
▁growthier	-12.0479
1.70	-12.0483
▁gary	-12.0484
ypf	-12.0486
viav	-12.0488
brent	-12.0489
lit	-12.0489
hrw	-12.0492
▁pictures	-12.0498
▁calm	-12.0501
▁treated	-12.0502
▁leak	-12.0503
nering	-12.0508
pick	-12.051
▁fears	-12.0511
tw	-12.0512
▁editing	-12.0513
gang	-12.0516
bou	-12.0517
web	-12.052
atr	-12.0523
▁disagree	-12.0523
jedi	-12.0524
vol	-12.053
boa	-12.053
avm	-12.053
▁doubl	-12.0534
photos	-12.0534
saw	-12.0537
soft	-12.0538
0.75	-12.0538
minent	-12.0547
dar	-12.0548
february	-12.0549
▁scenarios	-12.0549
▁0,	-12.055
phi	-12.0551
▁depends	-12.0551
acquisition	-12.0552
enta	-12.0554
1/2	-12.0559
0.30	-12.0559
))	-12.056
scending	-12.0562
isco	-12.0565
▁ruin	-12.0566
resist	-12.0568
bavencio	-12.0569
▁afraid	-12.0569
▁imperial	-12.0569
▁vantage	-12.0569
▁faith	-12.0569
▁17!	-12.0569
▁evolving	-12.0569
innate	-12.057
▁praluent	-12.057
▁mkm	-12.057
bofi	-12.0571
▁hopefully	-12.0572
mgt	-12.0573
▁yep	-12.0574
▁wages	-12.0576
▁joe	-12.0576
▁(2017/0	-12.0576
▁lease	-12.0578
qep	-12.0578
-0.61%	-12.0579
▁broader	-12.0579
▁achieved	-12.058
▁grinding	-12.058
rence	-12.0594
baron	-12.0595
syna	-12.0601
:-0.	-12.0601
tril	-12.0601
ahead	-12.0608
tasty	-12.0608
100%	-12.0611
▁synthesi	-12.0613
▁$39	-12.0619
pga	-12.0621
dj	-12.0621
▁tail	-12.0624
▁#9	-12.0626
▁offices	-12.063
▁rid	-12.0632
▁bargains	-12.0634
clock	-12.0641
pcg	-12.0645
▁recon	-12.0645
▁troll	-12.0648
▁hated	-12.0651
128	-12.0652
▁fla	-12.0652
▁paradigm	-12.0665
▁respectively	-12.0665
lqmt	-12.0665
horse	-12.0665
▁retracement	-12.0665
▁volatile	-12.0665
awareness	-12.0666
▁rethink	-12.0667
ftse	-12.0667
transforms	-12.0668
▁joined	-12.0668
▁dining	-12.0673
banco	-12.0675
pah	-12.0676
▁dismissed	-12.0676
demand	-12.0678
▁highway	-12.0688
127	-12.0689
heb	-12.069
▁repeating	-12.0699
near	-12.07
▁earned	-12.0703
whisper	-12.0708
▁sectors	-12.0711
▁offset	-12.0712
▁handel	-12.0714
ington	-12.0721
load	-12.0723
pher	-12.0728
123	-12.0729
central	-12.073
account	-12.073
▁prepar	-12.0733
▁breakup	-12.0735
▁neuro	-12.0738
▁wks	-12.0738
sgms	-12.074
7%)	-12.0747
lier	-12.0747
mast	-12.0748
-0.57%	-12.0748
jone	-12.0752
pping	-12.0752
reward	-12.0757
corrupt	-12.0761
▁featuring	-12.0762
▁navellier	-12.0762
▁remote	-12.0762
dprinting	-12.0762
▁roadmap	-12.0762
pppi	-12.0762
cgrp	-12.0762
infosec	-12.0762
▁facial	-12.0762
dboey	-12.0762
▁distribut	-12.0763
▁meridian	-12.0763
2000	-12.0764
▁purchased	-12.0764
▁jackson	-12.0765
haters	-12.0769
scot	-12.0769
ute	-12.0774
▁bunch	-12.078
▁algorithms	-12.0782
▁jr	-12.0784
rap	-12.0784
▁100%+	-12.0785
seac	-12.0791
▁reh	-12.0797
▁nowhere	-12.0802
train	-12.0805
▁shoes	-12.0805
dated	-12.0806
lion	-12.0808
▁slashe	-12.0812
few	-12.0824
doj	-12.0825
▁protest	-12.0828
minute	-12.0829
▁prospect	-12.083
▁stephens	-12.0836
ipg	-12.0851
.89%	-12.0853
▁hunt	-12.0853
.14%	-12.0853
sox	-12.0855
closing	-12.0857
▁marketcap	-12.0859
▁explosive	-12.086
▁parabolic	-12.086
▁regular	-12.086
everence	-12.086
mmyt	-12.086
diverse	-12.0861
tgna	-12.0861
▁freak	-12.0861
▁aggressively	-12.0865
▁+20%	-12.0869
▁gray	-12.0871
elon	-12.0872
▁bleeding	-12.0875
▁scanner	-12.0876
black	-12.0877
3.7	-12.0878
1.15	-12.0879
repost	-12.0887
weighted	-12.0889
abv	-12.089
▁condo	-12.0893
teen	-12.0899
ldt	-12.09
▁newly	-12.0905
bpop	-12.0907
$$$	-12.0907
▁2/1	-12.091
▁caus	-12.0917
rci	-12.0922
evaluation	-12.0927
ewj	-12.0928
trad	-12.0934
118	-12.0937
cover	-12.0938
▁whitne	-12.0939
build	-12.0942
bivv	-12.0951
ched	-12.0951
▁retiree	-12.0953
unit	-12.0957
epacadostat	-12.0959
erifiedprotrader	-12.0959
unemployment	-12.0959
▁cruise	-12.0959
▁garbage	-12.0959
▁monopoly	-12.0959
▁reference	-12.0959
▁robbery	-12.0959
▁refining	-12.0959
▁discrimination	-12.0959
gntx	-12.0959
▁harriet	-12.0959
▁loud	-12.096
▁broaden	-12.0963
▁yang	-12.0964
▁investigational	-12.0964
investo	-12.0966
1.77	-12.0969
inverse	-12.0971
▁biologics	-12.0972
lawsuit	-12.0974
▁mobility	-12.0977
color	-12.098
num	-12.0981
▁clearing	-12.0984
▁finished	-12.0985
owned	-12.0985
nano	-12.099
50,000	-12.0995
akba	-12.0995
nci	-12.0997
case	-12.1002
▁awaiting	-12.1003
tpx	-12.1004
usl	-12.1005
4]	-12.101
gbm	-12.1011
ymc	-12.1011
area	-12.1018
▁dba	-12.1028
▁inspiri	-12.1035
147	-12.1038
0.60	-12.1041
▁tackl	-12.1056
elect	-12.1056
▁ops	-12.1056
vine	-12.1056
plastic	-12.1059
▁ibrance	-12.1059
davos	-12.1059
▁scammer	-12.1059
▁november	-12.1061
▁gambi	-12.1061
destiny	-12.1061
frozen	-12.1064
mjn	-12.1064
▁cantor	-12.1065
▁motion	-12.1066
▁carefully	-12.1066
▁18%	-12.1068
shr	-12.107
▁trailer	-12.107
▁boat	-12.1074
visit	-12.1074
▁hammered	-12.1077
aro	-12.1078
taf	-12.1079
▁lod	-12.1085
finder	-12.1087
▁66.7	-12.1089
syn	-12.1091
skill	-12.1093
▁grey	-12.1094
▁loading	-12.1097
▁indicated	-12.1098
▁scientists	-12.1099
epam	-12.1106
2.8%	-12.1106
merrill	-12.1108
▁$95	-12.1111
▁5000	-12.1112
▁5/1	-12.1113
payx	-12.112
credit	-12.1126
loss	-12.1127
66%	-12.113
hand	-12.1131
ect	-12.1132
alu	-12.1132
got	-12.1134
▁contribute	-12.1145
popular	-12.1154
rise	-12.1156
-0.10%	-12.1158
1.90	-12.1159
exploit	-12.116
medicare	-12.116
▁columbus	-12.116
▁fitzgerald	-12.116
▁population	-12.116
▁aurora	-12.116
▁bancshares	-12.116
▁zurich	-12.116
▁ravage	-12.116
ggb	-12.116
notional	-12.116
▁regardless	-12.1161
vde	-12.1161
▁tired	-12.1161
papua	-12.1162
▁unlike	-12.1162
ears	-12.1162
▁$57	-12.1162
unxl	-12.1164
0.37%	-12.1166
ought	-12.117
▁bullet	-12.117
.00%	-12.1174
▁solve	-12.1174
stan	-12.1176
rgld	-12.1177
upm	-12.118
safr	-12.118
▁hoo	-12.118
▁korean	-12.118
atln	-12.1181
▁backing	-12.1187
hamburger	-12.1187
bye	-12.1187
generat	-12.119
ocn	-12.1193
mdu	-12.1201
▁swan	-12.1202
qc	-12.1202
matic	-12.1206
wet	-12.1211
▁$5.6	-12.1212
▁shutt	-12.1213
▁scream	-12.1215
▁burgers	-12.1216
mgi	-12.1219
2.40	-12.122
llard	-12.1223
▁29,	-12.1225
▁$900	-12.1225
▁onto	-12.1225
▁heath	-12.1227
3.20	-12.1233
ology	-12.1238
▁diseases	-12.1239
laid	-12.1251
justice	-12.1251
ostk	-12.1251
▁controversy	-12.1262
▁glitch	-12.1262
▁sarepta	-12.1262
▁statistics	-12.1262
▁unilever	-12.1262
▁unstoppable	-12.1262
▁incentive	-12.1262
▁overpriced	-12.1262
▁sauce	-12.1262
▁nathan	-12.1262
▁title	-12.1263
nws	-12.1264
▁skies	-12.1264
▁62%	-12.1274
>5	-12.1277
▁lucky	-12.1277
pes	-12.128
▁stealing	-12.1287
1.28	-12.1289
0.65	-12.129
golden	-12.129
retailers	-12.1291
genetics	-12.1296
▁twin	-12.1296
ich	-12.1296
version	-12.13
epi	-12.1301
delta	-12.1305
dra	-12.1307
sign	-12.1308
rick	-12.1313
tis	-12.1315
40,000	-12.1317
▁bubbles	-12.1318
moh	-12.132
scientist	-12.1324
yours	-12.1324
fight	-12.1326
▁las	-12.1326
:44	-12.1327
hasi	-12.1327
nile	-12.133
▁affected	-12.1331
▁indication	-12.1334
adx	-12.1339
▁wholesale	-12.1348
▁decide	-12.1351
-0.98%	-12.1352
▁45%!	-12.1354
▁allows	-12.136
oup	-12.136
integrate	-12.1362
▁eve	-12.1362
205	-12.1363
▁modest	-12.1364
growthhacking	-12.1365
blcm	-12.1365
bdsi	-12.1366
▁wheat	-12.1366
▁manipulation	-12.1366
3.53%	-12.1367
▁elected	-12.1368
▁drain	-12.1369
sdom	-12.137
380	-12.1374
ipci	-12.1374
▁$400	-12.1378
▁australian	-12.138
▁27%	-12.1383
▁mull	-12.1384
cio	-12.1385
16%	-12.1387
riday	-12.1388
hacker	-12.1391
▁primed	-12.1397
▁shifts	-12.1398
florida	-12.1399
nsclc	-12.1405
london	-12.1407
titn	-12.1408
▁statements	-12.1408
▁battles	-12.1413
cale	-12.1413
▁jv	-12.1414
winning	-12.1414
miner	-12.1415
▁amit	-12.1415
defined	-12.142
▁impressions	-12.142
robo	-12.143
prod	-12.1431
eum	-12.1431
hepc	-12.1434
▁titan	-12.144
????	-12.1443
xp	-12.1446
gam	-12.1448
wha	-12.145
olo	-12.1452
▁cold	-12.1456
▁speeds	-12.146
50+	-12.1468
▁excess	-12.1469
responsible	-12.1469
▁(02:3	-12.1469
▁bictegravir	-12.1469
▁congratulations	-12.1469
▁greenblatt	-12.1469
▁threshold	-12.1469
ljpc	-12.1469
▁saunders	-12.1469
▁kingdom	-12.1469
thursdaythought	-12.1469
▁senator	-12.1469
▁dragging	-12.1469
cyberattack	-12.147
avatar	-12.147
▁anywhere	-12.147
▁deployment	-12.1471
▁$130.00	-12.1471
wbmd	-12.1471
aliof	-12.1472
▁watchdog	-12.1473
nvcr	-12.1473
4)	-12.1474
▁blake	-12.1475
▁warrants	-12.1479
adro	-12.1481
agco	-12.1483
▁hacked	-12.1488
▁chasing	-12.1493
ntri	-12.15
▁topped	-12.15
vym	-12.1502
▁frankl	-12.1503
▁kris	-12.1503
▁fights	-12.1508
▁supplementa	-12.1508
▁mistakes	-12.1512
acco	-12.1516
letting	-12.1517
upro	-12.1517
/10	-12.1519
▁upon	-12.152
▁mary	-12.1522
2.4%	-12.1528
▁replaced	-12.1528
nwav	-12.1537
ston	-12.1539
▁rob	-12.155
afor	-12.1559
fnv	-12.156
japan	-12.1561
wireless	-12.1565
▁pit	-12.157
livetradepro	-12.1574
▁dilemma	-12.1574
▁flannery	-12.1574
▁therapies	-12.1574
malware	-12.1575
▁telsey	-12.1575
▁critics	-12.1575
▁emergency	-12.1575
▁christmas	-12.1575
settling	-12.1575
▁football	-12.1575
▁chatroom	-12.1575
▁england	-12.1575
1.99%	-12.1575
▁slowdown	-12.1576
fisv	-12.1576
▁endorse	-12.1576
▁stolen	-12.1578
▁warned	-12.158
▁formation	-12.1581
white	-12.1582
yno	-12.1585
▁curb	-12.1587
▁adj	-12.1588
maybe	-12.1591
▁approaches	-12.1594
/17)	-12.1597
▁implants	-12.1601
▁rot	-12.1601
emergingmarkets	-12.1603
-0.60%	-12.1605
closed	-12.1605
▁selected	-12.1605
fez	-12.1609
spread	-12.1611
9%)	-12.1612
▁yearly	-12.1612
ainly	-12.1613
1.82%	-12.1619
15,000	-12.1619
cns	-12.1626
▁clinic	-12.1628
▁poster	-12.1629
▁std	-12.1631
atch	-12.1632
▁lifting	-12.1634
amid	-12.1634
▁dude	-12.1636
▁cri	-12.1637
vlt	-12.1642
usca	-12.1643
adviser	-12.1649
86%	-12.1656
drugs	-12.1657
aste	-12.1661
zer	-12.1661
cites	-12.1662
bri	-12.1664
.31.	-12.167
2.3	-12.1674
▁treatments	-12.1675
▁superior	-12.168
▁scotia	-12.1681
osteoporosis	-12.1681
shields	-12.1681
▁abstracts	-12.1681
▁determine	-12.1681
▁inventories	-12.1681
▁surpass	-12.1681
▁drove	-12.1681
▁trollevent	-12.1681
▁jacob	-12.1681
▁(3.5	-12.1681
climatechange	-12.1681
sxsw	-12.1681
▁antibody	-12.1682
▁3/4	-12.1682
chrome	-12.1682
▁madness	-12.1683
▁2020.	-12.1683
▁conscience	-12.1683
▁demonstrate	-12.1683
▁enhancement	-12.1684
1,200	-12.1685
mxf	-12.1686
woof	-12.169
sppi	-12.1693
▁(8	-12.1695
pjp	-12.1696
▁apron	-12.1701
▁$1.09	-12.1701
qbio	-12.1702
▁introduc	-12.1702
burned	-12.1703
▁alternatives	-12.1706
glass	-12.1707
ssng	-12.1708
hollywood	-12.1711
wannacry	-12.1711
ura	-12.1713
▁refer	-12.1713
boring	-12.1714
▁habits	-12.1715
wtic	-12.172
park	-12.1725
▁marketwatch	-12.173
,400	-12.1731
▁packages	-12.1738
tillerson	-12.1738
▁promises	-12.1739
▁waves	-12.1742
▁ramps	-12.1744
signup	-12.1745
passenger	-12.1747
70.00	-12.1748
2%)	-12.1749
mcf	-12.1755
mbi	-12.1756
pink	-12.1759
▁implant	-12.1761
▁separat	-12.1765
▁spacex	-12.177
history	-12.1771
0.49%	-12.1776
98,	-12.1777
...#	-12.1779
▁fewer	-12.1784
▁presenting	-12.1788
sandacquisitions	-12.1788
▁banned	-12.1788
▁phiii	-12.1789
▁shadow	-12.1789
▁translate	-12.1789
▁bailout	-12.1789
programming	-12.1789
ireland	-12.179
▁14-18	-12.179
lyft	-12.1791
3.74%	-12.1792
▁powerhouse	-12.1792
shlm	-12.1792
2010	-12.1794
▁exception	-12.1795
rcii	-12.1795
logging	-12.1801
hrc	-12.1801
jill	-12.1802
somw	-12.1804
sler	-12.1804
0.48	-12.1805
ily	-12.1806
techno	-12.1807
special	-12.181
▁stephen	-12.1816
▁halftime	-12.1817
▁sinking	-12.1819
xec	-12.1819
▁toni	-12.1821
▁otm	-12.1821
sold	-12.1829
lego	-12.1834
nhi	-12.1837
lka	-12.1838
1]	-12.1839
▁standing	-12.1845
trn	-12.1847
frame	-12.1853
196	-12.1862
uta	-12.1866
▁parker	-12.1867
0.2%	-12.1868
european	-12.1874
insiders	-12.1875
daily	-12.1876
▁idiots	-12.1887
cities	-12.1896
oilandgas	-12.1897
▁damodaran	-12.1897
▁midwest	-12.1897
▁popcorn	-12.1897
▁territory	-12.1897
▁intact	-12.1897
▁thetradingninja	-12.1897
▁jeffrey	-12.1897
▁sinopec	-12.1897
▁triforce	-12.1897
▁hoard	-12.1898
avxs	-12.1898
▁supposedly	-12.1898
▁denies	-12.1898
▁provided	-12.19
clark	-12.19
▁misleading	-12.19
▁royalty	-12.1901
▁tackle	-12.1901
▁contest	-12.1903
wellington	-12.1903
0.31%	-12.1904
▁singer	-12.1905
opgn	-12.1905
boomers	-12.1906
▁upset	-12.1906
dnb	-12.1907
belt	-12.191
borg	-12.1911
73.85	-12.1911
system	-12.1915
albank	-12.1915
ritic	-12.1916
▁cnet	-12.1916
july	-12.1918
139	-12.1918
sii	-12.192
▁chris	-12.1922
▁smashe	-12.1925
1.49	-12.1925
▁aesthetics	-12.1925
▁tuned	-12.1926
ound	-12.1927
▁240	-12.1931
vea	-12.1931
▁counselor	-12.1932
derm	-12.1933
thru	-12.1934
shv	-12.1934
abo	-12.1937
▁finger	-12.1946
▁anytime	-12.1947
ecti	-12.1949
▁unveiled	-12.1949
-30	-12.1949
thebest	-12.1952
,440	-12.1954
▁hunter	-12.1954
▁designer	-12.1957
hei	-12.1958
▁prepared	-12.196
ethos	-12.1961
nova	-12.1966
2.1%	-12.197
68%	-12.1975
▁8/1	-12.1976
▁$140	-12.1976
mmc	-12.1977
block	-12.1977
▁$2.2	-12.1979
investments	-12.1984
▁cancel	-12.1985
40.00	-12.1985
oak	-12.1987
▁saved	-12.1992
▁inflow	-12.1995
mth	-12.1996
▁actively	-12.1996
herd	-12.1996
▁exam	-12.1999
▁socialis	-12.2006
ncy	-12.2007
▁looming	-12.2007
merkel	-12.2007
▁brink	-12.2007
▁treasurer	-12.2007
▁dinner	-12.2007
lgcy	-12.2008
egrx	-12.2008
relax	-12.2008
▁davis	-12.2008
▁tyson	-12.2008
ontx	-12.2008
▁tension	-12.201
picte	-12.2012
1:05	-12.2012
mjt	-12.2013
vno	-12.2013
▁ifm	-12.2013
marriage	-12.2014
▁quest	-12.2014
▁severe	-12.2015
fprx	-12.2015
mpw	-12.2016
▁170.00	-12.2017
worldnews	-12.2019
napi	-12.2019
▁segments	-12.2021
▁israeli	-12.2022
nvexit	-12.2024
▁fare	-12.2024
▁8/2	-12.2024
▁indonesian	-12.2028
nwsa	-12.2028
▁advantages	-12.203
227	-12.2033
▁breath	-12.2034
▁channels	-12.2038
ldl	-12.2038
▁hotel	-12.2039
▁$1.9	-12.2052
▁loved	-12.2052
prime	-12.2053
0.04	-12.2055
bnc	-12.2057
bgs	-12.2059
dock	-12.206
spom	-12.2062
,518	-12.2064
loy	-12.207
pmea	-12.2072
tuesday	-12.2078
▁worrying	-12.2078
hwest	-12.2079
▁replac	-12.2083
▁button	-12.2084
dft	-12.2091
▁failures	-12.2092
▁operate	-12.2097
poly	-12.2101
4.7	-12.2102
emes	-12.2104
▁admit	-12.2109
▁pair	-12.2109
-0.09%	-12.2114
pneumonia	-12.2118
▁clothing	-12.2118
▁meanwhile	-12.2118
▁supplies	-12.2118
▁wizard	-12.2118
gasoline	-12.2118
▁oliver	-12.2118
▁loyalty	-12.2118
▁morris	-12.2118
gpor	-12.2118
▁textron	-12.2118
glncy	-12.2118
lungcancer	-12.2118
▁although	-12.2118
▁linux	-12.2119
▁+5	-12.2119
▁accelerates	-12.212
▁unleashed	-12.2121
1,000,000	-12.2122
▁$52	-12.2123
orig	-12.2123
▁beige	-12.2125
▁+10	-12.2125
neral	-12.2126
▁overnight	-12.2126
livechat	-12.2126
influencer	-12.2126
▁175	-12.2128
▁$0.50	-12.2131
optimize	-12.2133
icu	-12.2134
suite	-12.2134
10-12	-12.2136
▁thorn	-12.2137
97,	-12.214
peak	-12.2143
▁eh	-12.2145
▁ord	-12.215
4.6%	-12.215
lead	-12.2151
6.50	-12.2152
spgi	-12.2155
position	-12.2156
molo	-12.2157
trendline	-12.216
▁licenses	-12.2169
▁slash	-12.2173
▁mkts	-12.2176
vac	-12.218
▁bros	-12.218
oracle	-12.2187
cognitive	-12.2187
graphic	-12.2188
silver	-12.219
chicago	-12.219
wpg	-12.2192
xel	-12.2192
electric	-12.2196
journal	-12.2199
bco	-12.2201
▁15-	-12.2202
holding	-12.2204
when	-12.2204
▁clue	-12.2208
110	-12.2209
▁cheers	-12.2211
lbio	-12.2214
▁archive	-12.2216
▁disappoints	-12.2216
pty	-12.2217
▁modem	-12.2221
0.23	-12.2228
affirm	-12.2229
▁0.20	-12.223
▁associated	-12.223
▁equivalent	-12.223
reflation	-12.223
▁shipments	-12.2231
aspire	-12.2231
galt	-12.2231
▁align	-12.2232
immunooncology	-12.2232
▁armstrong	-12.2232
▁1:30	-12.2232
armco	-12.2235
8.1	-12.2236
:69	-12.2236
▁165.00	-12.2237
▁bail	-12.2239
0.29	-12.2247
▁sixth	-12.2249
ipad	-12.225
citi	-12.225
▁effectively	-12.2252
cure	-12.2252
reach	-12.2254
▁dono	-12.2257
▁vow	-12.226
(3)	-12.2261
emn	-12.2261
expr	-12.2262
comb	-12.2274
▁dismiss	-12.2277
amex	-12.2279
▁annually	-12.2281
▁discriminate	-12.2282
2.80	-12.2285
alm	-12.2287
2.27	-12.2291
▁listening	-12.2293
phar	-12.2294
esmo	-12.2297
abil	-12.2302
wich	-12.2303
▁counting	-12.2312
states	-12.2314
6)	-12.232
▁threaten	-12.2321
▁rel	-12.2323
▁145	-12.2324
phg	-12.2327
apex	-12.2339
▁geopolitic	-12.2339
autonomous	-12.2341
split	-12.2342
swir	-12.2342
lba	-12.2343
appleworldtoday	-12.2344
▁daryanani	-12.2344
▁prevstochrs	-12.2344
▁remarkable	-12.2344
innovate	-12.2344
▁consolidating	-12.2345
▁firepower	-12.2345
57.94	-12.2345
▁%26	-12.2347
bobe	-12.235
straddle	-12.2352
youtube	-12.2353
alphabet	-12.2356
boston	-12.2357
expensive	-12.2357
▁injunction	-12.2358
▁shown	-12.2362
▁exclude	-12.2363
$?	-12.2364
▁sights	-12.2368
▁appliances	-12.237
nfx	-12.2371
bif	-12.2371
▁characters	-12.2374
▁brace	-12.2374
▁mayer	-12.2382
entine	-12.2382
shopping	-12.2383
▁flags	-12.2388
6]	-12.2389
▁cir	-12.2392
beta	-12.2394
patients	-12.24
:32	-12.2411
rally	-12.2413
lii	-12.2415
june	-12.2416
▁bombs	-12.2418
▁quoti	-12.242
▁voted	-12.242
▁pekin	-12.2431
▁fades	-12.2431
function	-12.244
▁reforms	-12.2452
138	-12.2457
ank	-12.2458
mkgaf	-12.2459
perficient	-12.2459
wellsfargo	-12.2459
▁clovis	-12.2459
▁language	-12.2459
▁linkfest	-12.2459
▁providing	-12.2459
▁speculate	-12.2459
▁flush	-12.2459
▁upturn	-12.2459
audvf	-12.2459
▁entries	-12.2459
fully	-12.246
nsu	-12.2461
▁gems	-12.2461
fakenews	-12.2461
▁honestly	-12.2462
▁alleged	-12.2463
/27	-12.2464
logan	-12.2464
heast	-12.2465
xpo	-12.2465
▁involved	-12.2466
shareholder	-12.2467
arrs	-12.2475
oli	-12.2476
▁beach	-12.2479
rso	-12.248
)1	-12.2481
▁allowed	-12.2482
dxy	-12.2484
▁scared	-12.2488
gig	-12.2491
sponsored	-12.2493
rna	-12.2498
fact	-12.2498
▁mild	-12.2499
dxd	-12.25
ists	-12.2502
84%	-12.2502
ndi	-12.2506
lxrx	-12.2506
tuesda	-12.2508
▁payers	-12.251
bold	-12.251
▁esp	-12.251
currency	-12.2514
▁ath	-12.2516
iq	-12.2519
gome	-12.2527
▁publicly	-12.2529
ugen	-12.2529
iac	-12.2531
building	-12.2537
▁types	-12.2537
cents	-12.2539
▁109.7	-12.2547
▁$625	-12.2549
buyback	-12.2549
▁myth	-12.255
▁grabs	-12.2553
cneal	-12.2559
sizing	-12.257
ofthe	-12.2573
▁$1,1	-12.2573
157	-12.2574
sourcing	-12.2575
▁colorado	-12.2575
vivalive	-12.2576
▁communities	-12.2576
▁hurry	-12.2576
centric	-12.2576
buque	-12.2577
hrop	-12.2577
▁combat	-12.2577
▁contractors	-12.2577
▁membership	-12.2578
▁$0.16	-12.2579
▁chec	-12.2579
nuan	-12.2579
▁disruptor	-12.2581
playstation	-12.2581
mtsc	-12.2581
bib	-12.2582
formerly	-12.2584
pwr	-12.2584
▁playbook	-12.2586
▁cnn	-12.2586
olli	-12.2586
▁pillar	-12.2587
▁(3/	-12.2592
▁invited	-12.2593
pnr	-12.2594
▁dent	-12.2596
▁editor	-12.2598
.75%	-12.2599
haven	-12.2599
▁shrinking	-12.2601
1.65	-12.2602
▁bottomed	-12.2603
tivo	-12.2603
hemp	-12.2606
▁uni	-12.2609
cam	-12.2618
ichim	-12.2618
monday	-12.2619
3.04%	-12.2622
adnt	-12.2623
mmer	-12.2624
stockcha	-12.2626
▁retirees	-12.2629
▁operational	-12.2631
terior	-12.2645
ego	-12.2648
wayne	-12.2656
▁103	-12.2657
ruth	-12.266
hands	-12.2676
axl	-12.2677
6.5%	-12.268
▁rams	-12.2685
lyn	-12.2687
nym	-12.2688
tsx	-12.2693
▁fergus	-12.2693
augmentedreality	-12.2693
whistleblower	-12.2693
▁assurance	-12.2693
▁philadelphia	-12.2693
▁waiver	-12.2693
▁bezek	-12.2693
epyc	-12.2693
▁juniper	-12.2693
fibrosis	-12.2693
▁deere	-12.2693
eeft	-12.2693
subtle	-12.2694
▁collection	-12.2694
2.01%	-12.2694
computer	-12.2695
▁kahn	-12.2695
▁trash	-12.2696
industry	-12.2697
isbg	-12.2698
▁lord	-12.2698
hut	-12.2699
▁italy	-12.2699
▁arms	-12.27
surgery	-12.27
▁vet	-12.2701
bell	-12.2702
genfit	-12.2704
fitbit	-12.2705
▁brewing	-12.2705
▁assign	-12.2706
omc	-12.2706
urine	-12.2708
twitch	-12.271
▁halted	-12.2714
shark	-12.2716
0.57	-12.272
▁$155	-12.2723
idta	-12.2724
device	-12.2736
ong	-12.2738
aged	-12.2742
nap	-12.2743
▁$82	-12.2748
nic	-12.275
etour	-12.2758
egian	-12.2768
▁donate	-12.277
aiwa	-12.2772
pnn	-12.2776
▁kinda	-12.2777
▁bases	-12.2781
▁radio	-12.2781
bee	-12.2783
▁rat	-12.2794
ltc	-12.2795
▁grind	-12.2797
▁fits	-12.28
▁2019.	-12.2804
telco	-12.2809
branding	-12.2811
harvard	-12.2812
serialkillerceo	-12.2812
▁01/20/2017	-12.2812
▁stephanie	-12.2812
tkpyy	-12.2812
▁category	-12.2812
ethicon	-12.2812
primeday	-12.2812
▁systematic	-12.2813
morn	-12.2814
mayweather	-12.2814
▁norw	-12.2814
▁wonderful	-12.2815
▁moore	-12.2815
ctla	-12.2815
pbf	-12.2818
▁icon	-12.2821
▁mcle	-12.2822
▁bailed	-12.2823
▁vuzix	-12.2824
▁gira	-12.2824
topping	-12.2824
▁30-	-12.2825
▁cashed	-12.2826
softbank	-12.2826
▁apocalypse	-12.2828
wdr	-12.284
onvo	-12.2848
▁grocers	-12.2851
▁docs	-12.2856
▁sneak	-12.2858
▁operation	-12.2862
▁loose	-12.2864
echo	-12.2865
▁3.1	-12.2866
blb	-12.2869
stent	-12.2874
▁$350	-12.2874
meet	-12.2876
▁crl	-12.2877
bought	-12.2878
exchanges	-12.288
gene	-12.2881
weekend	-12.2885
does	-12.2885
neil	-12.2888
▁kid	-12.2894
foot	-12.2895
protect	-12.2905
after	-12.2912
sprint	-12.2914
▁resolve	-12.2917
▁hurdle	-12.2918
▁reso	-12.2923
6%)	-12.2927
▁expose	-12.2928
dead	-12.293
sized	-12.2931
▁climbs	-12.2932
annuity	-12.2933
▁marathon	-12.2933
▁mcadam	-12.2933
▁vosevi	-12.2933
infosys	-12.2933
▁investigate	-12.2933
▁lanny	-12.2933
▁turbo	-12.2933
poison	-12.2933
▁bridgewater	-12.2933
rochester	-12.2933
sipc	-12.2935
▁clearance	-12.2936
▁barrier	-12.2937
mdso	-12.2938
acol	-12.2939
bankruptcy	-12.2939
▁blows	-12.2943
▁decisions	-12.2943
▁$220	-12.2944
▁independence	-12.2945
▁advise	-12.2946
invent	-12.2946
▁alter	-12.2947
-19	-12.2948
▁streams	-12.2949
fig	-12.295
nike	-12.2957
▁admits	-12.2958
▁grim	-12.2959
▁combos	-12.2959
▁tested	-12.2959
▁kiosks	-12.2962
wave	-12.2966
▁climbing	-12.2972
▁aging	-12.2974
gne	-12.2975
tach	-12.2976
▁53%	-12.2977
surface	-12.2987
▁surely	-12.2987
fxb	-12.2989
bnp	-12.2996
▁nuts	-12.2998
▁spam	-12.2999
▁roger	-12.2999
▁;)	-12.3003
glove	-12.3003
scma	-12.3006
cuba	-12.3007
▁bret	-12.3009
▁exiting	-12.3009
ctor	-12.3013
2.4	-12.3014
robe	-12.3017
▁hahah	-12.3019
42.00	-12.3021
urges	-12.3022
venezuela	-12.3031
▁felt	-12.3035
rax	-12.3037
0072	-12.3039
repatha	-12.304
thursday	-12.3043
▁screw	-12.3045
reality	-12.3047
alley	-12.3048
▁aware	-12.3049
▁producer	-12.3051
▁sessions	-12.3051
adap	-12.3052
0.21	-12.3052
rockefeller	-12.3054
transparent	-12.3054
utilities	-12.3054
▁wisconsin	-12.3054
atcey	-12.3054
scientific	-12.3054
▁cigna	-12.3054
vitz	-12.3055
▁cnbcfastmoney	-12.3055
▁cloudera	-12.3055
▁baseball	-12.3055
algotrading	-12.3055
▁rallied	-12.3055
▁irish	-12.3056
▁easing	-12.3056
▁flagship	-12.3057
▁$175.00	-12.3057
grove	-12.3058
▁popping	-12.3062
ayi	-12.3062
▁cliff	-12.3064
▁stations	-12.3064
▁cue	-12.3066
meba	-12.3066
▁plot	-12.3067
▁797	-12.3067
▁directly	-12.3068
▁downward	-12.3069
▁recommended	-12.3073
▁negotiations	-12.3074
▁peer	-12.3079
▁$3.1	-12.3083
count	-12.3088
.81%	-12.3089
▁alive	-12.309
124	-12.3092
deals	-12.3094
▁sel	-12.3096
▁45%	-12.3097
-2%	-12.3098
▁powers	-12.3099
▁passengers	-12.3102
▁drives	-12.3102
imm	-12.3103
▁instruments	-12.3109
helps	-12.3109
▁41%	-12.311
5.0	-12.3112
▁attend	-12.3113
▁dane	-12.3119
▁conditions	-12.3123
▁canal	-12.3125
270	-12.3135
trex	-12.314
▁timeline	-12.3149
frac	-12.3153
▁jumping	-12.3155
189	-12.3156
650	-12.3159
5,6	-12.3162
▁collaborat	-12.3163
neo	-12.3174
cheddar	-12.3178
newyork	-12.3178
appreciation	-12.3178
shkreli	-12.3178
▁celebration	-12.3178
▁pizza	-12.3178
dilution	-12.3178
▁priorities	-12.3178
▁nestle	-12.3178
▁persist	-12.3179
urgent	-12.318
▁230	-12.3181
▁philip	-12.3181
vrsn	-12.3181
78%)	-12.3182
punished	-12.3183
icus	-12.3183
avp	-12.3184
olympics	-12.3185
etc	-12.3192
▁roe	-12.3193
7.17	-12.3195
▁bidder	-12.3197
hong	-12.3198
throp	-12.3199
glut	-12.32
xboxone	-12.3203
hawk	-12.3204
▁plants	-12.3204
▁12(	-12.3207
pcsk	-12.3209
epipen	-12.3212
▁aids	-12.3212
▁bra	-12.3213
nse	-12.3215
squi	-12.3217
▁(4.5	-12.3218
delivery	-12.3219
cramer	-12.3221
place	-12.3223
mhk	-12.3228
▁$109	-12.3232
avo	-12.3233
-0.86%	-12.3242
187	-12.3248
▁counts	-12.3253
adult	-12.3261
0.01	-12.3264
sykes	-12.3266
stress	-12.3267
issue	-12.3268
▁199	-12.3269
exchange	-12.3277
contract	-12.3277
▁remove	-12.3278
mna	-12.3281
eme	-12.3282
-1/	-12.3284
raff	-12.3286
dual	-12.3287
12/	-12.329
aon	-12.329
▁116	-12.3291
arro	-12.3294
buster	-12.3299
early	-12.33
laundering	-12.3303
▁biobucks	-12.3303
▁brasil	-12.3303
▁continent	-12.3303
▁glimpse	-12.3303
▁intelligent	-12.3303
▁lincoln	-12.3303
▁maintenance	-12.3303
▁manhattan	-12.3303
huawei	-12.3303
nelson	-12.3303
▁cardinal	-12.3303
▁cluster	-12.3303
▁remarks	-12.3303
▁correlations	-12.3303
4.66%	-12.3303
▁cullen	-12.3304
rrgb	-12.3304
▁acceptance	-12.3304
buff	-12.3305
▁virus	-12.3305
▁pratt	-12.3305
wpz	-12.3306
▁$170.00	-12.3307
raging	-12.3307
▁awful	-12.3307
▁bove	-12.3314
▁armor	-12.3314
▁realty	-12.3318
▁exact	-12.3319
▁browne	-12.3321
▁kling	-12.3322
0.24	-12.3322
0.9%	-12.3323
▁nab	-12.3325
▁ecb	-12.3327
▁130	-12.3328
▁saudis	-12.333
paying	-12.3331
▁+2%	-12.3333
0.4%	-12.3337
▁collapsed	-12.3337
▁kicked	-12.3338
▁confused	-12.3339
▁67%	-12.3339
divide	-12.3341
▁.55	-12.3342
uca	-12.3343
▁plung	-12.3344
▁lau	-12.3344
0077	-12.3346
78.00	-12.3349
amn	-12.3353
odu	-12.3361
▁hero	-12.3365
8.6	-12.3365
crypt	-12.3365
1,400	-12.3366
▁leaks	-12.3367
trans	-12.3369
▁analyzed	-12.3369
▁malls	-12.337
▁meetings	-12.3372
walt	-12.3374
.29%	-12.3377
▁39%	-12.338
grocer	-12.3383
▁grower	-12.3383
2.6%	-12.3383
hidden	-12.3388
quantum	-12.3389
src	-12.339
adas	-12.339
pco	-12.3392
houston	-12.3392
▁floating	-12.3396
2.88	-12.3396
aircraft	-12.3397
square	-12.3402
launches	-12.3404
▁balanced	-12.3412
rant	-12.3413
almost	-12.3416
epo	-12.342
biopharma	-12.3422
340	-12.3423
▁rein	-12.3426
▁branch	-12.3427
1%)	-12.3428
accelerator	-12.3429
mcgregor	-12.3429
sinsider	-12.3429
▁besponsa	-12.3429
▁slaughter	-12.3429
surgical	-12.3429
▁overstated	-12.343
▁engagement	-12.343
▁choppy	-12.343
▁centurylink	-12.343
▁hungry	-12.343
kidney	-12.343
bwx	-12.343
hangout	-12.343
etrade	-12.3431
▁workplace	-12.3431
▁sucker	-12.3431
mbrx	-12.3432
▁keycorp	-12.3432
▁grossman	-12.3434
oncs	-12.3435
omni	-12.3435
▁gotten	-12.3436
arnold	-12.3437
1.25%	-12.3438
bruce	-12.3438
▁pleased	-12.3439
▁mach	-12.3441
bfa	-12.3443
abal	-12.3443
▁mentor	-12.3444
gpn	-12.3446
1.63	-12.3447
active	-12.3447
▁stayed	-12.3449
▁crowded	-12.3452
plx	-12.3452
[1	-12.3452
▁rain	-12.3452
▁recommends	-12.3453
▁lure	-12.3453
▁cpus	-12.3454
1.07	-12.3455
jbl	-12.3456
rou	-12.3466
3.6%	-12.3467
foxbusiness	-12.3468
include	-12.3472
▁crib	-12.3474
1.60	-12.3487
▁publish	-12.349
▁bills	-12.349
▁alliances	-12.3491
atra	-12.3496
epr	-12.35
▁topple	-12.35
▁beer	-12.3506
cbs	-12.3506
ette	-12.351
hgg	-12.351
rom	-12.3512
▁kru	-12.3512
▁bass	-12.3518
▁yup	-12.352
▁payer	-12.3521
igon	-12.3521
▁seats	-12.3524
3]	-12.3528
▁units	-12.3531
gains	-12.3539
dsw	-12.3541
girl	-12.3542
ties	-12.355
▁reps	-12.3551
cfo	-12.3555
argentina	-12.3558
▁basket	-12.3558
▁credibility	-12.3558
▁fulfillment	-12.3558
▁infection	-12.3558
▁principal	-12.3558
genome	-12.3558
▁relations	-12.3558
wednesdaywisdom	-12.3558
▁transfer	-12.3558
jesus	-12.3558
prompt	-12.3558
▁denver	-12.3558
sbsaa	-12.3558
▁wendy	-12.3558
:-5.0	-12.356
▁schre	-12.3562
mini	-12.3562
▁facilitate	-12.3566
▁repair	-12.3566
performance	-12.3567
▁slows	-12.3567
tower	-12.3568
bolt	-12.3568
▁alleg	-12.3572
▁trick	-12.3573
decliners	-12.3574
blockcat	-12.3574
▁browser	-12.3578
donut	-12.3578
.67%	-12.3579
aldi	-12.3583
▁mayo	-12.3585
▁3.2	-12.3586
209	-12.3586
changing	-12.3586
costco	-12.3587
could	-12.359
solar	-12.3592
▁pledges	-12.3592
▁2,0	-12.3593
▁accepted	-12.3595
dividendgrowth	-12.3595
aes	-12.3601
▁tele	-12.3602
▁upstream	-12.3602
▁$1.8	-12.3603
▁disclosed	-12.3605
step	-12.3607
relatively	-12.3607
entirely	-12.361
7]	-12.3615
▁mig	-12.3618
3.8%	-12.3619
jj	-12.3621
motors	-12.3623
christ	-12.3624
▁chev	-12.3624
▁operators	-12.3626
biased	-12.3627
irm	-12.3627
wor	-12.3633
enr	-12.3635
▁crashing	-12.3644
5.4	-12.3644
recap	-12.3645
barrel	-12.3646
spxu	-12.3648
bytes	-12.3654
member	-12.3654
achn	-12.3672
mcc	-12.3675
▁egg	-12.3675
0.7	-12.3679
0.94%	-12.3685
rhi	-12.3685
cooking	-12.3686
850	-12.3687
cincinnati	-12.3688
medicaid	-12.3688
nifty	-12.3688
▁celebrating	-12.3688
▁conocophillips	-12.3688
▁dominating	-12.3688
▁exuberance	-12.3688
▁moffett	-12.3688
▁terrorist	-12.3688
▁biomarker	-12.3688
▁satya	-12.3688
▁doyle	-12.3688
▁literally	-12.3688
arlz	-12.3688
inancialliteracy	-12.3688
▁admitted	-12.3688
▁sponsorship	-12.3688
▁westpac	-12.3689
▁hoover	-12.3689
▁musk	-12.3691
▁metric	-12.3691
▁tera	-12.3694
▁franchisees	-12.3696
uction	-12.3696
0.37	-12.3697
eger	-12.3697
ght	-12.3698
▁80,000	-12.37
▁rapidly	-12.37
paog	-12.3701
2.2%	-12.3703
1.47	-12.3703
psec	-12.3707
1.0	-12.3708
▁lining	-12.3708
▁$3.4	-12.3708
gva	-12.3715
suing	-12.3716
racing	-12.3719
▁pea	-12.3726
▁opus	-12.3728
ipi	-12.3744
ebio	-12.3748
▁hedges	-12.3749
300%	-12.3753
lun	-12.3758
chin	-12.3761
sym	-12.3762
outcomes	-12.3762
▁linked	-12.3765
0.78	-12.3768
erj	-12.3769
▁dunc	-12.377
alibaba	-12.3771
shipping	-12.3771
mcy	-12.3775
grocery	-12.3779
vel	-12.378
want	-12.378
▁fli	-12.3781
14,000	-12.3781
▁pharmas	-12.3783
7)	-12.3787
20,000	-12.3794
gru	-12.3797
▁shap	-12.3799
voice	-12.3802
1.44	-12.3807
▁oligarch	-12.381
esperion	-12.3819
automotive	-12.3819
diagnostics	-12.3819
glcnf	-12.3819
ronald	-12.3819
xalkori	-12.3819
▁correspond	-12.3819
▁dupont	-12.3819
▁laurel	-12.3819
▁parallel	-12.3819
▁resolution	-12.3819
▁retreat	-12.3819
▁favour	-12.3819
trendfollowing	-12.382
corruption	-12.382
odac	-12.382
tencent	-12.3821
▁$46.00	-12.3821
0.80%	-12.3822
consulting	-12.3822
loyal	-12.3823
▁obviously	-12.3829
▁unwind	-12.383
ailing	-12.3831
▁spain	-12.3831
▁darin	-12.3831
▁tumors	-12.3832
iden	-12.3837
▁dosing	-12.3837
▁nose	-12.3839
▁began	-12.3841
mtz	-12.3841
▁trailing	-12.3841
disable	-12.3843
neos	-12.3844
type	-12.3845
verno	-12.3849
▁greatness	-12.3851
▁disrupting	-12.3854
connect	-12.3854
980	-12.3859
1.18	-12.3862
▁lore	-12.3862
▁wiseguys	-12.3864
pharm	-12.3865
▁mentions	-12.3869
noble	-12.3871
▁schwa	-12.3883
fmsa	-12.3883
▁hav	-12.3883
70%	-12.3887
1.34	-12.3888
▁acct	-12.3898
ola	-12.39
▁2008,	-12.3907
▁hacks	-12.3912
▁fav	-12.3915
2.75	-12.3919
rebates	-12.392
spect	-12.3923
▁smash	-12.3928
▁reduc	-12.3936
bill	-12.3938
5.30	-12.3942
human	-12.3942
▁gard	-12.3948
▁origin	-12.3949
ghc	-12.395
ching	-12.3951
echnicalanalysis	-12.3951
dinosaur	-12.3952
erenumab	-12.3952
fastmoneymadness	-12.3952
hospira	-12.3952
▁waldron	-12.3953
daughter	-12.3953
crunch	-12.3953
bzun	-12.3953
mkau	-12.3953
gnrc	-12.3953
▁slammed	-12.3953
fxcof	-12.3953
▁brother	-12.3953
900%	-12.3954
▁audio	-12.3954
diagnos	-12.3955
sglt	-12.3955
earningsseason	-12.3957
wine	-12.3957
▁pumps	-12.396
equi	-12.3963
▁greed	-12.3966
▁strange	-12.3968
oon	-12.3969
major	-12.397
nisa	-12.397
▁acquirer	-12.3973
▁hourly	-12.3974
▁expectation	-12.3975
▁sweep	-12.3977
▁arrive	-12.3978
leaf	-12.3979
hless	-12.3979
flying	-12.3989
nson	-12.3996
carbon	-12.4
▁levin	-12.4002
1.20	-12.4004
1,300	-12.4012
-3%	-12.4013
visa	-12.4023
ente	-12.4026
▁$5.3	-12.4028
viva	-12.4028
▁outperformed	-12.403
▁sat	-12.4042
▁ltm	-12.4042
▁cto	-12.4048
0.35	-12.4049
▁2500	-12.405
ycc	-12.4051
▁performed	-12.4056
thal	-12.406
quil	-12.4066
▁require	-12.4076
author	-12.4076
▁banked	-12.4079
0.78%	-12.4081
178	-12.4085
chester	-12.4087
eclipse	-12.4088
zytiga	-12.4088
advancing	-12.4088
▁bolster	-12.4088
▁choosing	-12.4088
▁contribution	-12.4088
▁domination	-12.4088
▁paribas	-12.4088
▁refineries	-12.4088
▁democrat	-12.4088
▁institutions	-12.4088
▁galore	-12.4088
▁incorporated	-12.4088
txrh	-12.4088
stockstotrade	-12.4088
▁mau	-12.4088
▁liability	-12.4088
▁reignite	-12.4088
argent	-12.4088
fuelcell	-12.4088
▁prison	-12.4089
joey	-12.4089
xlrn	-12.409
abmd	-12.4091
▁indeed	-12.4091
▁duff	-12.4093
▁$240	-12.4094
enron	-12.4095
jks	-12.4095
▁shed	-12.4095
▁roi	-12.4096
▁replay	-12.4096
▁surprisingly	-12.4096
ald	-12.4097
▁historically	-12.4101
▁fedex	-12.4101
viking	-12.4102
afterhours	-12.4103
▁exposed	-12.4105
▁tweeting	-12.4106
▁employer	-12.4107
/10/17	-12.4108
▁targeted	-12.4109
▁umb	-12.4116
▁resumes	-12.4116
expd	-12.4119
▁77%	-12.4123
▁irs	-12.4123
▁rout	-12.4127
200%	-12.4132
▁aspect	-12.4138
▁springs	-12.4142
1.1%	-12.4148
arco	-12.4148
iph	-12.415
appdynamics	-12.4153
▁aside	-12.4155
gst	-12.4155
400%	-12.4156
▁viewing	-12.4156
unlimited	-12.4163
vision	-12.4165
thesis	-12.4171
bird	-12.4196
▁mover	-12.4201
differences	-12.4204
▁specs	-12.4205
8)	-12.4205
▁pipe	-12.4206
ermes	-12.4206
2.55	-12.4209
locate	-12.4212
eration	-12.4221
0.92	-12.4221
ocean	-12.4224
knowledge	-12.4224
assault	-12.4225
terrorism	-12.4225
▁availability	-12.4225
▁cadence	-12.4225
▁hawaii	-12.4225
▁tmrw	-12.4225
falcon	-12.4225
cgwm	-12.4225
▁edmond	-12.4225
exploration	-12.4225
▁collective	-12.4225
▁tennes	-12.4225
▁fruit	-12.4225
▁iowa	-12.4225
▁liquidity	-12.4226
▁intellectu	-12.4227
▁laggard	-12.4228
▁$85.00	-12.4228
▁adam	-12.4229
▁baidu	-12.4229
▁ventures	-12.423
▁headset	-12.4231
geopolitics	-12.4232
▁descending	-12.4232
▁tide	-12.4233
▁activists	-12.4236
17,000	-12.4236
▁aspen	-12.4236
▁1997	-12.4237
▁500¡	-12.4238
▁originally	-12.4242
0.61	-12.4248
▁offered	-12.425
▁combine	-12.4251
convinced	-12.4251
pip	-12.4261
▁insurers	-12.4267
nta	-12.4271
vote	-12.4272
▁alec	-12.4278
▁unlocked	-12.428
▁32%	-12.4282
3.9%	-12.4284
0.53	-12.4285
▁kell	-12.4295
▁$145	-12.4305
0.28	-12.4311
▁internals	-12.4316
pen	-12.4316
este	-12.4325
0.06	-12.4335
hood	-12.4335
▁flee	-12.4335
slx	-12.4336
▁bath	-12.4341
0.7%	-12.4343
migraine	-12.435
▁multimillion	-12.435
pirs	-12.4353
isers	-12.4353
▁retr	-12.4355
▁conce	-12.4355
cholesterol	-12.4356
africa	-12.4356
improvement	-12.4358
micron	-12.4359
acre	-12.4362
1.29	-12.4363
nanometer	-12.4363
▁audience	-12.4363
▁demise	-12.4363
▁skeptical	-12.4363
▁subdued	-12.4363
▁subject	-12.4363
toshiba	-12.4364
libor	-12.4364
parsons	-12.4364
hodgkin	-12.4364
▁footprint	-12.4364
purpose	-12.4364
▁hornet	-12.4364
rogue	-12.4364
▁cherry	-12.4364
▁clash	-12.4364
▁escape	-12.4364
▁intent	-12.4365
▁zach	-12.4365
▁employers	-12.4366
aeis	-12.4366
▁reorganization	-12.4367
▁obtained	-12.4367
▁applies	-12.4368
▁automated	-12.4369
▁drama	-12.4369
▁crossing	-12.437
elman	-12.437
wcg	-12.4371
▁fios	-12.4375
▁bible	-12.4378
6.74%	-12.4381
micro	-12.4381
soros	-12.4382
ecr	-12.4384
▁trian	-12.4386
▁maintaining	-12.4389
▁lode	-12.4395
wpc	-12.4398
whispers	-12.4402
▁perfectly	-12.441
5.1	-12.4411
0.6%	-12.4417
▁indiana	-12.4418
hud	-12.4419
ssw	-12.442
aand	-12.4421
defin	-12.4425
197	-12.4427
hstone	-12.4431
▁starr	-12.4433
1.42	-12.444
▁tea	-12.4443
dno	-12.4446
nger	-12.4451
▁tia	-12.4454
perio	-12.4455
nsl	-12.4465
▁plunges	-12.4466
:36	-12.4468
▁iffy	-12.4468
▁lean	-12.4471
169	-12.4472
-46	-12.4473
▁5/2	-12.4475
▁chu	-12.4475
rite	-12.4476
▁2,400	-12.4477
▁$117	-12.4478
▁expire	-12.449
▁yest	-12.4499
▁3.3	-12.4501
purdue	-12.4504
shamrock	-12.4504
▁festival	-12.4504
▁milligan	-12.4504
▁nervous	-12.4504
▁railroad	-12.4504
▁scratch	-12.4504
▁pacemakers	-12.4504
▁refiners	-12.4504
▁nasty	-12.4504
▁shelves	-12.4504
aobc	-12.4504
▁essex	-12.4504
colwell	-12.4505
initiations	-12.4505
▁mainframe	-12.4505
boldfor	-12.4505
▁bispecific	-12.4505
▁neither	-12.4505
▁smell	-12.4505
▁hopeful	-12.4505
▁castle	-12.4506
▁sucks	-12.4507
▁$48.00	-12.4508
chile	-12.451
▁geron	-12.4511
yzf	-12.4512
▁lvl	-12.4513
▁gem	-12.4514
swath	-12.4517
lzb	-12.4522
cle	-12.4523
▁execute	-12.4526
▁2.59	-12.4527
▁cells	-12.4531
▁swed	-12.4534
recession	-12.4537
▁suffering	-12.4537
memp	-12.4538
weight	-12.4544
coast	-12.4559
xarelto	-12.456
sugar	-12.4562
8.50	-12.4564
▁merc	-12.4566
▁2015.	-12.4571
mpel	-12.4571
320	-12.4571
▁trolls	-12.4579
480	-12.4582
0.43	-12.4589
cpc	-12.4589
financ	-12.459
▁weaker	-12.459
▁dime	-12.4591
▁spur	-12.4597
gbt	-12.46
buyout	-12.46
▁opt	-12.46
▁listed	-12.4608
xar	-12.4618
470	-12.4621
0.67	-12.4621
20.00	-12.4626
gad	-12.4628
▁scrap	-12.4633
▁1.3	-12.4636
0.80	-12.4637
fence	-12.464
pra	-12.4642
▁hail	-12.4643
atx	-12.4643
statin	-12.4645
.15%	-12.4647
1.35	-12.4647
▁molecul	-12.4647
▁sangamo	-12.4647
▁shanghai	-12.4647
activism	-12.4647
glaxosmithkline	-12.4647
macrumors	-12.4647
sirukumab	-12.4647
▁bioasis	-12.4647
▁composite	-12.4647
▁cytomx	-12.4647
▁describe	-12.4647
▁orencia	-12.4647
▁gauge	-12.4647
▁authorities	-12.4647
▁fantasy	-12.4647
▁$0.94	-12.4647
▁globe	-12.4648
▁capita	-12.4648
adaptive	-12.4649
▁popped	-12.4649
zyne	-12.465
▁creep	-12.465
▁lauri	-12.4651
▁nigerian	-12.4652
▁cashier	-12.4652
nato	-12.4653
ichan	-12.4653
▁silly	-12.4654
▁prada	-12.4656
▁parasite	-12.4656
▁mojo	-12.4657
▁violation	-12.4658
▁brokerage	-12.4658
▁leaps	-12.4658
wearable	-12.4659
999	-12.466
biotechnology	-12.4662
tooth	-12.4664
▁til	-12.4667
▁wipe	-12.467
scripted	-12.4671
atic	-12.4672
.87%	-12.4683
sight	-12.4686
▁55%	-12.4686
▁prominen	-12.4688
hanne	-12.4688
▁films	-12.469
abce	-12.4694
pennystock	-12.4695
knsc	-12.4695
,700	-12.4696
personal	-12.4698
nish	-12.4698
▁$132	-12.4703
ders	-12.4704
▁candles	-12.4709
buz	-12.4715
▁answers	-12.4718
▁sooner	-12.4734
182	-12.4735
ptr	-12.4739
boom	-12.4741
▁longest	-12.4744
nbio	-12.4744
hkorea	-12.4746
▁golf	-12.4747
socially	-12.4748
mrus	-12.4758
www	-12.476
scenes	-12.4763
sri	-12.4764
▁connections	-12.4764
dest	-12.4765
classic	-12.4769
merch	-12.4769
$20	-12.4771
enstein	-12.4776
▁$4.8	-12.478
winds	-12.4784
docasain	-12.4785
▁sudden	-12.4788
register	-12.4789
bfs	-12.479
death	-12.4791
tremendous	-12.4792
▁ambitions	-12.4792
▁attendees	-12.4792
▁cocktail	-12.4792
▁complicated	-12.4792
▁disgust	-12.4792
▁exhibit	-12.4792
▁famous	-12.4792
▁intermediate	-12.4792
▁siegel	-12.4792
threadripper	-12.4792
▁conquer	-12.4792
▁tulip	-12.4792
▁headache	-12.4792
fonden	-12.4792
wwav	-12.4792
▁rugged	-12.4792
▁12:30	-12.4793
▁analyses	-12.4793
▁opposite	-12.4793
▁debit	-12.4793
allied	-12.4793
tta	-12.4794
armh	-12.4794
alpmy	-12.4796
▁overblown	-12.4796
ucla	-12.4796
pst	-12.4799
▁banker	-12.48
8]	-12.4801
▁removes	-12.4803
▁omega	-12.4804
eff	-12.4805
▁ebook	-12.481
▁65%	-12.4811
pwc	-12.4813
functional	-12.4815
▁vendors	-12.4819
-12	-12.4822
▁fixings	-12.4823
0%)	-12.4824
▁yea	-12.483
▁christo	-12.4831
uslv	-12.4831
sncr	-12.4833
layoffs	-12.4834
▁decides	-12.4837
spyr	-12.4839
process	-12.4843
▁fares	-12.4845
hole	-12.4851
mulling	-12.4852
▁lamb	-12.4852
▁kenne	-12.4854
rades	-12.4856
▁fried	-12.4859
know	-12.4859
mdp	-12.4859
▁los	-12.4862
atus	-12.4867
▁$175	-12.4878
▁emails	-12.4881
▁honk	-12.4882
▁tnb	-12.4893
▁ener	-12.4894
▁writes	-12.4902
pue	-12.4904
▁setbacks	-12.4912
ancy	-12.4914
▁republicans	-12.4916
▁veteran	-12.4917
▁112	-12.4918
edap	-12.4925
pran	-12.4926
cross	-12.4929
close	-12.4935
politic	-12.4937
▁uncle	-12.4938
medivation	-12.4939
ovarian	-12.4939
relativestrength	-12.4939
tehran	-12.4939
valentines	-12.4939
▁colleagues	-12.4939
▁managment	-12.4939
▁speculator	-12.4939
mkgay	-12.4939
spoofing	-12.4939
▁raytheon	-12.4939
▁bespoke	-12.4939
qvca	-12.4939
apazon	-12.4939
sustainability	-12.4939
▁collab	-12.494
▁traction	-12.494
▁angry	-12.494
▁firewall	-12.494
▁assessment	-12.494
bhge	-12.494
▁waterfall	-12.494
▁fastow	-12.4941
icularly	-12.4941
▁wether	-12.4942
1.80	-12.4942
▁hastings	-12.4942
▁universe	-12.4942
▁forester	-12.4947
▁retake	-12.4948
wifi	-12.4949
▁refund	-12.4949
kslim	-12.4952
▁incoming	-12.4957
▁idiot	-12.4959
▁bread	-12.4959
▁atom	-12.496
▁oilfield	-12.496
▁82%	-12.496
acur	-12.4961
▁regain	-12.4961
bari	-12.4964
cove	-12.4965
▁stalling	-12.4966
▁stewa	-12.4968
champion	-12.4971
msg	-12.4971
8.2%	-12.4971
bte	-12.4973
▁pps	-12.4978
0.31	-12.4983
industries	-12.4983
atten	-12.4983
verse	-12.4983
▁rebounds	-12.4985
robots	-12.4985
tiny	-12.4987
1.99	-12.4989
▁70%,	-12.499
▁neu	-12.4992
208	-12.4992
▁enjoying	-12.4995
▁lethal	-12.4996
espo	-12.4998
apn	-12.5
about	-12.5002
▁visiting	-12.5004
aisle	-12.5006
0.47	-12.5013
dbl	-12.5016
▁biosciences	-12.5016
fsi	-12.5018
eros	-12.502
tracking	-12.502
ike	-12.5033
▁rode	-12.5037
mobi	-12.5043
odie	-12.5043
higher	-12.5044
fina	-12.5044
▁issuer	-12.5044
axim	-12.5055
beasts	-12.5059
lnc	-12.5062
alim	-12.5062
where	-12.5063
▁fuels	-12.5063
▁pave	-12.5067
tending	-12.5071
wey	-12.5081
matter	-12.5081
8%,	-12.5084
▁bankrupt	-12.5087
akb	-12.5088
veri	-12.5088
luxury	-12.5088
petrobras	-12.5088
spicejet	-12.5088
testimonials	-12.5088
▁disbanded	-12.5088
▁module	-12.5088
▁mystery	-12.5088
▁neckline	-12.5088
▁schmidt	-12.5088
▁standalone	-12.5088
▁voucher	-12.5088
▁graduate	-12.5088
fossil	-12.5088
▁horsemen	-12.5089
▁allison	-12.5089
▁naples	-12.5089
▁darling	-12.5089
tosbf	-12.5089
▁illegal	-12.5089
▁bombay	-12.5089
▁[+11	-12.5089
$189.00	-12.509
pcrx	-12.509
0.90%	-12.509
marissa	-12.509
ldwin	-12.509
▁tiger	-12.5092
▁arches	-12.5092
axas	-12.5095
1%]	-12.5095
aby	-12.5095
▁lawyer	-12.5104
▁146	-12.5104
▁$0.14	-12.5105
▁widely	-12.5106
optic	-12.5107
▁catches	-12.5109
revised	-12.5112
012	-12.5112
iter	-12.5117
▁damages	-12.5119
intern	-12.5123
nlsn	-12.5125
9.7%	-12.5126
▁unitedhealth	-12.5127
urier	-12.5136
3.7%	-12.5137
irond	-12.5144
$10	-12.5149
▁hik	-12.5151
mstx	-12.5152
taho	-12.5152
▁cabo	-12.5162
80%	-12.5163
▁belong	-12.5166
alle	-12.5177
▁invite	-12.5185
sense	-12.5189
▁propel	-12.519
212	-12.5194
obamacare	-12.5196
▁resigns	-12.5197
▁unload	-12.5197
beginning	-12.5202
effective	-12.5205
snapchat	-12.5205
hate	-12.5207
flash	-12.5207
summer	-12.5209
known	-12.5209
iii	-12.5211
paris	-12.5213
▁routes	-12.5215
▁mrkt	-12.5216
0.72	-12.5221
financi	-12.5222
engine	-12.5225
drink	-12.5233
▁chro	-12.5233
schn	-12.5235
patience	-12.5236
▁addict	-12.5238
▁withdraw	-12.5238
fti	-12.5238
▁anacetrapib	-12.524
▁campbell	-12.524
▁egypt	-12.524
▁possibility	-12.524
▁simmons	-12.524
▁symposium	-12.524
taxcuts	-12.524
▁yikes	-12.524
circuit	-12.524
▁considerations	-12.524
▁terrify	-12.524
▁kelt	-12.5241
shoebuy	-12.5241
▁kawa	-12.5241
▁+14%	-12.5241
spotify	-12.5241
▁$47.00	-12.5243
uxi	-12.5246
revolutionary	-12.5246
▁broadcasting	-12.5249
rdy	-12.525
▁reasonable	-12.525
▁113	-12.525
▁consolidated	-12.5254
ular	-12.5256
snps	-12.5257
▁deny	-12.5257
hcg	-12.5259
ibran	-12.5259
0)	-12.526
▁heck	-12.5261
▁charit	-12.5263
casts	-12.5264
3.3%	-12.5267
poli	-12.5269
▁task	-12.5269
▁gsk	-12.527
release	-12.5271
▁merca	-12.5273
3.25	-12.5274
uec	-12.5274
▁+0.5	-12.5274
0.79	-12.5278
▁frost	-12.5286
wfg	-12.5288
▁pediatr	-12.5292
organ	-12.5295
3.62	-12.5296
▁fab	-12.5296
ptn	-12.5299
0.98%	-12.5318
▁freeze	-12.5321
▁carre	-12.5322
▁$2.9	-12.5325
vgr	-12.5325
0.62	-12.5326
▁shoots	-12.5327
dad	-12.5329
▁$15.5	-12.5331
▁dozens	-12.5331
▁frack	-12.5332
debt	-12.5333
▁groe	-12.5344
pledge	-12.5353
▁156	-12.5362
▁objective	-12.5363
▁avi	-12.5366
▁conscientious	-12.537
▁99.	-12.5371
heng	-12.5373
womens	-12.5378
▁violat	-12.5383
optio	-12.5387
robs	-12.5389
1.98	-12.539
▁167.50	-12.5394
▁accurate	-12.5394
▁comprehensive	-12.5394
▁established	-12.5394
▁scutify	-12.5394
▁sierra	-12.5394
beaumont	-12.5394
▁shades	-12.5394
▁ecosystem	-12.5394
engage	-12.5394
▁01/27/2017	-12.5394
▁flexible	-12.5394
licious	-12.5394
nclh	-12.5394
onworks	-12.5394
qban	-12.5394
▁empty	-12.5394
talcum	-12.5395
manchester	-12.5395
▁standpoint	-12.5396
▁unconfirmed	-12.5397
▁payroll	-12.5397
▁engaged	-12.5398
▁painful	-12.5398
prevention	-12.5399
chipmaker	-12.5399
▁eastern	-12.5399
mzor	-12.5399
▁elections	-12.5399
cept	-12.54
▁alarm	-12.5401
8.4%	-12.5401
lent	-12.5404
trco	-12.5404
erated	-12.5404
▁threatened	-12.5406
shire	-12.5408
vivo	-12.5408
architecture	-12.5408
wltw	-12.5411
%),	-12.5412
lew	-12.5416
arb	-12.5416
▁bands	-12.5419
edict	-12.5419
▁nine	-12.5419
▁deepen	-12.542
▁3.5%	-12.5421
▁seeds	-12.5422
▁fmr	-12.5424
▁pepper	-12.5427
▁predicting	-12.5427
▁spreading	-12.5429
david	-12.5429
triple	-12.5429
▁.75	-12.5431
▁alot	-12.5432
▁rigs	-12.5435
▁1.96	-12.5438
figured	-12.5438
▁spit	-12.5442
experienced	-12.5445
▁folder	-12.545
fic	-12.5457
▁seasonal	-12.5461
▁harri	-12.5464
htp	-12.5467
nyl	-12.5469
event	-12.5471
▁3.0	-12.5472
ella	-12.5477
eman	-12.5477
alzheimer	-12.548
valuation	-12.5495
gram	-12.5495
▁weren	-12.5497
▁seal	-12.5499
▁idc	-12.5503
▁maxim	-12.5512
rod	-12.5512
phd	-12.5521
augh	-12.5531
▁nonsens	-12.5531
▁fend	-12.5532
mia	-12.5533
▁influence	-12.5538
▁immediate	-12.554
ghz	-12.5541
recruit	-12.5545
6.6%	-12.5549
cz	-12.555
neulasta	-12.555
risperdal	-12.555
skyrocket	-12.555
surveillance	-12.555
tecentriq	-12.555
▁relevancy	-12.555
equoi	-12.555
unchanged	-12.555
▁physical	-12.555
mdxg	-12.555
▁denounce	-12.555
word	-12.555
▁farewell	-12.555
2.92%	-12.5551
▁gather	-12.5551
▁troubled	-12.5551
defective	-12.5551
responsibility	-12.5551
proved	-12.5551
▁monarch	-12.5552
road	-12.5554
tsy	-12.5555
jag	-12.5555
zoes	-12.5556
ilc	-12.5558
7.08%	-12.5558
▁$60+	-12.5561
▁fixes	-12.5561
▁backward	-12.5563
tdc	-12.5564
aciu	-12.5564
▁occur	-12.5566
▁ski	-12.5566
plant	-12.5571
▁viral	-12.5572
▁breached	-12.5576
▁2.70	-12.5576
▁corning	-12.5578
▁83%	-12.5582
▁layers	-12.5583
come	-12.5585
telecoms	-12.5588
3.1%	-12.5589
▁hend	-12.5591
.35%	-12.5592
▁ramping	-12.5595
▁peril	-12.56
▁sleeping	-12.5605
2.60	-12.5607
perf	-12.5611
ised	-12.5612
upl	-12.5612
5.6	-12.5615
▁viacom	-12.5617
▁finalize	-12.563
▁exercise	-12.5635
▁mira	-12.5637
0.87	-12.5641
1.61	-12.5643
9)	-12.5649
transformation	-12.565
attack	-12.5651
bottom	-12.5655
var	-12.5661
character	-12.5667
bagger	-12.5668
▁integra	-12.5673
256	-12.5675
incr	-12.5676
warrenbuffet	-12.5682
▁pur	-12.5684
oscars	-12.5685
▁bace	-12.5686
3.47	-12.5687
oxi	-12.5688
fresh	-12.5695
3.2%	-12.5701
▁retrace	-12.5709
erkshirehathaway	-12.5709
collusion	-12.5709
eyepowerment	-12.5709
synthetic	-12.5709
▁bioepis	-12.5709
hurricaneharvey	-12.5709
psychology	-12.5709
idxg	-12.5709
pathetic	-12.5709
hmny	-12.5709
susty	-12.5709
ainties	-12.5709
christie	-12.5709
▁harmful	-12.571
.45%	-12.571
▁stupidity	-12.571
glmd	-12.5711
stroke	-12.5712
2.51%	-12.5712
▁sheer	-12.5713
▁4/5	-12.5713
▁atlas	-12.5714
phot	-12.5717
unreal	-12.5717
▁(2/2	-12.5719
▁marcus	-12.5721
▁throughout	-12.5725
▁researchers	-12.5727
current	-12.5727
▁$2.8	-12.5728
/14/17	-12.5729
▁hover	-12.573
dale	-12.573
85,	-12.5734
mycc	-12.5735
▁downtown	-12.5736
▁republican	-12.5737
-5%	-12.5739
06.23	-12.574
drugstore	-12.5742
0.55	-12.5742
erna	-12.5747
▁pumped	-12.5753
▁kc	-12.5753
.42%	-12.5754
dsx	-12.5768
stmp	-12.5769
dtv	-12.5778
pten	-12.579
1.24	-12.579
tile	-12.579
▁stumbles	-12.5794
dir	-12.5807
glg	-12.5808
▁emerges	-12.5814
osk	-12.5814
1.21	-12.5816
▁usage	-12.5817
nih	-12.5818
legal	-12.5827
aesthetic	-12.5828
▁sweeps	-12.5831
▁cleared	-12.5834
▁guessing	-12.5838
▁9/1	-12.5838
▁slight	-12.5839
builder	-12.5844
▁brows	-12.5846
.64%	-12.5847
lac	-12.5848
websites	-12.5849
+3%	-12.5852
▁stated	-12.5855
roic	-12.5856
mdy	-12.5857
▁parasites	-12.586
▁stretch	-12.5861
bbg	-12.5866
dermanhomecoming	-12.587
ugliflozin	-12.587
▁helicopter	-12.587
▁innovators	-12.587
▁interface	-12.587
verisign	-12.587
▁229.8	-12.587
▁numeric	-12.587
rigging	-12.5871
▁motherboard	-12.5871
sandoz	-12.5871
▁seasonality	-12.5871
▁everett	-12.5871
▁nivo	-12.5871
▁argue	-12.5872
▁aqr	-12.5872
▁harvest	-12.5872
▁spinning	-12.5872
govcon	-12.5872
▁firmware	-12.5872
▁peltz	-12.5872
ikgh	-12.5872
▁popularity	-12.5873
mmb	-12.5874
eqi	-12.5877
▁+0.01	-12.5877
▁tricks	-12.5878
writers	-12.588
advice	-12.588
caremark	-12.5881
▁minor	-12.5884
avoid	-12.5884
iwd	-12.5885
disease	-12.5888
mlco	-12.5889
double	-12.5889
▁keen	-12.5889
average	-12.589
jefferies	-12.589
2.06	-12.589
chatbot	-12.5891
basic	-12.5892
▁regulator	-12.5893
0.46	-12.5896
parking	-12.5897
▁lil	-12.5899
▁chill	-12.5899
plnt	-12.59
toxic	-12.5901
ails	-12.5906
▁thread	-12.5907
265	-12.5907
5.5%	-12.5911
performers	-12.5913
ough	-12.5913
impo	-12.5914
▁81%	-12.5914
1-2017	-12.592
1.40	-12.5923
alzheimers	-12.5926
avir	-12.5932
▁underperforming	-12.5933
held	-12.5936
byd	-12.5938
usg	-12.594
▁programme	-12.5948
mcoa	-12.5949
ndt	-12.5959
ahn	-12.5963
hst	-12.5963
urg	-12.5963
▁landing	-12.5966
179	-12.5967
koku	-12.5974
▁slab	-12.5979
bbed	-12.598
ewy	-12.5984
ality	-12.5989
tmt	-12.5991
tnk	-12.5996
▁suitors	-12.5996
eapo	-12.5996
vvv	-12.6004
secu	-12.6005
▁achieves	-12.6012
▁depend	-12.6021
cad	-12.6025
wick	-12.6025
5.07	-12.6031
6/17	-12.6032
▁198	-12.6033
▁undercut	-12.6033
▁object	-12.6033
qy	-12.6034
▁discrete	-12.6034
bravatek	-12.6034
mylotarg	-12.6034
viptela	-12.6034
▁criticism	-12.6034
▁enhancing	-12.6034
▁latitude	-12.6034
▁preliminary	-12.6034
▁requirements	-12.6034
▁coalition	-12.6034
▁metropoli	-12.6034
▁73%,	-12.6035
▁fellow	-12.6035
signal	-12.6035
▁tempting	-12.6035
controlled	-12.6036
▁police	-12.6036
▁monath	-12.6037
▁chosen	-12.6037
▁investec	-12.6038
▁percentage	-12.6038
,550	-12.6039
gpm	-12.604
▁route	-12.604
▁issuers	-12.6042
ompq	-12.6044
▁craig	-12.605
thrilled	-12.605
▁deasy	-12.605
ryce	-12.6051
ttmi	-12.6051
▁maps	-12.6053
▁1924	-12.6053
4.8%	-12.6053
1.26	-12.6055
hsic	-12.6056
invn	-12.6056
0.49	-12.6057
▁contain	-12.6062
inspired	-12.6067
socl	-12.6069
▁actionable	-12.607
wer	-12.6075
▁trademark	-12.6075
▁cheer	-12.6078
.08%	-12.608
jpy	-12.6084
exec	-12.609
range	-12.6096
-214	-12.61
sgy	-12.6103
▁$1.31	-12.6107
fsc	-12.6109
manu	-12.611
▁+++	-12.611
payc	-12.6111
wtf	-12.6112
except	-12.6113
rcw	-12.6115
▁shines	-12.6115
▁geo	-12.6119
0.53%	-12.6121
▁0.17	-12.6122
exclusive	-12.6122
ntile	-12.6124
ratio	-12.6124
control	-12.6124
▁lookin	-12.6125
speed	-12.6126
running	-12.6128
azi	-12.6133
btim	-12.6134
▁died	-12.6135
▁checked	-12.6136
nbt	-12.6137
ool	-12.6141
▁dreamliners	-12.6142
▁fines	-12.6151
appd	-12.6153
▁marshal	-12.6153
▁78%	-12.6158
hearing	-12.617
2.95	-12.6171
interesting	-12.6172
longterm	-12.6173
▁complain	-12.6173
▁consolidate	-12.6187
hope	-12.6187
▁08/11/	-12.6198
secures	-12.6198
45,000	-12.6199
▁ransom	-12.62
sensitive	-12.6201
▁background	-12.6201
▁inquiry	-12.6201
▁mispriced	-12.6201
▁modular	-12.6201
▁monotherapy	-12.6201
▁outweigh	-12.6201
-5.92%	-12.6201
▁(2017/03/2	-12.6201
▁hoffman	-12.6201
▁categories	-12.6201
▁television	-12.6201
▁edwards	-12.6201
giddyup	-12.6201
▁flagging	-12.6201
▁introduction	-12.6201
▁dependent	-12.6201
▁glaxo	-12.6201
arlp	-12.6201
▁lampe	-12.6201
▁armour	-12.6203
▁honest	-12.6203
▁blowout	-12.6203
▁tablets	-12.6205
▁bookstore	-12.6205
▁gamestop	-12.6206
▁reopen	-12.6207
scent	-12.6207
pxx	-12.6208
▁dalio	-12.6208
▁snapped	-12.6209
▁identifying	-12.6209
▁basics	-12.6218
wuba	-12.6223
0.88	-12.6231
tosyy	-12.6231
sito	-12.6232
▁connection	-12.6236
▁tracker	-12.6238
ological	-12.6238
▁finalist	-12.6238
0.66	-12.624
▁boo	-12.6241
▁220	-12.6249
▁shocking	-12.6252
▁49%	-12.6253
1.72	-12.6253
▁designed	-12.6253
5.9	-12.6255
▁pete	-12.6258
analyst	-12.6261
▁reinvest	-12.6263
shoo	-12.6263
4.95	-12.6264
▁manner	-12.6264
/3/17)	-12.6267
residential	-12.6271
▁yielder	-12.6279
rgr	-12.6284
infi	-12.6287
,260	-12.6288
eaward	-12.6305
▁agents	-12.6308
▁divi	-12.6308
cock	-12.6313
skyw	-12.6318
.......	-12.6321
6.94	-12.6321
rub	-12.6322
▁formal	-12.6325
pier	-12.6334
▁gal	-12.6334
ntr	-12.6338
▁hahahah	-12.6338
tbio	-12.6343
admp	-12.6351
▁plummet	-12.6355
▁sali	-12.6359
coco	-12.636
▁87,	-12.6362
analytics	-12.6364
benefit	-12.6366
borrow	-12.6367
ubg	-12.6368
▁shack	-12.6369
people	-12.637
atgff	-12.637
▁11:15:2	-12.637
▁druckenmiller	-12.637
▁rodriguez	-12.637
▁susquehanna	-12.637
gigabit	-12.637
▁miracle	-12.637
▁pursuing	-12.637
nascar	-12.637
▁nominee	-12.637
▁britain	-12.637
0.59	-12.6371
denburg	-12.6371
▁finjan	-12.6371
▁+0.03	-12.6371
▁$84.00	-12.6372
▁shelter	-12.6372
▁keel	-12.6372
▁mckinn	-12.6372
▁clsa	-12.6372
▁countdown	-12.6372
customer	-12.6373
vmware	-12.6373
volume	-12.6373
cindicator	-12.6373
▁intercept	-12.6373
▁scorecard	-12.6373
▁redesign	-12.6373
▁humanity	-12.6373
03.2	-12.6375
ppc	-12.6375
▁allegedly	-12.6376
ibex	-12.6376
▁machinery	-12.6379
▁roa	-12.6381
gbp	-12.6381
julian	-12.6385
▁smallest	-12.6388
6.8%	-12.6389
1.0%	-12.639
2.34	-12.639
▁streamlin	-12.6395
0.89	-12.6396
pbi	-12.6399
kar	-12.6402
▁roller	-12.6414
tsl	-12.6416
%;	-12.6421
chaos	-12.6421
▁260	-12.6422
mik	-12.6424
▁ripe	-12.6425
1.11	-12.6427
▁showtime	-12.6428
exist	-12.6431
▁knee	-12.6435
▁refuse	-12.6436
5.75	-12.644
-1.7%	-12.644
9.50	-12.644
capable	-12.6441
▁lawmakers	-12.6442
sdn	-12.6445
▁hung	-12.6447
moab	-12.6448
teacher	-12.6451
▁canary	-12.6451
oln	-12.6452
hbm	-12.6452
collar	-12.6454
3.89	-12.6462
1.94	-12.6466
fnb	-12.6467
▁toppy	-12.647
10.5	-12.6482
dfn	-12.6484
▁111	-12.6486
▁neg	-12.6492
▁harder	-12.6492
pph	-12.6493
newr	-12.6494
▁signaling	-12.6496
▁blockbusters	-12.6499
▁hora	-12.6504
▁67.5	-12.6505
grand	-12.6505
330	-12.6516
join	-12.6517
▁(+3	-12.6522
▁148	-12.6523
▁rational	-12.6524
resident	-12.6526
6.25	-12.653
nz	-12.6532
▁intend	-12.6533
▁cameras	-12.6535
▁proper	-12.6542
airforceone	-12.6543
compliance	-12.6543
permianbasin	-12.6543
▁academy	-12.6543
▁confluence	-12.6543
▁crosshairs	-12.6543
▁jensen	-12.6543
▁muilenburg	-12.6543
▁angeles	-12.6543
▁reclaim	-12.6543
▁sensors	-12.6543
▁bloodbath	-12.6543
▁greek	-12.6543
heinz	-12.6543
faamg	-12.6543
dtegy	-12.6543
▁maximum	-12.6543
itek	-12.6543
chromebook	-12.6543
▁ensure	-12.6544
agr	-12.6544
allegan	-12.6544
▁sbla	-12.6545
ially	-12.6545
▁beginners	-12.6545
kcg	-12.6547
▁spill	-12.6547
semiconductors	-12.6548
merging	-12.6549
▁agric	-12.655
iboc	-12.6551
▁underwater	-12.6551
▁alice	-12.6551
▁kool	-12.6551
▁mills	-12.6553
claw	-12.6553
1.51	-12.6554
▁meal	-12.6555
▁tanker	-12.6555
▁surged	-12.6556
3.45	-12.6556
▁gradi	-12.6557
forsak	-12.656
▁addresse	-12.6563
ehold	-12.6563
▁takedown	-12.6563
▁removed	-12.6563
behe	-12.6566
5.3%	-12.6568
citinib	-12.6568
lpla	-12.6574
opioids	-12.6575
▁nuc	-12.6588
▁parade	-12.6589
1.48	-12.659
▁stance	-12.6594
▁subsidize	-12.6595
▁(2)	-12.6602
▁protests	-12.6609
opex	-12.6609
tig	-12.6611
ida	-12.6612
0.4	-12.6617
tco	-12.6617
launch	-12.6621
behind	-12.6621
¡°	-12.6624
pullback	-12.6627
▁buyside	-12.6627
▁$12.1	-12.663
ntrp	-12.6633
vsi	-12.6634
.32%	-12.6639
▁glo	-12.6644
bioc	-12.6644
large	-12.6654
magic	-12.6656
▁enhanced	-12.6656
1.06	-12.6656
▁simulat	-12.6664
transform	-12.6665
aught	-12.6667
▁bron	-12.6671
▁cube	-12.6671
pki	-12.6674
▁$5.5	-12.6674
ethi	-12.6676
▁79%	-12.6677
▁1,500	-12.6681
▁invit	-12.6681
iag	-12.6683
▁2001	-12.6685
tep	-12.6688
▁'16	-12.6693
bhe	-12.6693
▁ram	-12.6701
▁dress	-12.6701
▁legendar	-12.6701
bxe	-12.6704
uhs	-12.6706
lift	-12.6708
mdl	-12.671
▁apparent	-12.6714
conferenc	-12.6716
coolsculpting	-12.6718
eautyandthebeast	-12.6718
herceptin	-12.6718
▁comparative	-12.6718
▁receipt	-12.6718
▁restructure	-12.6718
▁sequel	-12.6718
▁vulnerabilities	-12.6718
modcloth	-12.6718
▁+75%	-12.6718
▁obennation	-12.6718
avelumab	-12.6718
swift	-12.6718
▁attached	-12.6718
▁restasis	-12.6718
▁grill	-12.6718
▁robinson	-12.6718
fnjn	-12.6718
wppgy	-12.6719
nytimes	-12.6719
[11:3	-12.6719
▁fireeye	-12.6719
▁accountability	-12.6719
▁(2017/05/1	-12.672
▁confusion	-12.672
stood	-12.672
gyog	-12.672
▁defeat	-12.672
sentin	-12.6721
ueller	-12.6722
▁mascot	-12.6723
▁recruiting	-12.6723
ntstop	-12.6725
▁roku	-12.6727
▁narrowly	-12.6728
▁crew	-12.673
omed	-12.6732
4/17)	-12.6732
▁marie	-12.6733
▁ticking	-12.6734
▁cetp	-12.6735
▁$4.3	-12.6736
▁94%	-12.6736
soxl	-12.6738
0.56	-12.6738
click	-12.6739
▁74%	-12.6745
.56%	-12.6749
▁cracks	-12.6752
▁seein	-12.6754
▁highlighting	-12.6754
ourg	-12.6754
.71%	-12.6756
▁adams	-12.6759
frenchelections	-12.6761
▁reid	-12.6761
acted	-12.6764
ulli	-12.6765
▁ihs	-12.6767
▁kol	-12.6768
.18%	-12.6776
taco	-12.6778
2.72	-12.6779
▁suitor	-12.678
serving	-12.6783
leaning	-12.6784
▁68%,	-12.6784
rgc	-12.6787
pdc	-12.6787
sanders	-12.6791
▁trac	-12.6801
brick	-12.6802
technews	-12.6803
0.1%	-12.6807
▁cata	-12.6808
▁airplanes	-12.681
brea	-12.6813
rsv	-12.6815
▁inches	-12.6816
▁rocking	-12.6816
▁discontinu	-12.6818
1.66	-12.6823
▁architects	-12.6827
2.96	-12.6832
▁walking	-12.6835
6.9%	-12.6841
▁modeling	-12.6849
1.76	-12.6853
▁361	-12.6858
▁grown	-12.6869
(12	-12.6871
1.45	-12.6871
studio	-12.6872
pdufa	-12.6873
,510	-12.6874
qatar	-12.6874
massive	-12.6875
europe	-12.6875
1.13	-12.6875
gbb	-12.6876
heavy	-12.6878
▁.43	-12.6878
production	-12.6879
2.79	-12.6883
▁37%	-12.6884
nin	-12.6886
rld	-12.689
34.00	-12.6891
▁giddy	-12.6896
blizzard	-12.6897
bracket	-12.6897
dunkirk	-12.6897
sufficient	-12.6897
twilio	-12.6897
▁10.12.4	-12.6897
▁amputation	-12.6897
▁mckesson	-12.6897
▁streetinsider	-12.6897
▁missouri	-12.6897
▁assembly	-12.6897
▁commence	-12.6897
genentech	-12.6897
▁confessions	-12.6897
▁multiply	-12.6897
drugpricing	-12.6897
surfacepro	-12.6897
▁denial	-12.6897
▁blaze	-12.6897
▁preclinical	-12.6897
swhi	-12.6897
plki	-12.6898
▁shrug	-12.6898
adventure	-12.6898
pff	-12.6899
▁kohl	-12.69
predictable	-12.69
ership	-12.69
carroll	-12.6901
xact	-12.6901
▁;-)	-12.6901
icahn	-12.6903
▁database	-12.6903
▁aboard	-12.6903
▁timeframe	-12.6905
▁woodstock	-12.6906
tgp	-12.6909
oxygen	-12.6909
▁authorize	-12.6912
picture	-12.6912
5.38	-12.6913
pby	-12.6913
▁comic	-12.6916
gogo	-12.6916
▁whisperer	-12.6917
▁desk	-12.6918
minion	-12.6918
gol	-12.6919
▁basing	-12.6921
3.80	-12.6921
▁1/25	-12.6922
▁executed	-12.6922
nuva	-12.6925
smith	-12.6925
shell	-12.6932
▁mounting	-12.6941
3.67	-12.6942
▁pegas	-12.6943
bcc	-12.6944
trumpcare	-12.6946
▁185	-12.6954
2.75%	-12.6954
okusai	-12.6963
-2015	-12.6968
dxi	-12.6978
▁evolve	-12.6985
▁calam	-12.6987
econ	-12.6988
▁router	-12.6988
morrow	-12.7001
kbio	-12.7013
sync	-12.7024
tkp	-12.7031
▁interns	-12.7033
▁intention	-12.7037
bke	-12.7039
▁relie	-12.7048
▁lawyers	-12.706
ece	-12.7061
▁coho	-12.7063
0.74	-12.7065
▁adjust	-12.7066
stocktwe	-12.7068
.54%	-12.707
5.15	-12.7071
croi	-12.7073
▁riva	-12.7073
▁fault	-12.7073
ooooo	-12.7074
ridian	-12.7076
pove	-12.7077
168	-12.7078
implosion	-12.7078
refractory	-12.7078
siemens	-12.7078
▁02/24/2017	-12.7078
▁berkowitz	-12.7078
▁equilibrium	-12.7078
▁excellence	-12.7078
▁inevitable	-12.7078
▁passarelli	-12.7078
assuming	-12.7078
deflation	-12.7078
▁volunteer	-12.7078
nxgh	-12.7078
▁peluso	-12.7078
▁spanish	-12.7078
sippi	-12.7079
luxemb	-12.7079
▁$0.13	-12.7079
▁blackhawk	-12.7079
nty	-12.7081
▁unified	-12.7082
▁10:15:2	-12.7083
▁breakeven	-12.7083
▁poache	-12.7084
▁reply	-12.7088
▁stretched	-12.7089
megyn	-12.709
jaff	-12.709
▁$7.1	-12.7092
▁sirius	-12.7093
▁hurdles	-12.71
grw	-12.71
sedg	-12.7101
▁dash	-12.7106
299	-12.7106
pagp	-12.7107
▁pont	-12.7109
ucb	-12.7114
ldn	-12.7114
fume	-12.712
▁250%	-12.7124
qgen	-12.7127
▁recovering	-12.7127
▁outflow	-12.713
broker	-12.713
innovative	-12.7132
▁mfg	-12.7132
mxl	-12.7133
privacy	-12.7133
zero	-12.7134
believe	-12.714
▁leder	-12.7142
vgw	-12.7145
▁plow	-12.7146
prx	-12.7151
lanta	-12.7151
▁bother	-12.7152
present	-12.7152
▁empl	-12.7155
vgt	-12.7157
▁recovers	-12.716
1,27	-12.716
▁$195	-12.7161
eix	-12.7166
▁bog	-12.7188
7.7	-12.719
ndm	-12.7195
▁expression	-12.72
qnx	-12.7221
appliance	-12.7222
▁rings	-12.7223
idv	-12.723
▁meat	-12.7231
1.22	-12.7235
▁-45	-12.724
0.38	-12.7244
▁complet	-12.7244
▁baring	-12.7245
xph	-12.7246
5.80	-12.7247
witch	-12.7249
olley	-12.7257
▁warn	-12.726
5.36	-12.7262
forval	-12.7263
colorectal	-12.7264
locomotive	-12.7264
romosozumab	-12.7264
▁contaminat	-12.7264
▁mcmillon	-12.7264
▁parametric	-12.7264
gliobl	-12.7264
▁affairs	-12.7264
▁concentrate	-12.7264
▁dennis	-12.7264
▁digging	-12.7264
▁slaps	-12.7264
▁ditto	-12.7264
▁craze	-12.7264
▁panera	-12.7264
liberal	-12.7264
▁sexy	-12.7264
mhz	-12.7264
▁impax	-12.7264
▁latin	-12.7264
emerson	-12.7265
226	-12.7265
▁identified	-12.7265
▁formulation	-12.7265
▁diego	-12.7265
▁omission	-12.7266
▁evil	-12.7267
▁depleti	-12.7268
advising	-12.7268
▁monro	-12.7268
▁tricky	-12.7272
▁cagr	-12.7272
▁cubic	-12.7275
leco	-12.7275
2.94	-12.7275
▁diff	-12.7275
▁burst	-12.7276
▁pfs	-12.7278
▁gses	-12.728
▁supermarkets	-12.728
▁ruined	-12.7281
▁finalis	-12.7282
nhs	-12.7283
2.35	-12.7284
▁required	-12.7287
▁searches	-12.7287
5.1%	-12.7288
▁92%	-12.7288
▁maple	-12.7288
piling	-12.7289
▁arrived	-12.729
morl	-12.7292
igt	-12.7293
.5/5	-12.7294
▁93%	-12.7294
▁assoc	-12.7295
▁-0.01	-12.73
coq	-12.7306
▁ideal	-12.7311
▁excel	-12.7311
▁$13.7	-12.7314
▁carrie	-12.7321
livestream	-12.7322
▁marsh	-12.7324
▁intro	-12.7325
▁(10:3	-12.7333
▁sail	-12.734
▁publ	-12.7344
▁notche	-12.7348
mni	-12.7351
0.95	-12.7357
warriors	-12.736
bmxc	-12.736
▁(10	-12.7361
rarely	-12.7362
4.88	-12.7362
1.10.	-12.7366
▁bash	-12.7367
biome	-12.7373
▁5.5	-12.7378
ppy	-12.738
▁grad	-12.7384
mdi	-12.7385
1.7%	-12.7393
eeee	-12.7394
▁rosen	-12.7397
losers	-12.74
▁$1+	-12.74
quickly	-12.7401
ahca	-12.7404
catalyst	-12.7405
vive	-12.7408
▁crock	-12.7411
appointed	-12.7414
▁lind	-12.7424
0.42	-12.7425
▁[+	-12.7426
through	-12.7429
251	-12.7441
bnpq	-12.7452
khouw	-12.7452
09/01/2017	-12.7452
producing	-12.7452
soothsayer	-12.7452
▁appetite	-12.7452
▁battleground	-12.7452
▁beliefs	-12.7452
▁conclude	-12.7452
▁depressed	-12.7452
▁diluted	-12.7452
▁furniture	-12.7452
▁pelvic	-12.7452
▁purchasing	-12.7452
▁widget	-12.7452
▁xgeva	-12.7452
lrlcy	-12.7452
▁garage	-12.7452
ryaay	-12.7452
stoxx	-12.7452
▁requires	-12.7452
▁domino	-12.7452
grnh	-12.7452
▁sunrise	-12.7453
▁03/17/17	-12.7453
▁71%,	-12.7453
aberd	-12.7453
prb	-12.7453
▁visionary	-12.7454
▁scary	-12.7454
▁28%	-12.7455
▁reinstate	-12.7455
▁english	-12.7455
lgnd	-12.7456
▁steep	-12.7456
madmoney	-12.7456
filter	-12.7457
reverses	-12.7458
mrcy	-12.7459
▁automobile	-12.746
▁questionable	-12.7461
▁marine	-12.7462
quire	-12.7462
▁(1/2)	-12.7463
▁collecting	-12.7465
▁placement	-12.7465
▁lolz	-12.7471
rangeley	-12.7472
▁benefiting	-12.7473
▁rath	-12.7476
▁fen	-12.7477
▁nuv	-12.7478
6.30	-12.748
▁2023	-12.7482
south	-12.7482
4.7%	-12.7483
adell	-12.7484
opht	-12.7484
▁endo	-12.7484
▁$185	-12.7488
▁clues	-12.7491
▁scene	-12.7491
duo	-12.7491
fmx	-12.7495
ovi	-12.7502
rule	-12.7505
▁bare	-12.7505
▁transforming	-12.7505
rico	-12.7505
60.00	-12.7508
▁cim	-12.7509
eqr	-12.752
2.90	-12.7536
1.78	-12.7538
liga	-12.7539
▁pearl	-12.7543
companies	-12.7545
0.98	-12.7548
logo	-12.755
427	-12.7551
1.88	-12.7556
iled	-12.756
aiz	-12.7567
2.85	-12.7567
tning	-12.7568
frp	-12.7569
▁conn	-12.757
analys	-12.7572
vrk	-12.7572
stoma	-12.7576
ocat	-12.7583
1.53	-12.7583
1.58	-12.7593
▁reload	-12.7593
▁badly	-12.7602
ahh	-12.7606
-300	-12.7609
1.73	-12.7614
strongly	-12.7615
irl	-12.7622
4/16	-12.7622
37.00	-12.7631
agnostic	-12.7641
,169	-12.7642
kids	-12.7644
1.59	-12.7644
▁kapital	-12.7645
appaloosa	-12.7645
raredisease	-12.7645
▁enforcement	-12.7645
▁gallons	-12.7645
▁geovax	-12.7645
▁identical	-12.7645
▁synchrony	-12.7645
▁underwhelm	-12.7645
▁covenant	-12.7645
danoy	-12.7645
parisagreement	-12.7645
▁newspaper	-12.7645
▁steadily	-12.7645
physicians	-12.7645
▁falter	-12.7645
proxies	-12.7645
▁henderson	-12.7645
▁08/10/2017	-12.7645
kmda	-12.7645
▁exempt	-12.7645
▁pennies	-12.7645
ascendtrad	-12.7645
▁supercomputer	-12.7646
▁uncover	-12.7646
bfgc	-12.7646
▁handful	-12.7647
ubqu	-12.7647
▁$86.00	-12.7647
▁renal	-12.7648
▁ecrypt	-12.7648
▁remake	-12.7648
▁prepaid	-12.7648
edmont	-12.7649
▁wayfair	-12.765
▁moza	-12.765
▁overcome	-12.7651
▁sustained	-12.7652
▁provision	-12.7653
$8.25	-12.7655
dlt	-12.7655
pub	-12.7656
▁torch	-12.7656
licensed	-12.7656
4.2%	-12.7657
▁deadline	-12.7658
▁churning	-12.7658
ihu	-12.7658
▁screwed	-12.7659
pinto	-12.7659
5.4%	-12.766
kass	-12.7661
finan	-12.7663
▁raided	-12.7669
▁survivors	-12.7669
6.20	-12.7669
▁melt	-12.7669
▁makeover	-12.767
verity	-12.7671
brain	-12.7673
story	-12.7676
factor	-12.7677
▁gamers	-12.7677
australia	-12.768
chipotle	-12.768
▁cie	-12.7681
lunch	-12.7681
.63%	-12.7682
naked	-12.7683
cheap	-12.7684
wac	-12.7686
upld	-12.7687
oversold	-12.7688
margin	-12.769
acquire	-12.7695
inflation	-12.7702
pha	-12.7702
▁54%	-12.7702
5.7%	-12.7704
▁imbalance	-12.7706
uti	-12.7706
2.74	-12.7706
▁drugmaker	-12.7716
orc	-12.7724
▁1.2	-12.7726
manager	-12.7727
▁teens	-12.7728
▁(1)	-12.7728
witt	-12.773
90%	-12.773
waited	-12.7735
-0.44%	-12.7738
leveraged	-12.7738
ube	-12.7738
▁29%	-12.7742
leon	-12.7743
▁successor	-12.7743
ignan	-12.7744
blown	-12.7745
?!?	-12.7746
tairline	-12.7749
afn	-12.7754
▁mere	-12.7755
▁doctor	-12.776
pointing	-12.7762
galaxy	-12.7766
flight	-12.7767
▁$6.4	-12.7767
women	-12.777
buzzing	-12.7789
vbio	-12.7791
▁reset	-12.7793
▁foll	-12.7793
nfg	-12.7794
▁greyl	-12.7797
bust	-12.7798
altic	-12.7801
▁root	-12.7802
▁$245	-12.7805
dimension	-12.782
mhc	-12.7827
site	-12.7828
▁7/20	-12.7829
▁detect	-12.783
vtg	-12.783
hey	-12.7832
frequen	-12.7832
agging	-12.7837
▁$3.6	-12.784
▁$2.7	-12.784
heights	-12.7841
inspiration	-12.7841
momhips	-12.7841
▁connectivity	-12.7841
▁efficiencies	-12.7841
▁github	-12.7841
▁lutherans	-12.7841
▁refinancing	-12.7841
▁taylor	-12.7841
▁translation	-12.7841
azsey	-12.7841
▁fraser	-12.7841
▁fwiw	-12.7841
▁tudor	-12.7841
▁exodus	-12.7841
acceleration	-12.7841
▁phrma	-12.7841
▁tweaktown	-12.7841
▁angola	-12.7841
▁vacation	-12.7841
▁(2017/03/1	-12.7841
9.25	-12.7842
▁upswing	-12.7843
norges	-12.7843
▁swim	-12.7844
▁agile	-12.7845
mtsi	-12.7847
▁$125.00	-12.7848
▁backbone	-12.785
wiser	-12.7853
▁reinvestment	-12.7854
25.00	-12.7855
▁0.13	-12.7855
wec	-12.7856
▁1981	-12.7858
218	-12.7859
gddy	-12.7859
▁$50/	-12.7862
sparks	-12.7864
▁abandoned	-12.7866
▁takeda	-12.7868
▁solved	-12.787
▁teeth	-12.7871
remer	-12.7872
▁+0.02	-12.7874
isil	-12.7875
▁perkin	-12.7876
zzle	-12.7883
2.28	-12.7884
qid	-12.7884
lous	-12.7891
▁bon	-12.7893
ncial	-12.7898
6.2%	-12.7905
-0.11%	-12.7906
afd	-12.7908
gnk	-12.7909
djt	-12.791
colors	-12.7912
▁exited	-12.7918
▁stopping	-12.7921
▁245	-12.7922
elos	-12.7923
secure	-12.7934
anv	-12.7935
▁hahaha	-12.7938
easl	-12.7939
imac	-12.7942
endell	-12.7942
0.97	-12.7947
▁82.5	-12.795
gged	-12.7951
3.60	-12.7958
cellular	-12.796
▁corona	-12.796
bfn	-12.796
regulation	-12.7961
▁seemed	-12.7963
salesforce	-12.7963
2.29	-12.7968
▁tee	-12.7968
-1.02%	-12.797
season	-12.797
built	-12.7973
pipeline	-12.7974
▁elk	-12.7975
above	-12.798
single	-12.7982
product	-12.7982
archfor	-12.7997
880	-12.8001
▁149	-12.8003
kur	-12.8006
fixing	-12.8007
▁114	-12.801
lnt	-12.8014
boy	-12.8021
3.49	-12.8023
$75	-12.8024
8/17	-12.8033
$200	-12.8034
▁clif	-12.8034
▁pressur	-12.8036
despicable	-12.8041
fidelity	-12.8041
lnvgy	-12.8041
▁amendment	-12.8041
▁clayton	-12.8041
▁contributor	-12.8041
▁explanation	-12.8041
▁machinist	-12.8041
▁meraki	-12.8041
▁turmoil	-12.8041
▁undisclosed	-12.8041
▁uranium	-12.8041
balancing	-12.8041
gluu	-12.8041
polaris	-12.8041
▁goldtroll	-12.8041
▁identity	-12.8041
▁matrix	-12.8041
▁spicer	-12.8041
▁recipe	-12.8041
sterling	-12.8041
/13/17	-12.8041
gerald	-12.8041
dubai	-12.8041
▁astellas	-12.8041
▁outrage	-12.8041
▁destination	-12.8041
▁reconsider	-12.8041
▁excuse	-12.8041
▁$165.00	-12.8043
965	-12.8044
▁$95.00	-12.8044
1.59%	-12.8044
▁0.10	-12.8044
▁greenlight	-12.8044
▁$38.00	-12.8045
uted	-12.8047
fcg	-12.8047
smci	-12.8047
▁+16%	-12.8049
,680	-12.805
pedia	-12.8058
incident	-12.8059
▁filth	-12.8061
026	-12.8062
1.68	-12.8063
▁$14.6	-12.8064
porn	-12.8064
▁$112	-12.8067
▁cake	-12.8068
▁breaches	-12.8076
▁0.0	-12.808
0.33	-12.8083
▁0.03	-12.8087
5.60	-12.8094
healthtech	-12.8095
▁2,500	-12.8096
rusl	-12.8118
5.29	-12.8118
▁fave	-12.812
▁grabbe	-12.8121
quot	-12.8121
brist	-12.8128
logical	-12.8137
scans	-12.8139
▁0.5	-12.8139
▁converg	-12.814
hcm	-12.8141
bricks	-12.8146
roth	-12.8154
eaves	-12.8158
lci	-12.816
4.75	-12.8166
▁stamps	-12.8168
▁gare	-12.8172
▁fry	-12.8172
▁referr	-12.8173
1.27	-12.8176
▁snag	-12.818
bok	-12.8183
.74%	-12.8186
▁manipulati	-12.8194
mli	-12.8196
mtbc	-12.8196
uv	-12.8199
tyx	-12.8201
3.22	-12.8201
▁6.4	-12.8205
thera	-12.8211
▁keit	-12.8213
1.54	-12.8217
618	-12.8219
▁widen	-12.8232
afam	-12.8235
cheddarliv	-12.8236
181	-12.8237
construct	-12.8243
4.3%	-12.8245
interestrates	-12.8245
relentless	-12.8245
tompkins	-12.8245
▁04/21/2017	-12.8245
▁affiliate	-12.8245
▁caforio	-12.8245
▁cigarette	-12.8245
▁fibonacci	-12.8245
▁railway	-12.8245
▁santander	-12.8245
▁scramble	-12.8245
▁harami	-12.8245
▁hilton	-12.8245
ancuf	-12.8245
imaging	-12.8245
▁skyworks	-12.8245
▁crystal	-12.8245
▁edgar	-12.8245
cryptocurrencies	-12.8245
▁nicole	-12.8245
▁jetliner	-12.8245
▁cvot	-12.8245
▁attendance	-12.8245
▁piggy	-12.8245
▁clueless	-12.8245
66.67%	-12.8246
▁(2017/05/2	-12.8246
▁nickel	-12.8246
▁$0.02	-12.8246
▁nathanson	-12.8246
▁ladder	-12.8246
▁seize	-12.8246
soundcloud	-12.8246
btfd	-12.8246
▁maryland	-12.8246
liox	-12.8246
▁medium	-12.8246
obi	-12.8247
▁flatten	-12.8247
▁prepp	-12.8248
▁utc	-12.8248
aaww	-12.8248
tourist	-12.8249
▁rivalry	-12.8249
▁crab	-12.825
,890	-12.825
▁2.20	-12.825
ondk	-12.8251
-021	-12.8251
▁mapping	-12.8252
▁idle	-12.8252
▁7/18	-12.8253
▁>50%	-12.8255
$43.00	-12.8258
swc	-12.8258
6.40	-12.8258
underperformance	-12.8259
citic	-12.826
alien	-12.8263
▁verge	-12.8263
breast	-12.8264
▁larry	-12.8264
▁proshare	-12.8265
fiat	-12.8266
▁burning	-12.8267
059	-12.8268
▁modernize	-12.8268
▁twee	-12.8268
pump	-12.827
would	-12.827
▁boon	-12.8271
▁personally	-12.8272
▁oscar	-12.8278
▁destroyed	-12.8279
starship	-12.8279
▁lily	-12.8283
freewe	-12.8284
adk	-12.8288
wealthy	-12.8288
▁resta	-12.829
670	-12.8296
rxn	-12.8298
acat	-12.83
▁slumped	-12.8301
7.18	-12.8301
214	-12.8302
▁motor	-12.8312
salt	-12.8312
▁610	-12.8312
▁rocked	-12.8315
▁sharks	-12.8318
▁192	-12.8318
▁locker	-12.8322
▁moderat	-12.8327
ologists	-12.8336
▁tactic	-12.8343
600%	-12.8346
▁jup	-12.8351
1.32	-12.8354
▁organizations	-12.8362
▁gpus	-12.837
.65%	-12.837
amaz	-12.8377
6.10	-12.8385
technolog	-12.8401
gte	-12.8401
3.98	-12.8407
40+	-12.8407
2.86	-12.8422
▁optim	-12.8423
$260	-12.8428
rilla	-12.8432
raz	-12.844
▁container	-12.8444
▁churn	-12.8448
1.56	-12.8449
loc	-12.8449
civil	-12.8453
▁subpoena	-12.8453
biomedical	-12.8453
birmingham	-12.8453
governance	-12.8453
internetofthings	-12.8453
vaginal	-12.8453
▁03/24/2017	-12.8453
▁dethrone	-12.8453
▁essays	-12.8453
▁massachusetts	-12.8453
▁obesity	-12.8453
▁sluggish	-12.8453
▁somerset	-12.8453
carlyle	-12.8453
▁mellon	-12.8453
▁rookie	-12.8453
▁urban	-12.8453
paratek	-12.8453
lidl	-12.8453
▁drift	-12.8453
5.26%	-12.8454
▁witness	-12.8454
bzh	-12.8454
▁custod	-12.8454
▁ballmer	-12.8454
8.5%	-12.8454
▁shutdown	-12.8455
▁cnnmoney	-12.8455
happily	-12.8456
▁societ	-12.8456
▁reign	-12.8456
▁adcomm	-12.8457
wanda	-12.8457
baked	-12.8457
/24/17	-12.8457
▁confidential	-12.8458
stepped	-12.8458
▁tumbling	-12.8459
▁permission	-12.8459
trep	-12.8462
▁$100.00	-12.8463
ffle	-12.8464
▁perks	-12.8465
chmea	-12.8467
technologies	-12.8468
▁126	-12.8469
▁$135	-12.8469
cardio	-12.8472
gdot	-12.8474
▁plain	-12.8474
trnc	-12.8476
2.99	-12.8477
bcei	-12.8478
.88%	-12.8478
▁laser	-12.8483
▁$24.3	-12.8488
▁$505	-12.8492
▁deed	-12.8493
0.68	-12.8493
▁updat	-12.8494
0.83	-12.8495
▁$417	-12.8497
▁discovered	-12.8499
2.05	-12.8499
9.75	-12.85
tony	-12.85
▁emotional	-12.8503
whin	-12.8504
ilus	-12.8506
30.00	-12.8514
psi	-12.8524
presented	-12.8527
gopro	-12.8529
dfw	-12.8532
▁yale	-12.8533
▁ellis	-12.8537
▁reversed	-12.8539
awr	-12.8541
▁considered	-12.8545
3.11	-12.8546
5.78	-12.8549
omania	-12.8549
+6	-12.8553
▁acne	-12.8553
-0.67%	-12.8553
dci	-12.8554
udr	-12.8555
▁137	-12.8557
saturday	-12.8563
linkedin	-12.8563
competitors	-12.8564
▁ignored	-12.8571
fork	-12.8571
saas	-12.8572
pricing	-12.8572
fraud	-12.8572
william	-12.8574
harp	-12.8579
▁svc	-12.8579
1.04	-12.8585
▁58%	-12.8589
▁retired	-12.8596
tanyl	-12.8608
raise	-12.8614
▁legit	-12.8618
venture	-12.862
euf	-12.8621
▁milk	-12.8623
practice	-12.8624
bbie	-12.8627
fcm	-12.8639
▁(2.5	-12.8641
▁bless	-12.8652
dcc	-12.8654
.83%	-12.8655
followthemoney	-12.8666
philanthropy	-12.8666
unately	-12.8666
▁07/07/2017	-12.8666
▁awhile	-12.8666
▁bureaucra	-12.8666
▁cascade	-12.8666
▁closure	-12.8666
▁deficit	-12.8666
▁equinix	-12.8666
▁futuristic	-12.8666
▁inconsistent	-12.8666
▁munster	-12.8666
▁omitting	-12.8666
▁revitalize	-12.8666
▁vulkan	-12.8666
▁absorb	-12.8666
▁gordon	-12.8666
▁latter	-12.8666
▁schnell	-12.8666
yellow	-12.8666
▁incremental	-12.8666
▁abroad	-12.8666
mysz	-12.8666
hclp	-12.8666
solely	-12.8666
bldp	-12.8666
▁+126%	-12.8667
solicitation	-12.8667
wisdom	-12.8667
▁fraction	-12.8667
▁bullshit	-12.8667
accidentally	-12.8667
▁copycat	-12.8667
hoft	-12.8668
▁rotate	-12.8668
▁fined	-12.8668
▁ropes	-12.8668
▁towel	-12.8668
▁interim	-12.8669
▁foolish	-12.8669
▁08/11/2017	-12.8669
▁gradual	-12.8669
▁$52.00	-12.867
▁pvp	-12.867
▁crook	-12.867
▁disappearing	-12.867
8/4/17	-12.867
▁blackstone	-12.8671
rim	-12.8672
▁$75.00	-12.8673
giii	-12.8673
accel	-12.8674
▁1970	-12.8675
5.03	-12.8675
▁crushes	-12.8676
5.66	-12.8679
▁secondary	-12.868
70,000	-12.8681
1.82	-12.8682
▁somebody	-12.8682
▁matches	-12.8683
aking	-12.8684
tlrd	-12.8685
▁downfall	-12.8685
▁romo	-12.8686
▁rundown	-12.8686
6.4%	-12.8687
▁tvos	-12.8689
▁snapple	-12.869
▁4/24	-12.8691
▁64%	-12.8691
iwf	-12.8691
prkr	-12.8694
▁attn	-12.8696
5.43	-12.8697
▁mason	-12.8714
,053	-12.8715
▁uptick	-12.8716
▁toast	-12.8718
▁magical	-12.8721
▁zur	-12.8725
ghl	-12.8727
▁$27.7	-12.8727
fomo	-12.8729
.73%	-12.873
btk	-12.8731
▁+1%	-12.8733
775	-12.8734
5.25	-12.8737
3,500	-12.8737
2.22	-12.8737
thermal	-12.8738
▁von	-12.8743
anger	-12.8744
4.91	-12.8746
▁thousand	-12.8748
▁airliner	-12.8752
egas	-12.8753
trial	-12.8756
▁kanto	-12.8757
enville	-12.876
▁shutter	-12.8762
alog	-12.8763
▁donation	-12.8765
▁tires	-12.8768
vrr	-12.8771
0.44	-12.8775
▁slee	-12.8783
▁57.5	-12.8788
jari	-12.8807
▁stamp	-12.8808
bdc	-12.8809
heats	-12.8811
8.75	-12.8813
▁$1.79	-12.8813
▁combin	-12.8814
aos	-12.8819
4.25	-12.8822
ensa	-12.8822
▁$25.2	-12.8827
alpm	-12.8828
▁skid	-12.8828
.........	-12.883
sits	-12.8833
4.06	-12.8836
825	-12.8837
.52%	-12.8841
▁ucs	-12.8841
▁capitalize	-12.885
israel	-12.8872
2.57	-12.8879
▁chick	-12.8882
▁toys	-12.8882
uuuu	-12.8883
galapagos	-12.8883
investindetroit	-12.8883
steagall	-12.8883
superbowl	-12.8883
▁agencies	-12.8883
▁bonanza	-12.8883
▁complement	-12.8883
▁dakota	-12.8883
▁diminish	-12.8883
▁epclusa	-12.8883
▁lucrative	-12.8883
▁mechanics	-12.8883
▁revival	-12.8883
▁symantec	-12.8883
▁vietnam	-12.8883
barrett	-12.8883
[...]
